{
  "vocab": {
    "Brit": 1982,
    "SUFFOLK.</w>": 1731,
    "Re": 1858,
    "rather</w>": 1885,
    "[_Read": 3764,
    "iol": 1924,
    "same</w>": 2017,
    "her,</w>": 2057,
    "Nor": 2009,
    "ree": 1685,
    "FR": 2098,
    "n?</w>": 3170,
    "CARDIN": 3813,
    "himself,</w>": 3817,
    "<0x83>": 135,
    "le;</w>": 3301,
    "Beli": 3989,
    "<0xA8>": 172,
    "k.</w>": 1106,
    "fif": 3899,
    "drum</w>": 3882,
    "sen": 1367,
    "gat": 2125,
    "<0xA3>": 167,
    "prison": 2165,
    "dieu": 3925,
    "val": 1272,
    "answer</w>": 1596,
    "since</w>": 1759,
    "KING.</w>": 961,
    "<0x76>": 122,
    "t": 344,
    "IO.</w>": 1259,
    "father.</w>": 3482,
    "NORTHUMBERLAND.</w>": 2950,
    "cor": 1102,
    "ent.</w>": 1798,
    "vow": 3150,
    "<0xA4>": 168,
    "worth</w>": 2266,
    "th,</w>": 646,
    "ge,</w>": 1045,
    "best</w>": 1529,
    "That’s</w>": 2664,
    "house,</w>": 3466,
    "da": 529,
    "tongu": 1195,
    "LE": 532,
    "lov": 705,
    "think</w>": 900,
    "time</w>": 861,
    "honour</w>": 1274,
    "state,</w>": 3604,
    "Posth": 2877,
    "<0x1F>": 35,
    "remembran": 4068,
    "stat": 2736,
    "York.</w>": 3416,
    "ten</w>": 1192,
    "<0x52>": 86,
    "are,</w>": 2831,
    "bat": 3579,
    "bloo": 791,
    "SP": 1635,
    "hands</w>": 2342,
    "<0x7D>": 129,
    "<0x5E>": 98,
    "HOTSPUR": 1805,
    "ll.</w>": 2992,
    "gh</w>": 634,
    "Ju": 2718,
    "tongue</w>": 2108,
    "Falstaff": 2773,
    "anything</w>": 4088,
    "return</w>": 2959,
    "form</w>": 2335,
    "honourable</w>": 3767,
    "ju": 999,
    "offic": 2520,
    "TH</w>": 4012,
    "two</w>": 1063,
    "<0x05>": 9,
    "where</w>": 1000,
    "’t,</w>": 2297,
    "MARGARET.</w>": 1488,
    "These</w>": 2048,
    "will.</w>": 2560,
    "ught</w>": 3025,
    "me.</w>": 744,
    "ot": 2482,
    "ORLANDO.</w>": 1604,
    "soldi": 1200,
    "Wor": 2460,
    "lord?</w>": 2522,
    "ist</w>": 2990,
    "ret": 1746,
    "posed</w>": 3383,
    "dom</w>": 2347,
    "matter</w>": 2823,
    "b": 326,
    "peace</w>": 2320,
    "WATCH": 3173,
    "vide</w>": 3905,
    "valiant</w>": 2485,
    "Ac": 3752,
    "gone,</w>": 2797,
    "messeng": 3865,
    "all": 633,
    "His</w>": 995,
    "LIFF": 2554,
    "Being</w>": 3040,
    "bow": 3428,
    "Sweet</w>": 3009,
    "KATHARINE.</w>": 3759,
    "ze</w>": 2498,
    "<0xE9>": 237,
    "BERTRAM.</w>": 1787,
    "Good</w>": 1220,
    "el,</w>": 2253,
    "ed.</w>": 1329,
    "frien": 1475,
    "SH": 1437,
    "safe</w>": 3483,
    "of": 815,
    "P": 308,
    "husband": 3501,
    "co": 904,
    "See</w>": 3559,
    "calls</w>": 3898,
    "Cor": 1470,
    "pois": 2541,
    "Unto</w>": 3641,
    "heaven</w>": 1900,
    "affec": 3261,
    "<0xE8>": 236,
    "could</w>": 1032,
    "of</w>": 373,
    "cel": 3221,
    "sudden</w>": 3669,
    "trait": 1998,
    "[_Aside._]</w>": 2953,
    "sovereign,</w>": 3753,
    "y:</w>": 3864,
    "sted</w>": 4005,
    ".": 274,
    "brother,</w>": 2813,
    "rit": 1610,
    "le.</w>": 1656,
    "war</w>": 2510,
    "<0x69>": 109,
    "<0xF1>": 245,
    "'": 267,
    "se;</w>": 3182,
    "cept</w>": 3913,
    "saf": 2147,
    "go</w>": 917,
    "MARCELLUS.</w>": 3712,
    "A.</w>": 582,
    "MEN": 1144,
    "out</w>": 679,
    "fair,</w>": 3874,
    "ed?</w>": 3688,
    "noise</w>": 3980,
    "ness,</w>": 2029,
    "ll</w>": 370,
    "me;</w>": 1544,
    "free</w>": 3229,
    "CLEOPATR": 1135,
    "them": 1400,
    "TOUCHSTON": 2223,
    "Sir</w>": 1226,
    "hour</w>": 2186,
    "jesty</w>": 2556,
    "emb": 2382,
    "<0xEB>": 239,
    "part": 3807,
    "kne": 1556,
    "first</w>": 1453,
    "Warwick,</w>": 1920,
    "ost": 3461,
    "Than</w>": 1260,
    "held</w>": 3679,
    "ter": 516,
    "strong</w>": 2490,
    "k;</w>": 3811,
    "Hath</w>": 1603,
    "GLOUC": 1485,
    "ry’s</w>": 2158,
    "DROMIO</w>": 1330,
    "saw</w>": 1934,
    "es!</w>": 2618,
    "neigh": 3370,
    "el.</w>": 3896,
    "ould</w>": 469,
    "forth</w>": 1627,
    "LE.</w>": 1624,
    "lik": 2239,
    "EXETER.</w>": 3013,
    "so,</w>": 1385,
    "arti": 3073,
    "whol": 2220,
    "mou": 1945,
    "back</w>": 2140,
    "JUSTICE.</w>": 2667,
    "marry</w>": 3718,
    "self,</w>": 1414,
    "<0xCD>": 209,
    "SAY": 3636,
    "ings,</w>": 2886,
    "here’s</w>": 3681,
    "ho!</w>": 4025,
    "BAR": 1092,
    "<0xB3>": 183,
    "against</w>": 1204,
    "g": 331,
    "hand,</w>": 2066,
    "arm": 1039,
    "sup": 3456,
    "judge": 3357,
    "!—": 3992,
    "satis": 3265,
    "rup": 3822,
    "it._]</w>": 1199,
    "[": 319,
    "yourself</w>": 2337,
    "ll,</w>": 2673,
    "<0xDB>": 223,
    "<0x02>": 6,
    "COUNT": 1803,
    "3": 279,
    "ATOR.</w>": 3524,
    "fire,</w>": 3726,
    "ty</w>": 672,
    "cess": 2856,
    "AST": 3037,
    "ch</w>": 429,
    "ing?</w>": 3123,
    "ET.</w>": 1331,
    "man?</w>": 3238,
    "ledge</w>": 3354,
    "lea": 570,
    "forget</w>": 3922,
    "enough": 2903,
    "ground</w>": 3839,
    "appar": 3796,
    "Pho": 3287,
    "room</w>": 2430,
    "mistress</w>": 3392,
    "’st</w>": 793,
    "quo": 3656,
    "open</w>": 3842,
    "land</w>": 2005,
    "ANG": 3360,
    "thine</w>": 1427,
    "V": 314,
    "lost</w>": 2234,
    "wife,</w>": 3260,
    "fl": 905,
    "some</w>": 800,
    "SET.</w>": 2676,
    "ly": 3472,
    "excellent</w>": 3476,
    "hoo": 2732,
    "them;</w>": 3852,
    "ous": 985,
    "in;</w>": 3538,
    "<0x43>": 71,
    "general</w>": 2782,
    "lips</w>": 3733,
    "dy,</w>": 1700,
    "any</w>": 958,
    "<0x9E>": 162,
    "FF": 683,
    "ERV": 1870,
    "Cle": 2156,
    "embra": 3779,
    "common": 3036,
    "Wilt</w>": 3683,
    "ATR": 1119,
    "prais": 2420,
    "ra": 398,
    "ck’d</w>": 3423,
    "del": 2559,
    "MES": 1712,
    "COUNTESS.</w>": 1818,
    "sel": 540,
    "England’s</w>": 3256,
    "Imo": 2911,
    "done.</w>": 3692,
    "phes": 3151,
    "HEN": 852,
    "Ros": 1433,
    "kep": 2861,
    "ble.</w>": 2920,
    "find</w>": 1239,
    "caus": 2572,
    "’d;</w>": 3323,
    "men.</w>": 2236,
    "]": 321,
    "appear</w>": 4009,
    "<0xE1>": 229,
    "inf": 3291,
    "Dav": 4023,
    "bal": 2928,
    "Ti": 3274,
    "MARCELL": 3529,
    "sh": 476,
    "about</w>": 1645,
    "argu": 3181,
    "LA": 982,
    "my</w>": 386,
    "brea": 853,
    "ep": 1405,
    "MESSENGER.</w>": 1718,
    "}": 353,
    "Somerse": 2648,
    "mad</w>": 3290,
    "rant": 4006,
    "tt": 1469,
    "till</w>": 1273,
    "no": 375,
    "England": 2426,
    "Mortim": 2913,
    "compan": 3057,
    "groun": 2842,
    "soul,</w>": 3095,
    "tell</w>": 895,
    "say</w>": 828,
    "great</w>": 908,
    "ter?</w>": 3005,
    "Orlean": 3862,
    "thou</w>": 471,
    "serve</w>": 2257,
    "spirit</w>": 2442,
    "it,</w>": 829,
    "<pad>": 0,
    "ingha": 3191,
    "ST": 521,
    "were</w>": 669,
    "father,</w>": 2014,
    "ment.</w>": 2775,
    "myself.</w>": 4037,
    "OLK.</w>": 1688,
    "Then,</w>": 3183,
    "GUILDENSTER": 3693,
    "LEOP": 1130,
    "how</w>": 808,
    "face</w>": 1911,
    "fee": 1912,
    "ind,</w>": 2879,
    "LAFEW.</w>": 1847,
    "Humphre": 2589,
    "mir": 3342,
    "receive</w>": 3617,
    "London</w>": 3736,
    "without</w>": 1795,
    "in": 358,
    "bold</w>": 3272,
    "EN.</w>": 748,
    "<0xD2>": 214,
    "wi": 411,
    "ow,</w>": 1216,
    "enter": 2168,
    "row,</w>": 2284,
    "eve</w>": 1792,
    "myself,</w>": 3122,
    "ses,</w>": 3722,
    "head,</w>": 2835,
    "Lu": 2657,
    "hu": 1235,
    "’d,</w>": 1107,
    "d;</w>": 805,
    "em": 2704,
    "Queen,</w>": 3070,
    "ever": 1016,
    "os": 1091,
    "RE": 1955,
    "IG": 3894,
    "KING</w>": 736,
    "rebel": 3107,
    "Hear</w>": 3875,
    "s’</w>": 1725,
    "there": 1079,
    "me": 539,
    "sto": 2907,
    "chang": 3448,
    "dea": 635,
    "ered</w>": 2881,
    "WARWICK.</w>": 1240,
    "les,</w>": 2339,
    "Lea": 3010,
    "sh</w>": 2535,
    "tit": 1866,
    "bless": 2659,
    "ENTLE": 2739,
    "ser": 806,
    "another</w>": 1880,
    "Could</w>": 3684,
    "fat</w>": 3676,
    "should</w>": 668,
    "certain</w>": 2758,
    "war,</w>": 3298,
    "hath</w>": 642,
    "bes": 1267,
    "night</w>": 1693,
    "ati": 670,
    "ROMIO</w>": 1326,
    "bid</w>": 1877,
    "CON": 1014,
    "#": 263,
    "+": 271,
    "el</w>": 3454,
    "praise</w>": 2505,
    "dispat": 4074,
    "that.</w>": 3251,
    "words</w>": 1813,
    "umb": 1647,
    "Marti": 1747,
    "<0xE3>": 231,
    "Read": 3758,
    "ET": 2060,
    "I’ll</w>": 631,
    "ven": 845,
    "content": 3667,
    "pre": 940,
    "ender</w>": 3946,
    "CLO": 1207,
    "Henry’s</w>": 2915,
    "OM": 1388,
    "COMINIUS.</w>": 2377,
    "assad": 3814,
    "tender</w>": 3066,
    "<0xE6>": 234,
    "Hel": 2643,
    "fortun": 1302,
    "suff": 1981,
    "are": 1228,
    "father": 2461,
    "ke": 2118,
    "Bardol": 1952,
    "Engl": 896,
    "cious</w>": 1484,
    "dear</w>": 1561,
    "t!</w>": 1636,
    "Off": 3407,
    "fru": 3551,
    "a,</w>": 1815,
    "To</w>": 509,
    "mb</w>": 3737,
    "friend": 1237,
    "<0x50>": 84,
    "mistres": 1669,
    "<0xAD>": 177,
    "be</w>": 435,
    "[_To</w>": 1976,
    "able</w>": 1921,
    "sing": 2701,
    "wan": 3352,
    "leave</w>": 1118,
    "on</w>": 409,
    "<0x26>": 42,
    "cha": 980,
    "ber": 1923,
    "se,</w>": 901,
    "UCEL": 2968,
    "smil": 3619,
    "in,</w>": 889,
    "JA": 2396,
    "Tow": 2966,
    "Here’s</w>": 3516,
    "GUIDER": 2506,
    "ch,</w>": 1115,
    "CYM": 2055,
    "Horati": 3063,
    "cow": 2115,
    "ec": 653,
    "PUCELLE.</w>": 2999,
    "years</w>": 3295,
    "so</w>": 520,
    "<0xFD>": 257,
    "gra": 716,
    "old</w>": 629,
    "beli": 1897,
    "fellow,</w>": 3395,
    "ness</w>": 949,
    "into</w>": 1074,
    "new": 1217,
    "numb": 2997,
    "se?</w>": 3371,
    "figh": 2035,
    "indeed,</w>": 3171,
    "ON.</w>": 2176,
    "eun": 752,
    "j": 334,
    "DOLPH.</w>": 2022,
    "us?</w>": 2691,
    "mad": 3893,
    "ying</w>": 1594,
    "pray": 2765,
    "danger": 3210,
    "us.</w>": 1024,
    "too</w>": 965,
    "world,</w>": 2621,
    "will": 1071,
    "gold</w>": 3114,
    "takes</w>": 3521,
    "chi": 1549,
    "han": 1210,
    "Talbo": 1690,
    "star": 1953,
    "worse</w>": 3172,
    "AU": 1729,
    "itt": 1059,
    "soul</w>": 2159,
    "won</w>": 4050,
    "Sc": 827,
    "cro": 2309,
    "es’</w>": 3848,
    "master,</w>": 2809,
    "Be": 921,
    "fat": 3444,
    "awhil": 4029,
    "cold</w>": 2663,
    "dly</w>": 1599,
    "ste</w>": 1969,
    "ELL": 1697,
    "<0x6A>": 110,
    "<0x2A>": 46,
    "hou": 1341,
    "nee": 1651,
    "mp</w>": 2305,
    "or,</w>": 1608,
    "SOLDIER.</w>": 1848,
    "tions</w>": 2679,
    "V.</w>": 1375,
    "land": 2764,
    "need</w>": 2871,
    "clu": 3029,
    "that?</w>": 3176,
    "d": 328,
    "often</w>": 3020,
    "GEOR": 3365,
    "Edward,</w>": 3384,
    "side,</w>": 3582,
    "man’s</w>": 2446,
    "mel": 2192,
    "ve</w>": 382,
    "call’d</w>": 3782,
    "Before</w>": 1686,
    "other</w>": 912,
    "der</w>": 890,
    "ded,</w>": 3377,
    "<0xBC>": 192,
    "Thy</w>": 1282,
    "STER": 3611,
    "Egy": 2533,
    "he’ll</w>": 3919,
    "<0xD3>": 215,
    "<0xB7>": 187,
    "every": 3517,
    "beau": 1978,
    "ce": 575,
    "letters</w>": 3455,
    "Protector": 3545,
    "thy</w>": 477,
    "Syra": 3553,
    "gue</w>": 2225,
    "thee</w>": 589,
    "AND.</w>": 3330,
    "O": 307,
    "ween</w>": 1666,
    "heart,</w>": 2209,
    "Offic": 4085,
    "turn</w>": 1595,
    "om</w>": 990,
    "plague</w>": 3708,
    "villa": 1587,
    "haste</w>": 3503,
    "fea": 1751,
    "self</w>": 747,
    "ARCHBI": 3780,
    "death": 2315,
    "shi": 882,
    "<0x60>": 100,
    "SI": 3858,
    "es": 366,
    "spur": 3003,
    "<0xF6>": 250,
    "ere</w>": 444,
    "CARDINAL.</w>": 3934,
    "ts</w>": 603,
    "Caesar": 1462,
    "See": 3745,
    "CHIM": 2174,
    "gla": 1684,
    "DOLL.</w>": 3920,
    "THUM": 2846,
    "Mar": 794,
    "our,</w>": 2415,
    "dit": 3901,
    "near</w>": 1806,
    "Me": 2746,
    "up</w>": 883,
    "LEPIDUS.</w>": 3849,
    "every</w>": 1293,
    "[_Ex": 611,
    "sword</w>": 1933,
    "HORATIO.</w>": 1740,
    "sed</w>": 1459,
    "<0xF7>": 251,
    "seek</w>": 2195,
    "STOL": 1840,
    "sovereign</w>": 3577,
    "oa": 1984,
    "SHOP.</w>": 3971,
    "friends,</w>": 2651,
    "res": 536,
    "command</w>": 3306,
    "ast": 2656,
    "sland": 4051,
    "$": 264,
    "before</w>": 1110,
    "HORAT": 1680,
    "sword,</w>": 3046,
    "lean</w>": 3539,
    "lead</w>": 3378,
    "PHIN.</w>": 3884,
    "bell": 3930,
    "ver</w>": 1230,
    "<0x9C>": 160,
    "most</w>": 721,
    "<0x75>": 121,
    "BARDOLPH.</w>": 2027,
    "trump": 2700,
    "then.</w>": 3926,
    "Like</w>": 2146,
    "have,</w>": 3133,
    "contin": 3701,
    "grace,</w>": 3459,
    "MENENIUS.</w>": 1332,
    "Though</w>": 1771,
    "gentleman</w>": 3809,
    "Cleop": 2301,
    "sin</w>": 3598,
    "POINS.</w>": 2371,
    "lord.</w>": 1271,
    "tear": 2702,
    "lord": 1883,
    "Pu": 3157,
    "hence,</w>": 3640,
    "ven</w>": 880,
    "King.</w>": 2513,
    "Clifford,</w>": 3731,
    "<0x51>": 85,
    "SU": 1702,
    "Fran": 878,
    "Sir,</w>": 2023,
    "faul": 2157,
    "lear": 2167,
    "care</w>": 2638,
    "country</w>": 3422,
    "ou": 357,
    "SE": 983,
    "LAND.</w>": 2391,
    "Doth</w>": 3130,
    "enemy</w>": 3142,
    "ce;</w>": 1501,
    "tion.</w>": 2178,
    "<0x5F>": 99,
    "wret": 2534,
    "IUS.</w>": 605,
    "Palace.</w>": 3908,
    "common</w>": 2308,
    "call</w>": 1312,
    "youth,</w>": 3017,
    "wit</w>": 3685,
    "Plan": 3741,
    "Sic": 4038,
    "pe</w>": 2640,
    "ques": 2001,
    "AD": 1546,
    "ENO": 1658,
    "STOL.</w>": 1889,
    "say,</w>": 1907,
    "longer</w>": 3429,
    "en,</w>": 643,
    "his</w>": 424,
    "water</w>": 3945,
    "PE": 2833,
    "PAROLLES.</w>": 1451,
    "wars</w>": 2843,
    "you;</w>": 2650,
    "this?</w>": 2772,
    "Glou": 1450,
    "HELENA.</w>": 1707,
    "t?</w>": 1201,
    "emp": 1737,
    "<0x55>": 89,
    "<0x72>": 118,
    "COM": 2267,
    "rough": 3512,
    "Caes": 1094,
    "<0xCB>": 207,
    "meet</w>": 1905,
    "PUCEL": 2982,
    "lar": 1181,
    "’s.</w>": 3828,
    "Let’s</w>": 2665,
    "POST": 1970,
    "other": 1547,
    "<0xF4>": 248,
    "ta": 479,
    "ster.</w>": 3544,
    "LAFE": 1831,
    "s;</w>": 821,
    "BELAR": 2568,
    "Here": 2931,
    "ry,</w>": 997,
    "9": 285,
    "ent,</w>": 2047,
    "e-": 2254,
    "cea": 2456,
    "canst</w>": 2870,
    "ight.</w>": 3083,
    "Loo": 3255,
    "ve?</w>": 3672,
    "fac": 2682,
    "thin": 597,
    "sw": 627,
    ".”</w>": 1767,
    "Y.</w>": 581,
    "Richard,</w>": 3077,
    "pati": 1764,
    "fault</w>": 3628,
    "war": 618,
    "u": 345,
    "vil": 1363,
    "thout</w>": 1514,
    "Suff": 1699,
    "friends.</w>": 3199,
    "Antiph": 3434,
    "<0xCE>": 210,
    "phy": 3870,
    "<0xC5>": 201,
    "FALSTAFF": 873,
    "!”</w>": 2935,
    "BELARIUS.</w>": 2598,
    "At</w>": 1997,
    "her": 750,
    "tri": 1053,
    "MARGAR": 1468,
    "op": 623,
    "wr": 1054,
    "wrong": 2034,
    "court</w>": 2898,
    "En": 505,
    "?": 291,
    "ors,</w>": 3178,
    "’ll</w>": 554,
    "fir": 881,
    "ong</w>": 969,
    "An": 397,
    "DIER.</w>": 1845,
    "fre": 2537,
    "d?</w>": 906,
    "sul": 2802,
    "righ": 1571,
    "s!</w>": 1164,
    "Take</w>": 2274,
    "am": 2353,
    "EPHES": 1452,
    "Pi": 2590,
    "gir": 4015,
    "WATCH.</w>": 4013,
    "<0xFA>": 254,
    "[_Exeunt</w>": 1298,
    "camp": 3523,
    "too.</w>": 2075,
    "BER": 2646,
    "fortune</w>": 2543,
    "AG": 1441,
    "Cap": 2086,
    "up.</w>": 3232,
    "<0x58>": 92,
    "palace.</w>": 2370,
    "AUFIDIUS.</w>": 3061,
    "murder": 3201,
    "_.": 1152,
    "camp</w>": 4078,
    "ce?</w>": 1918,
    "honour": 1342,
    "writ": 3286,
    "sla": 1268,
    "go.</w>": 2698,
    "2": 278,
    "there.</w>": 3560,
    "Those</w>": 3639,
    "Rom": 1089,
    "Exe": 3094,
    "ush</w>": 3975,
    "limb": 3855,
    "un": 426,
    "or": 361,
    "FLUELLEN.</w>": 2334,
    "<unk>": 3,
    "news</w>": 2542,
    "YRAC": 1141,
    "TIZ": 2109,
    "er;</w>": 2193,
    "GLOUCESTER.</w>": 1506,
    "<0x5C>": 96,
    "drink</w>": 3259,
    "oul": 452,
    "ths</w>": 2634,
    "ure</w>": 703,
    "kno": 3623,
    "blu": 4047,
    "Nor</w>": 1444,
    "CONSTABLE.</w>": 3315,
    "flow": 2402,
    "son</w>": 971,
    "Master</w>": 2172,
    "esti": 3420,
    "por": 1198,
    "<0xA6>": 170,
    "ay,</w>": 1007,
    "<0x32>": 54,
    "mine,</w>": 2540,
    "away,</w>": 2807,
    "ingly</w>": 4082,
    "<0xCC>": 208,
    " ": 260,
    "ther.</w>": 1085,
    "High": 2943,
    "As</w>": 657,
    "d.</w>": 463,
    "tly</w>": 1559,
    "<0xF8>": 252,
    "head</w>": 1560,
    "Whil": 2658,
    "VIRAG": 2945,
    "th?</w>": 3225,
    "MENAS.</w>": 3616,
    "hand.</w>": 2330,
    "mat": 1078,
    "enough</w>": 2376,
    "devil</w>": 3022,
    "ff": 557,
    "omor": 2241,
    "<0x79>": 125,
    "Alexandria.</w>": 3264,
    "We</w>": 869,
    "O,</w>": 891,
    "know,</w>": 2762,
    "enc": 2961,
    "ourselves</w>": 3509,
    "SIC": 1570,
    "th’": 3368,
    "ended</w>": 2825,
    "EPH": 1419,
    "case</w>": 3761,
    "Our</w>": 1263,
    "unc": 1572,
    "GEORGE.</w>": 3438,
    "Bertra": 3772,
    "speak</w>": 992,
    "Pos": 2642,
    "<0x0F>": 19,
    "<0x54>": 88,
    "lord;</w>": 3433,
    "Sil": 3411,
    "ches": 3480,
    "Par": 1881,
    "Most</w>": 2264,
    "piece</w>": 3942,
    "ex": 687,
    "ice</w>": 1853,
    "guil": 2636,
    "<0x08>": 12,
    "such</w>": 722,
    "deed</w>": 2087,
    "ses</w>": 1677,
    "zen</w>": 4083,
    "et": 710,
    "per</w>": 2841,
    "show": 1863,
    "Yor": 1069,
    "sum": 2282,
    "Sha": 988,
    "fur": 1458,
    "il.</w>": 3462,
    "majest": 2932,
    "long</w>": 1580,
    "LOR": 3670,
    "ty.</w>": 3927,
    "<0x0A>": 14,
    "ship</w>": 1940,
    "ts,</w>": 1236,
    "Sw": 2738,
    "It</w>": 782,
    "ards</w>": 2778,
    "soon": 3426,
    "bro": 742,
    "he,</w>": 2544,
    "gs</w>": 2867,
    "keep</w>": 1380,
    "rel</w>": 3918,
    "DUKE.</w>": 4057,
    "lack</w>": 2885,
    "won": 1875,
    "WARW": 1229,
    "ANT.</w>": 2645,
    "sovereig": 1800,
    "wee": 3627,
    "<0x66>": 106,
    "troth,</w>": 4022,
    "dar": 1723,
    "us": 577,
    "twent": 2526,
    "bi": 2368,
    "seems</w>": 3775,
    "PHOLUS</w>": 1245,
    "life,</w>": 1990,
    "ins</w>": 1289,
    "deb": 3116,
    "ther</w>": 499,
    "scorn</w>": 3957,
    "<0xBE>": 194,
    "serv": 2509,
    "br": 2767,
    "liber": 2771,
    "mor": 515,
    "BU": 2574,
    "an</w>": 457,
    "own</w>": 706,
    "tten</w>": 3996,
    "lives</w>": 2466,
    "ler</w>": 3949,
    "sea</w>": 3153,
    "GU": 1340,
    "if</w>": 608,
    "cy</w>": 1769,
    "weak</w>": 3607,
    "do</w>": 538,
    "titu": 3699,
    "tain": 1558,
    "instru": 3854,
    "more</w>": 625,
    "Rome</w>": 2276,
    "Pea": 2439,
    "LU": 2078,
    "isbur": 2780,
    "cy,</w>": 2524,
    "looks</w>": 2796,
    "so": 595,
    "ness.</w>": 2729,
    "gone.</w>": 3177,
    "wal": 2551,
    "Here,</w>": 3530,
    "title</w>": 3550,
    "ate.</w>": 3803,
    "grow</w>": 3209,
    "THE</w>": 2449,
    "rows</w>": 3600,
    "and</w>": 367,
    "<0x4E>": 82,
    "France.</w>": 2351,
    "tur": 879,
    "join</w>": 3790,
    "all,</w>": 1757,
    "JU": 2499,
    "TI": 1738,
    "differ": 3885,
    "truly</w>": 3994,
    "OL": 524,
    "cut</w>": 2753,
    "<0xFF>": 259,
    "ON": 602,
    "sir.</w>": 1473,
    "pil": 4049,
    "Yes,</w>": 2565,
    "ROSENCRANT": 2873,
    "ult</w>": 3213,
    "Ra": 3788,
    "lay</w>": 1876,
    "prove</w>": 2121,
    "’t</w>": 1097,
    "ROSENC": 2845,
    "es._]</w>": 3278,
    "mighty</w>": 3493,
    "\"": 262,
    "ary</w>": 2719,
    "indeed</w>": 2788,
    "PRIN": 1025,
    "where": 1478,
    "est": 772,
    "<0x35>": 57,
    "whom</w>": 1490,
    "ness": 2448,
    "<0x80>": 132,
    "ate</w>": 822,
    "iti": 854,
    "hast</w>": 1136,
    "BO": 1706,
    "run": 2077,
    "rest,</w>": 3881,
    "promis": 2021,
    "up": 573,
    "row</w>": 1126,
    "virtue</w>": 3175,
    "Pla": 3917,
    "<0x40>": 68,
    "HAM": 790,
    "dge</w>": 1817,
    "see</w>": 770,
    "more,</w>": 2214,
    "side</w>": 2791,
    "il": 481,
    "state</w>": 2407,
    "<0x94>": 152,
    "hich</w>": 563,
    "GENTLE": 2740,
    "Tur": 3869,
    "ed,</w>": 1021,
    "nat": 1112,
    "gives</w>": 3207,
    "roo": 3944,
    "tee": 4034,
    "deli": 2212,
    "ump": 1732,
    "<0x2F>": 51,
    "[_Aside": 1906,
    "their</w>": 579,
    "PR": 1006,
    "To": 3409,
    "goes</w>": 2926,
    "quickly</w>": 3778,
    "<0x15>": 25,
    "Octavi": 3846,
    "ch": 450,
    "<0xDD>": 225,
    "bar": 1372,
    "AGEN": 4080,
    "Que": 1347,
    "physi": 3914,
    "Sh": 1584,
    "not.</w>": 1710,
    "<0x04>": 8,
    "rasc": 3421,
    "ans,</w>": 3939,
    "<0x4D>": 81,
    "suit</w>": 3572,
    ".—": 1447,
    "on?</w>": 3154,
    "stres": 1397,
    "van": 1288,
    "wom": 968,
    "AGRIPP": 4027,
    "all.</w>": 1814,
    "pect</w>": 3594,
    "though": 1366,
    "prithee,</w>": 3469,
    "@": 292,
    "<0x00>": 4,
    "PO": 1175,
    "al,</w>": 1420,
    "grace</w>": 1861,
    "ery</w>": 2244,
    "LAR": 3324,
    "fool</w>": 3393,
    "ties</w>": 3314,
    "lord,</w>": 802,
    "heard</w>": 1575,
    "pity</w>": 2575,
    "He": 4044,
    "UM": 1456,
    "Whom</w>": 3412,
    "time,</w>": 1977,
    "loss</w>": 3522,
    "France</w>": 1966,
    "reven": 1837,
    "stol": 2041,
    "talk</w>": 2941,
    "Ja": 1937,
    "ed</w>": 389,
    "Cleopat": 2303,
    "breath</w>": 3570,
    "shoul": 3216,
    "bur": 1061,
    "And,</w>": 1377,
    "one</w>": 576,
    "draw</w>": 2313,
    "vel</w>": 3245,
    "rose</w>": 4042,
    "SHALLO": 2169,
    "<0xEA>": 238,
    "d,</w>": 399,
    "ir.</w>": 3978,
    "trou": 2912,
    "<0x34>": 56,
    "vi": 632,
    "tran": 3940,
    "ene</w>": 941,
    "ll": 691,
    "honour,</w>": 3023,
    "ward</w>": 1357,
    "hop": 1209,
    "down,</w>": 3118,
    "hat": 4043,
    "enem": 3331,
    "eep</w>": 888,
    "ING": 1683,
    "mean</w>": 2188,
    "ised</w>": 3653,
    "_]</w>": 500,
    "<0x42>": 70,
    "ble": 2246,
    "reason</w>": 2375,
    "<0x8A>": 142,
    "sts</w>": 3044,
    "knew</w>": 2649,
    "wouldst</w>": 3139,
    "lest</w>": 3717,
    "its</w>": 1343,
    "amb": 2197,
    "INIUS.</w>": 1242,
    "gro": 2058,
    "advanta": 3525,
    "Pri": 2849,
    "IANA.</w>": 1291,
    "kings</w>": 3743,
    "same.</w>": 4072,
    "house.</w>": 2830,
    "oc": 2986,
    "dead</w>": 2119,
    "Pray</w>": 2346,
    "swear</w>": 2395,
    "Under</w>": 2848,
    "still</w>": 1540,
    "ES.</w>": 1872,
    "base</w>": 2854,
    "er?</w>": 2518,
    "Alexandri": 2993,
    "Shall</w>": 1243,
    "even</w>": 1554,
    "three</w>": 1801,
    "TIUS.</w>": 2462,
    "ends</w>": 2929,
    "He’s</w>": 2974,
    "ves</w>": 764,
    "<0xCF>": 211,
    "deser": 1776,
    "arms</w>": 2812,
    "m’d</w>": 2872,
    "borne</w>": 3495,
    "home.</w>": 3696,
    "denster": 3821,
    "ter,</w>": 1060,
    "Du": 859,
    "Wha": 1003,
    "en.</w>": 1423,
    "<0x25>": 41,
    "FE": 1742,
    "GE.</w>": 3119,
    "<0x33>": 55,
    "imp": 1314,
    "age,</w>": 3590,
    "golden</w>": 3508,
    "left</w>": 1938,
    "ac": 723,
    "dred</w>": 2808,
    "Anti": 2516,
    "id.</w>": 3547,
    "ess,</w>": 1221,
    "born</w>": 2578,
    "AN.</w>": 1319,
    "sake</w>": 3853,
    "jes": 2127,
    "[_Exit._]</w>": 1215,
    "ether</w>": 3090,
    "pped</w>": 3845,
    "spi": 1927,
    "st?</w>": 3928,
    "ge</w>": 587,
    "wo": 1898,
    "is’t</w>": 3595,
    "’t.</w>": 1868,
    "ence": 4011,
    "bound</w>": 2512,
    "him</w>": 501,
    "ORLEAN": 3932,
    "Men": 2549,
    "cher": 2918,
    "course</w>": 2975,
    "le</w>": 474,
    "gone</w>": 2858,
    "it</w>": 428,
    "Ital": 3762,
    "Cliffor": 2135,
    "AC": 865,
    "law": 1728,
    "dead,</w>": 2715,
    "said</w>": 1765,
    "follow</w>": 2015,
    "alone</w>": 3405,
    "ey": 697,
    "thee!</w>": 3984,
    "<0xE5>": 233,
    "Never</w>": 3388,
    "wherein</w>": 3695,
    "e’er</w>": 2671,
    "le": 449,
    "bed</w>": 2547,
    "Orlan": 2924,
    "ROSENCRANTZ": 3042,
    "ster,</w>": 2363,
    "Buck": 3520,
    "While</w>": 3976,
    "Bo": 2511,
    "ds,</w>": 850,
    "VI.</w>": 3457,
    "ETER.</w>": 2735,
    "<0x8C>": 144,
    "Sy": 3104,
    "c": 327,
    "Talbot</w>": 3146,
    "st.</w>": 1426,
    "COU": 1629,
    "Mark</w>": 3567,
    "appear": 3404,
    "king,</w>": 1842,
    "chol": 2687,
    "BRUTUS.</w>": 1954,
    "on’s</w>": 3240,
    "UC": 911,
    "ROSALIND.</w>": 1165,
    "bears</w>": 3435,
    "ve": 1121,
    "Falsta": 2245,
    "sleep</w>": 3490,
    "ering</w>": 3535,
    "5": 281,
    "HO": 1134,
    "married</w>": 3511,
    "ce</w>": 441,
    "ob": 1583,
    "either</w>": 2577,
    "ive</w>": 1064,
    "wor": 485,
    "speak.</w>": 2580,
    "lion</w>": 3915,
    "selves</w>": 1888,
    "him;</w>": 2312,
    "stoo": 3614,
    "e?</w>": 817,
    "near": 3673,
    "VOLUMN": 2604,
    "mine</w>": 868,
    "here</w>": 876,
    "ron": 2730,
    "count</w>": 3308,
    "CITIZ": 2111,
    "Mo": 1961,
    "say": 2093,
    "tongue,</w>": 3742,
    "L": 304,
    "IL": 1098,
    "Pol": 2332,
    "like</w>": 624,
    "B": 294,
    "here": 1609,
    "off,</w>": 3754,
    "mb": 590,
    "ma": 395,
    "a.</w>": 1944,
    "sons</w>": 2713,
    "ge.</w>": 1311,
    "IA.</w>": 966,
    "rou": 848,
    "For": 1125,
    "<0xC8>": 204,
    "spea": 737,
    "DOL": 1449,
    "guard</w>": 3961,
    "quick": 2579,
    "GAR": 1448,
    "doub": 1754,
    "dig": 2392,
    "CA": 1093,
    "gi": 591,
    "man,</w>": 1376,
    "cla": 1445,
    "IOL": 1391,
    "knows</w>": 2416,
    "impor": 4089,
    "ess.</w>": 1496,
    "Ri": 1465,
    "sk": 1646,
    "POSTHUMUS.</w>": 2194,
    "York</w>": 2083,
    "III.</w>": 1538,
    "k’d</w>": 2692,
    "answ": 1179,
    "drea": 1721,
    "her.</w>": 2094,
    "GENTLEMAN.</w>": 2927,
    "ls</w>": 3234,
    "this</w>": 467,
    "equ": 3427,
    "further</w>": 2776,
    "we</w>": 526,
    "clo": 1315,
    "spec": 2781,
    "sweet</w>": 1147,
    "al": 405,
    "attend</w>": 3966,
    "PID": 3749,
    "yet</w>": 843,
    "Or": 1632,
    "hearts</w>": 3358,
    "ic": 914,
    "mortal</w>": 3128,
    "<0xF2>": 246,
    "foolish</w>": 4060,
    "here?</w>": 2910,
    "under</w>": 2161,
    "[_Exeunt._]</w>": 1082,
    "went</w>": 3836,
    "<0x41>": 69,
    "they</w>": 600,
    "lady,</w>": 3763,
    "Attendan": 3871,
    "All</w>": 1486,
    "scar": 2464,
    "too,</w>": 2855,
    "kind</w>": 2110,
    "CI": 1774,
    "ou</w>": 377,
    "sion,</w>": 3514,
    "ur": 425,
    "Thou</w>": 832,
    "worl": 924,
    "No,</w>": 1128,
    "La": 1300,
    "Saint</w>": 2492,
    "horse,</w>": 3677,
    "<0x8D>": 145,
    "ster</w>": 1387,
    "<0x3A>": 62,
    "ming</w>": 3053,
    "bod": 3734,
    "wixt</w>": 2721,
    "WIL": 3016,
    "’er</w>": 1096,
    "ys.</w>": 3343,
    "*": 270,
    "cre": 1513,
    "ish</w>": 767,
    "spir": 1819,
    "Bard": 1949,
    "<0xA0>": 164,
    "fortunes</w>": 3886,
    "Gra": 1869,
    "streng": 2181,
    "Forest</w>": 3626,
    "X.</w>": 3638,
    "<": 288,
    "many</w>": 1100,
    "ert</w>": 2853,
    "NORTHUMBER": 2896,
    "something</w>": 3075,
    "black</w>": 3244,
    "Whose</w>": 1739,
    "year": 2481,
    "wh": 461,
    "<0x07>": 11,
    "<0x14>": 24,
    "CAESAR.</w>": 1873,
    "remember</w>": 3080,
    "quar": 2409,
    "cked</w>": 2219,
    "ADR": 2132,
    "<0x2E>": 50,
    "present</w>": 2180,
    "Vol": 2400,
    "he</w>": 431,
    "glad</w>": 3230,
    "<0xCA>": 206,
    "<0x87>": 139,
    "AN": 480,
    "Gu": 2261,
    "d’": 3386,
    "mine.</w>": 4075,
    "af": 1013,
    "Alex": 2037,
    "SOMERSET.</w>": 2938,
    "Y": 317,
    "thing,</w>": 3840,
    "word</w>": 1967,
    "Antiphol": 3465,
    "KATHAR": 3706,
    "les</w>": 1337,
    "Yea,</w>": 2595,
    "Attend": 2895,
    "dam,</w>": 2553,
    "fy</w>": 3307,
    "ly,</w>": 1290,
    "our.</w>": 3203,
    "<0x90>": 148,
    "broke</w>": 3506,
    "done</w>": 1535,
    "Guil": 3727,
    "ons</w>": 1028,
    "son": 1251,
    "remo": 3658,
    "speaks</w>": 3660,
    "sur": 1037,
    "flat": 2531,
    "IMOG": 1612,
    "If</w>": 645,
    "Which</w>": 877,
    "Gent": 3432,
    "BR": 1569,
    "fan": 2292,
    "dri": 2473,
    "place,</w>": 3481,
    "IMO": 1607,
    "vir": 1299,
    "led</w>": 1564,
    "AL": 565,
    "Yet</w>": 1355,
    "<0x9D>": 161,
    "says</w>": 2345,
    "sin": 2031,
    "awa": 907,
    "does</w>": 1851,
    "<0xB0>": 180,
    "’gainst</w>": 3071,
    "grief</w>": 3401,
    "perfor": 3625,
    "Wh": 482,
    "dres": 3596,
    "si": 497,
    "Roman</w>": 2707,
    "’st,</w>": 3953,
    "might</w>": 1222,
    "ali": 2175,
    "<0x88>": 140,
    "Ano": 1826,
    "ves.</w>": 3374,
    "it?</w>": 2269,
    "death.</w>": 2080,
    "LORD.</w>": 1306,
    "So,</w>": 2801,
    "mean": 1176,
    "<0xA7>": 171,
    "tal</w>": 2479,
    "justi": 3344,
    "<0x78>": 124,
    "<0xC7>": 203,
    "fellow": 1701,
    "that</w>": 416,
    "ith,</w>": 3289,
    "little</w>": 1515,
    "save</w>": 2314,
    "om": 387,
    "fo": 957,
    "LO": 769,
    "QU": 943,
    "INE.</w>": 1660,
    "can</w>": 785,
    "IV.</w>": 1965,
    "pard": 2002,
    "Go,</w>": 2869,
    "doubt</w>": 2947,
    "bus": 1654,
    "wise</w>": 3391,
    "dful</w>": 3689,
    "From</w>": 1418,
    "kes</w>": 1034,
    "having</w>": 3102,
    "ours</w>": 2283,
    "pat": 1903,
    "igh": 522,
    "forwar": 3847,
    "s:</w>": 2989,
    "Somer": 1820,
    "dinn": 3179,
    "en": 364,
    "<0xB2>": 182,
    "N.</w>": 1421,
    "There": 1075,
    "Have</w>": 1310,
    "beseech</w>": 2272,
    "sooner</w>": 3910,
    "lif": 745,
    "exec": 3332,
    "t’s</w>": 860,
    "ty": 2973,
    "<0x1C>": 32,
    "Whi": 2095,
    "Duke</w>": 996,
    "done,</w>": 2357,
    "York,</w>": 2133,
    "OLUMN": 2594,
    "Mine</w>": 2955,
    "sir": 630,
    "ments</w>": 2532,
    "SHAL": 2162,
    "tw": 835,
    "Go</w>": 1508,
    "SUFF": 1703,
    "DU": 1741,
    "next</w>": 2917,
    "day</w>": 1116,
    "sion.</w>": 4045,
    "Ox": 4062,
    "Dou": 2789,
    "mul": 3389,
    "BI": 3630,
    "ance</w>": 976,
    "hard</w>": 2752,
    "WAT": 3155,
    "retur": 2581,
    "march</w>": 3543,
    "ns,</w>": 3276,
    "world</w>": 1358,
    "ray</w>": 1986,
    "things</w>": 1797,
    "almost</w>": 2743,
    "of.</w>": 3186,
    "ge": 682,
    "hand</w>": 1498,
    "soun": 2343,
    "break</w>": 2028,
    "off": 799,
    "ight</w>": 698,
    "again.</w>": 2053,
    "are</w>": 488,
    "sle": 3987,
    "Go": 734,
    "become</w>": 3269,
    "made</w>": 933,
    "Her": 3132,
    "im": 1705,
    "t’": 3620,
    "Q": 309,
    "mar": 732,
    "<0xEE>": 242,
    "tre": 2068,
    "JUST": 2627,
    "gentle": 1297,
    "BARB": 1657,
    "INCH": 3592,
    "hour": 1616,
    "row": 640,
    "We": 1491,
    "KAT": 3703,
    "deep</w>": 3424,
    "which,</w>": 3879,
    "preva": 3601,
    "our</w>": 385,
    "Warwick</w>": 1989,
    "ger</w>": 2696,
    "thous": 1424,
    "ini": 1717,
    "Beau": 3659,
    "ton": 733,
    "flesh</w>": 3566,
    "G": 299,
    "Well,</w>": 1346,
    "send</w>": 2074,
    "was</w>": 566,
    "te": 567,
    "to,</w>": 3129,
    "hun": 1644,
    "ice,</w>": 3664,
    "May</w>": 2240,
    "ST</w>": 826,
    "4": 280,
    "stan": 1434,
    "ish,</w>": 2991,
    "happy</w>": 2468,
    "ES": 663,
    "ignor": 3702,
    "pro": 601,
    "makes</w>": 1652,
    "pie": 3711,
    "SEN": 1256,
    ")": 269,
    "master</w>": 2136,
    "Of</w>": 787,
    "inter": 2805,
    "FRENC": 3981,
    "villain</w>": 4028,
    "[_Exeun": 778,
    "merry</w>": 3655,
    "[_Exit</w>": 1411,
    "any": 2344,
    "on!</w>": 3414,
    "Say</w>": 2515,
    "esseng": 1783,
    "um.</w>": 2786,
    "Ch": 3058,
    "there’s</w>": 2459,
    "sworn</w>": 3394,
    "age</w>": 1617,
    "After</w>": 3587,
    "<0x36>": 58,
    "mu": 533,
    "ss,</w>": 2763,
    "Rome,</w>": 3719,
    "ling</w>": 2049,
    "blessed</w>": 3955,
    "Edward</w>": 2355,
    "ther’s</w>": 1321,
    "lab": 2476,
    "Pistol": 3613,
    "<0xA1>": 165,
    "Is": 3373,
    "<0xC9>": 205,
    "amon": 3588,
    "<0x7B>": 127,
    "<0x7E>": 130,
    "King,</w>": 1777,
    "MARTIUS.</w>": 3309,
    "CLEOP": 1133,
    "ors</w>": 1914,
    "st": 378,
    "Ah,</w>": 2112,
    "al.</w>": 2327,
    "ENCE.</w>": 3406,
    "nigh": 1090,
    "CELIA.</w>": 1733,
    "husband</w>": 3382,
    "world.</w>": 3397,
    "per": 667,
    "<0x3F>": 67,
    "<0x63>": 103,
    "thank</w>": 1849,
    "dra": 1262,
    "new</w>": 2336,
    "field.</w>": 3768,
    "IN.</w>": 2081,
    "sight</w>": 3633,
    "n;</w>": 4004,
    "ation,</w>": 3320,
    "de.</w>": 2380,
    "<0x59>": 93,
    "home,</w>": 3208,
    "mil": 1653,
    "<0x0C>": 16,
    "ys</w>": 998,
    "Let</w>": 866,
    "compani": 3589,
    "PP": 4014,
    "brave</w>": 2387,
    "now.</w>": 2451,
    "th</w>": 443,
    "end.</w>": 3460,
    "<0x93>": 151,
    "servi": 1615,
    "die.</w>": 3136,
    "<0x70>": 116,
    "let": 1553,
    "hur": 2614,
    "Poloni": 4003,
    "believe</w>": 2712,
    "<0x73>": 119,
    "eni": 3007,
    "hither,</w>": 3844,
    "dee": 1533,
    "cra": 1671,
    "sol": 931,
    "SA": 3109,
    "Alas,</w>": 2883,
    "you</w>": 402,
    "oul</w>": 1428,
    "IDER": 2502,
    "here.</w>": 2364,
    "tu": 1008,
    "Al": 1631,
    "ew</w>": 2779,
    "ouldst</w>": 1829,
    "<0x8B>": 143,
    "swee": 2322,
    "AUF": 3032,
    "whil": 2006,
    "T.</w>": 616,
    "y?</w>": 1138,
    "heav": 1643,
    "OF</w>": 757,
    "Count": 3880,
    "gri": 1160,
    "up,</w>": 3004,
    "sea": 1208,
    "beauty</w>": 2399,
    "occa": 3602,
    "reti": 3810,
    "let</w>": 699,
    "town</w>": 3943,
    "r": 342,
    "Earl</w>": 2418,
    "deman": 3924,
    "6": 282,
    "thing</w>": 813,
    "RICHARD.</w>": 1727,
    "<0x3B>": 63,
    "good</w>": 586,
    "d._]</w>": 2828,
    "now?</w>": 3168,
    "revol": 3715,
    "DIANA.</w>": 3137,
    "y!</w>": 1174,
    "Because</w>": 3756,
    "fiel": 1550,
    "desire</w>": 2545,
    "to</w>": 374,
    "VIR": 2199,
    "U": 313,
    "ways</w>": 3832,
    "fellow</w>": 2563,
    "us!</w>": 3963,
    "id,</w>": 2166,
    "pray</w>": 1370,
    "draw": 2440,
    "on,</w>": 641,
    "lin": 1761,
    "pow": 1117,
    "rema": 2417,
    "heart.</w>": 2483,
    "cell": 1909,
    "fire</w>": 3131,
    "trust</w>": 3215,
    "coun": 789,
    "those</w>": 1183,
    "sue</w>": 2957,
    "DENSTER": 3661,
    "Chri": 3806,
    "rag": 3362,
    "YM": 1720,
    "<0x95>": 153,
    "din": 1979,
    "POMPEY.</w>": 3249,
    "<0x49>": 77,
    "NOR": 2749,
    "er’d</w>": 2888,
    "sta": 741,
    "down</w>": 1430,
    "ing.</w>": 768,
    "Well</w>": 2850,
    "matter.</w>": 3948,
    "cuse</w>": 2783,
    "name</w>": 1334,
    "conf": 1593,
    "rah,</w>": 3145,
    "dy</w>": 759,
    "Planta": 3774,
    "Po": 2013,
    "gre": 1438,
    "enter</w>": 3091,
    "fashi": 3174,
    "<0xBF>": 195,
    "ve,</w>": 964,
    "warlike</w>": 3923,
    "Oc": 3720,
    "live</w>": 1461,
    "spr": 3568,
    "<0x3E>": 66,
    "twenty</w>": 2984,
    "moun": 2211,
    "Lond": 1709,
    "Even</w>": 1871,
    "plo": 2900,
    "y": 349,
    "pretty</w>": 3492,
    "eyes</w>": 1398,
    "KING": 918,
    "ate,</w>": 1573,
    "again": 792,
    "shed</w>": 4066,
    "My</w>": 638,
    "’T": 903,
    "down": 3439,
    "ab": 810,
    "be": 442,
    "grown</w>": 4081,
    "<0x81>": 133,
    "him": 545,
    "long": 1548,
    "prince</w>": 3988,
    "min": 607,
    "Ex": 569,
    "poss": 3072,
    "while</w>": 2445,
    "hal": 1528,
    "<0xAF>": 179,
    "throw</w>": 3494,
    "Guildenster": 3861,
    "king": 1281,
    "stea": 2287,
    "ew": 1517,
    "qui": 1296,
    "um": 2104,
    "men</w>": 939,
    "bed,</w>": 3857,
    "<0x19>": 29,
    "Gloucester,</w>": 2914,
    "only</w>": 1936,
    "WI": 4019,
    "(": 268,
    "that": 942,
    "ched</w>": 2160,
    "ask</w>": 3011,
    "CORIOLAN": 1394,
    "Make</w>": 2414,
    "pi": 1099,
    "needs</w>": 2890,
    "French</w>": 1838,
    "called</w>": 2774,
    "ese</w>": 718,
    "ius</w>": 2437,
    "7": 283,
    "ence.</w>": 1497,
    "ters</w>": 2102,
    "sal": 2471,
    "ding</w>": 1275,
    "griev": 3972,
    "YORK.</w>": 1566,
    "note</w>": 3534,
    "and": 681,
    "Hea": 3190,
    "t:</w>": 3002,
    "<0xDE>": 226,
    "igh</w>": 4000,
    "<0x4C>": 80,
    "ENC": 2084,
    "er’s</w>": 2326,
    "Art</w>": 3785,
    "lo": 396,
    "CELL": 3484,
    "St": 1816,
    "<0x16>": 26,
    "HOR": 1633,
    "again</w>": 1928,
    "FLUELL": 2316,
    "gin": 2609,
    "des</w>": 3410,
    "<0xD1>": 213,
    "him.</w>": 893,
    "ys,</w>": 2504,
    "Cymbel": 2905,
    "cap": 1270,
    "try</w>": 2981,
    "sha": 472,
    "will</w>": 484,
    "LUC": 1886,
    "DOLPH": 2019,
    "Somerset,</w>": 3769,
    "ROM": 1255,
    ",”</w>": 2433,
    "You": 2859,
    "stru": 1655,
    "es,</w>": 552,
    "ous,</w>": 2599,
    "E": 297,
    "ks</w>": 885,
    "ear</w>": 512,
    "els</w>": 2688,
    "’d.</w>": 1650,
    "EX": 2748,
    "ouch": 1810,
    "Dea": 3106,
    "soul": 1681,
    "dow": 1265,
    "FLU": 2311,
    "se.</w>": 1464,
    "witness</w>": 3815,
    "VER": 3235,
    "mayst</w>": 4093,
    "ours,</w>": 3650,
    "Away,</w>": 3312,
    "Are</w>": 1665,
    "mother,</w>": 2800,
    "ROSAL": 1156,
    "Pis": 3019,
    "<0x9F>": 163,
    "goo": 1320,
    "bra": 951,
    "lies</w>": 2033,
    "Sal": 2584,
    "four</w>": 2814,
    "nor": 2421,
    "PRINCE.</w>": 1086,
    "Come,</w>": 1012,
    "ities</w>": 3843,
    "There</w>": 1378,
    "ano": 3140,
    "LANTAGEN": 4084,
    "ve.</w>": 1344,
    "deni": 3921,
    "ORD.</w>": 987,
    "ches</w>": 2723,
    "itizen": 3415,
    "eet</w>": 816,
    "s?</w>": 1067,
    "AM.</w>": 1581,
    "eyes,</w>": 2610,
    "rever": 3447,
    "self": 846,
    "hours</w>": 3113,
    "this": 1002,
    "er.</w>": 676,
    "<0x18>": 28,
    "thing.</w>": 4054,
    "col": 1374,
    "soldier</w>": 3475,
    "Cleopatra": 3064,
    "together.</w>": 4048,
    "the</w>": 363,
    "coming</w>": 3110,
    "Some</w>": 2229,
    "within": 3134,
    "WARD.</w>": 1395,
    "ily</w>": 3198,
    "fres": 3526,
    "US.</w>": 490,
    "cer": 1511,
    "QUEEN</w>": 1562,
    "Egyp": 3001,
    "<0xB1>": 181,
    "FIR": 831,
    "reason": 3938,
    "<0xF9>": 253,
    "Ear": 2030,
    "sci": 2273,
    "land,</w>": 2412,
    "med</w>": 1991,
    "rest": 3824,
    "on.</w>": 701,
    "v’d</w>": 3138,
    "help</w>": 2217,
    "MENEN": 1318,
    "ted,</w>": 1899,
    "<0x85>": 137,
    "old,</w>": 2514,
    "[_A": 1354,
    "sed,</w>": 3863,
    "it.</w>": 796,
    "away.</w>": 2288,
    "cast</w>": 3645,
    "El": 4040,
    "SCEN": 819,
    "<0x1B>": 31,
    "She</w>": 1481,
    "ner</w>": 3900,
    "himself.</w>": 3837,
    "sleep": 2238,
    "ers,</w>": 1068,
    "fter</w>": 2934,
    "royal</w>": 2286,
    "Prote": 2724,
    "plain</w>": 3755,
    "ces": 1050,
    "im</w>": 2122,
    "eig": 1406,
    "’twas</w>": 3367,
    "fore</w>": 656,
    "ation.</w>": 3243,
    "i": 333,
    "IE": 2607,
    "second</w>": 3028,
    "pr": 711,
    "touch": 3250,
    "great": 2306,
    "pluck</w>": 3390,
    "Where</w>": 1101,
    "ken</w>": 1854,
    "in’d</w>": 3419,
    "ing</w>": 391,
    "eep": 975,
    "fair": 1901,
    "<0xC6>": 202,
    "cousin</w>": 3108,
    "peop": 1522,
    "counterfe": 3605,
    "Shallow": 3089,
    "o,</w>": 1187,
    "OLU": 1055,
    "cen": 3351,
    "Ephes": 4092,
    "def": 2056,
    "<0x97>": 155,
    "t;</w>": 1058,
    "repor": 1941,
    "ning</w>": 1467,
    "PH": 677,
    "fam": 3643,
    "Th": 388,
    "<0x2C>": 48,
    "well.</w>": 1339,
    "id</w>": 728,
    "ANTONY.</w>": 1148,
    "Harry</w>": 2804,
    "sever": 3027,
    "Su": 1180,
    "den</w>": 1579,
    "viol": 3112,
    "That,</w>": 3887,
    "husb": 1789,
    "once</w>": 1634,
    "WESTMORELAND.</w>": 3453,
    "NT": 1762,
    "Madam,</w>": 2874,
    "[_Asi": 1489,
    "Cast": 3184,
    "<0xEF>": 243,
    "ESTER.</w>": 1178,
    "[_Aside</w>": 3185,
    "much</w>": 927,
    "GUIL": 3675,
    "then?</w>": 3766,
    "SCENE</w>": 840,
    "Ber": 3325,
    "Now,</w>": 1563,
    "Dis": 2419,
    "do.</w>": 2922,
    "TA": 2793,
    "LANCAST": 3825,
    "shep": 3187,
    "IO</w>": 1308,
    "tell": 2503,
    "On": 2988,
    "whole</w>": 3012,
    "ise</w>": 1023,
    "noth": 2608,
    "perf": 3451,
    "Sen": 3499,
    "tra": 926,
    "desir": 3346,
    "for</w>": 448,
    "<0x37>": 59,
    "pra": 758,
    "mali": 3467,
    "liege,</w>": 3242,
    "just</w>": 3682,
    "dest</w>": 3159,
    "O.</w>": 740,
    "cowar": 3866,
    "ted</w>": 783,
    "re;</w>": 3960,
    "den": 1269,
    "ond": 1364,
    "s._]</w>": 1442,
    "ICE.</w>": 2129,
    "HENRY.</w>": 887,
    "TAL": 2252,
    "ind.</w>": 2948,
    "ish’d</w>": 3054,
    "ship": 3275,
    "Captain</w>": 3770,
    "right</w>": 2117,
    "<0xD0>": 212,
    "times</w>": 1882,
    "pea": 935,
    "ol": 407,
    "fav": 2116,
    "Is</w>": 916,
    "\\": 320,
    "An</w>": 1750,
    "nati": 2666,
    "still,</w>": 3710,
    "consi": 3674,
    "Sta": 2465,
    "die,</w>": 3990,
    "days</w>": 2876,
    "city</w>": 2810,
    "want</w>": 3152,
    "p.</w>": 2255,
    "therefore</w>": 1588,
    "Fir": 3092,
    "diti": 3226,
    "lie": 1957,
    "LAD": 2602,
    "MAN.</w>": 1460,
    "speak,</w>": 3709,
    "<0x39>": 61,
    "Here</w>": 1352,
    "shall</w>": 514,
    "ge;</w>": 3237,
    "cont": 1247,
    "RI": 2697,
    "ded</w>": 1325,
    "loy": 3056,
    "Flourish.</w>": 3143,
    "vanta": 2517,
    "sir;</w>": 3443,
    "God</w>": 1047,
    "lu": 1049,
    "l,</w>": 3117,
    "play</w>": 2231,
    "sorrow</w>": 3629,
    "tains</w>": 3965,
    "CH": 727,
    "CHARLES.</w>": 2904,
    "Within</w>": 3277,
    "lie,</w>": 4010,
    "pur": 1041,
    "look</w>": 1206,
    "Bardolph": 2329,
    "st,</w>": 920,
    "gr": 1752,
    "Ta": 1796,
    "cks</w>": 2153,
    "ges</w>": 2978,
    "Fl": 2489,
    "sir,</w>": 825,
    "Alar": 3463,
    "princ": 2210,
    "told</w>": 2538,
    "thousand</w>": 1555,
    "SERVINGMAN.</w>": 2406,
    "fles": 2745,
    "wrong</w>": 3856,
    "ari": 2285,
    "sting</w>": 3239,
    "faith,</w>": 2279,
    "yield</w>": 2672,
    "beggar": 3478,
    "dign": 4036,
    "or.</w>": 2425,
    "blood</w>": 1402,
    "grief": 2488,
    "ted.</w>": 3266,
    "rown</w>": 3205,
    "k": 335,
    "<0x11>": 21,
    "public</w>": 3271,
    "hy": 3964,
    "<0xC4>": 200,
    "<0xE2>": 230,
    "t-": 2105,
    "fa": 456,
    "sing</w>": 1926,
    "dou": 1429,
    "<0xA5>": 169,
    "madam,</w>": 2389,
    "hum": 3115,
    "buy</w>": 3442,
    "friends</w>": 2149,
    "Ar": 1551,
    "tin": 2495,
    "att": 1169,
    "dead.</w>": 2695,
    "grant</w>": 3279,
    "OWER.</w>": 2662,
    "<0x89>": 141,
    "true</w>": 1279,
    "ev": 495,
    "Would</w>": 2045,
    "self.</w>": 1659,
    "king.</w>": 2435,
    "behold</w>": 3302,
    "<0x13>": 23,
    "MOREL": 3361,
    "<0xBA>": 190,
    "LEPID": 3783,
    "DO.</w>": 1382,
    "resol": 2987,
    "di": 451,
    "GUN": 4026,
    "<0x67>": 107,
    "<0x74>": 120,
    "USE.</w>": 1155,
    "trea": 1349,
    "HOSTESS.</w>": 2054,
    "oom</w>": 2259,
    "acqua": 3649,
    "gen": 1338,
    "ms,</w>": 3381,
    "hel": 1189,
    "<0x29>": 45,
    "int</w>": 1333,
    "lean": 2469,
    "Can</w>": 2632,
    "ets</w>": 3359,
    "ing-": 3335,
    "that’s</w>": 1896,
    "died</w>": 3280,
    "that,</w>": 1915,
    "test</w>": 3531,
    "{": 351,
    "No": 708,
    "fit": 3313,
    "love,</w>": 1619,
    "SICINIUS.</w>": 1639,
    "ti": 432,
    "Rosal": 2142,
    "tion,</w>": 1852,
    "me,</w>": 613,
    "than": 1305,
    "<0xC1>": 197,
    "OLIV": 3425,
    "IER.</w>": 1483,
    "ings</w>": 973,
    "lie</w>": 2173,
    "had</w>": 700,
    "hil": 954,
    "oo": 445,
    "ell": 547,
    "dition</w>": 3859,
    "ene": 1212,
    "nar": 4087,
    "Som": 1568,
    "ents</w>": 2354,
    "lawful</w>": 3751,
    "Lord,</w>": 3014,
    "LADY</w>": 2930,
    "reng": 2154,
    "I": 301,
    "Should</w>": 2539,
    "comfort</w>": 3336,
    "ROS": 1018,
    "|": 352,
    "Charles</w>": 3797,
    "<0x2D>": 49,
    "fol": 1001,
    "hence</w>": 2744,
    "abo": 2761,
    "ble</w>": 659,
    "CORIOL": 1392,
    "Hor": 2822,
    "<0x24>": 40,
    "Pisani": 3067,
    "Wherein</w>": 3563,
    "madam.</w>": 3581,
    "Ser": 2798,
    "off</w>": 1512,
    "neither</w>": 3021,
    "ph": 913,
    "thou,</w>": 2003,
    "thinks</w>": 2557,
    "daughter,</w>": 3890,
    "char": 864,
    "carri": 3031,
    "thro": 3192,
    "Sir": 3339,
    "CARD": 3799,
    "Room</w>": 2441,
    "Without</w>": 3967,
    "HAMLET.</w>": 836,
    "A": 293,
    "sent</w>": 1495,
    "late</w>": 2571,
    "pec": 2613,
    "OMER": 2637,
    "ERTR": 1763,
    "<0x53>": 87,
    "woman</w>": 2369,
    "love.</w>": 2601,
    "ja": 3895,
    "cir": 3557,
    "<0xD4>": 216,
    "love’s</w>": 4094,
    "Un": 1103,
    "!": 261,
    "THIRD</w>": 2863,
    "ing,</w>": 651,
    "beaut": 3316,
    "pe": 981,
    "YR": 1137,
    "ANTON": 1129,
    "mis": 898,
    "tow": 1628,
    "foot</w>": 2933,
    "Bring</w>": 3487,
    "hon": 686,
    "wilt</w>": 1968,
    "yiel": 1833,
    "POMPE": 3218,
    "IAN": 984,
    "joy</w>": 2628,
    "pas": 1218,
    "appro": 3039,
    "counten": 3835,
    "On</w>": 2200,
    "rep": 2114,
    "lat": 2318,
    "STAFF": 855,
    "lau": 3995,
    "Con": 1524,
    "gentle</w>": 1621,
    "swear": 3430,
    "comp": 1113,
    "eu": 2944,
    "lar</w>": 3933,
    "BLE.</w>": 2977,
    "ited</w>": 3668,
    "fidi": 2619,
    "<0xE7>": 235,
    "sy</w>": 2706,
    "hundred</w>": 2838,
    "ve;</w>": 3959,
    "ath</w>": 1362,
    "OLUM": 2576,
    "ROSENCRANTZ.</w>": 3049,
    "friend,</w>": 3376,
    "prepar": 3486,
    "<0x48>": 76,
    "ty,</w>": 2985,
    "Up": 1471,
    "no</w>": 553,
    "Tu": 3337,
    "is</w>": 365,
    "ed": 3217,
    "ard": 967,
    "kingdom": 3540,
    "ye": 2795,
    "whose</w>": 1276,
    "irs</w>": 3740,
    "ute</w>": 2952,
    "boy,</w>": 3569,
    "K.</w>": 735,
    "see,</w>": 3124,
    "he": 986,
    "never</w>": 841,
    "here,</w>": 1790,
    "CHIEF</w>": 2639,
    "people</w>": 2714,
    "beg": 1336,
    "pres": 902,
    "upon</w>": 678,
    "tend": 2134,
    "ons,</w>": 2422,
    "live,</w>": 3830,
    "real": 3085,
    "Hen": 977,
    "assa": 2372,
    "ce.</w>": 650,
    "sat": 2936,
    "<0x46>": 74,
    "Per": 1704,
    "subjec": 3052,
    "ks.</w>": 3147,
    "0": 276,
    "STABLE.</w>": 3285,
    "DAUPHIN.</w>": 3937,
    "ne</w>": 1715,
    "rob": 3610,
    "pp": 724,
    "night.</w>": 3015,
    "wounds</w>": 4008,
    "home</w>": 2475,
    "Des": 3935,
    "woman’s</w>": 3513,
    "Fol": 4067,
    "hate</w>": 3088,
    "vis": 2042,
    "fall": 2235,
    "cause</w>": 1432,
    "victor": 3149,
    "us,</w>": 894,
    "mbel": 2894,
    "Bet": 2909,
    "CHAR": 1641,
    "ne": 559,
    "CORIOLANUS.</w>": 1410,
    "f,</w>": 3497,
    "spoke</w>": 3097,
    "<0x5A>": 94,
    "ds</w>": 525,
    "et</w>": 502,
    "bl": 692,
    "Win": 3634,
    "POLON": 2012,
    "ly.</w>": 1371,
    "rit</w>": 1962,
    "GUIDERIUS.</w>": 2552,
    "One</w>": 2605,
    "bor": 1196,
    "Coriolanus</w>": 4055,
    "truth</w>": 2405,
    "ght</w>": 660,
    "m,</w>": 749,
    "lad": 2832,
    "<0xD7>": 219,
    "al</w>": 755,
    "Westmorel": 3000,
    "<0x0D>": 17,
    "gun": 2998,
    "ck.</w>": 1714,
    "Till</w>": 1983,
    "d:</w>": 2827,
    "what’s</w>": 3228,
    "VERN": 4052,
    "`": 324,
    "Ab": 3573,
    "princely</w>": 3612,
    "body</w>": 1963,
    "pit": 2734,
    "Ma": 675,
    "ta’en</w>": 3700,
    "whor": 3657,
    "Where": 1510,
    "an": 356,
    "time.</w>": 3941,
    "Glouces": 1454,
    "not</w>": 415,
    "Jo": 1035,
    "IACHIMO.</w>": 2182,
    "Wil": 2323,
    "mi": 720,
    "Bes": 2983,
    "is,</w>": 1480,
    "Henry,</w>": 2630,
    "batt": 1916,
    "ter</w>": 473,
    "DUK": 1745,
    "fra": 2717,
    "gu": 617,
    "e;</w>": 801,
    "Must</w>": 2616,
    "five</w>": 3220,
    "ill,</w>": 3498,
    "What’s</w>": 1959,
    "ever</w>": 652,
    "Who</w>": 1127,
    "<0x7F>": 131,
    "purpos": 3189,
    "IC": 644,
    "LANT": 4077,
    "SYRAC": 1142,
    "<0x09>": 13,
    "Great</w>": 3408,
    "Lord</w>": 948,
    "Rome.</w>": 2325,
    "pheli": 3970,
    "parti": 2631,
    "-": 273,
    "itself</w>": 2690,
    "honours</w>": 4073,
    "kept</w>": 3231,
    "rew": 2644,
    "business</w>": 3082,
    "wif": 1081,
    "cover": 3026,
    "gods</w>": 2097,
    "ER.</w>": 593,
    "sit</w>": 2592,
    "ci": 690,
    "ro": 383,
    "REY.</w>": 3222,
    "k!</w>": 3851,
    "neighb": 3735,
    "Call</w>": 3033,
    "tion</w>": 915,
    "deny</w>": 3148,
    "cour": 945,
    "BERTR": 1770,
    "OW": 2139,
    "white</w>": 3452,
    "<0x62>": 102,
    "Majesty</w>": 3827,
    "hea": 604,
    "than</w>": 654,
    "EDWARD.</w>": 1422,
    "ligh": 1988,
    "d-": 2281,
    "ching</w>": 3120,
    "thee;</w>": 3792,
    "ent": 494,
    "<0x20>": 36,
    "o’</w>": 1409,
    "litt": 1322,
    "them.</w>": 1493,
    "battle</w>": 3288,
    "fal": 1365,
    "mast": 1030,
    "<0x6F>": 115,
    "ith</w>": 408,
    "ition</w>": 2164,
    "UT": 1613,
    "thi": 1611,
    "LEAN": 2766,
    "ely</w>": 1087,
    "DEN": 3380,
    "That</w>": 535,
    "steal</w>": 3819,
    "<0x8F>": 147,
    "ant": 2388,
    "alrea": 2555,
    "CLIFF": 2570,
    "crown.</w>": 3968,
    ">": 290,
    "then,</w>": 1443,
    "name,</w>": 2942,
    "God,</w>": 2496,
    "ell</w>": 2155,
    "tal": 1266,
    "weep": 2878,
    "se</w>": 454,
    "Dauph": 2521,
    "she</w>": 739,
    "you,</w>": 662,
    "Wel": 2333,
    "it": 372,
    "vol": 2794,
    "anc": 3060,
    "truth,</w>": 3078,
    "<0x3C>": 64,
    "n,</w>": 818,
    "but</w>": 493,
    "then</w>": 804,
    "sho": 2653,
    "didst</w>": 2623,
    "seem</w>": 2277,
    "dow</w>": 3258,
    "ss</w>": 1667,
    "li": 412,
    "sty</w>": 3038,
    "away</w>": 1642,
    "Suffolk,</w>": 3565,
    "alli": 3800,
    "CHARM": 2423,
    "ought</w>": 2082,
    "chee": 2383,
    "Northumber": 3127,
    "’twere</w>": 3765,
    "fore": 3818,
    "D.</w>": 572,
    "tain,</w>": 2921,
    "Lady</w>": 3375,
    "mer": 962,
    "CLOWN.</w>": 1679,
    "jest": 1637,
    "father’s</w>": 1855,
    "mind</w>": 2317,
    "<0x5D>": 97,
    "R": 310,
    "pret": 3043,
    "greater</w>": 3687,
    "sent": 3834,
    "ER": 489,
    "woman": 2072,
    "Anton": 1172,
    "som</w>": 2661,
    "excell": 2728,
    "com": 460,
    "ked</w>": 1828,
    "well,</w>": 1258,
    "laid</w>": 3196,
    "ir,</w>": 1283,
    "lex": 1670,
    "death,</w>": 2424,
    "IR": 696,
    "some": 1841,
    "bli": 2829,
    "laugh": 3646,
    "English</w>": 1948,
    "llow": 2591,
    "<0xC2>": 198,
    "<0x9A>": 158,
    "use</w>": 974,
    "welcome</w>": 2862,
    "fall</w>": 2010,
    "brother</w>": 1748,
    "hot</w>": 2994,
    "Wal": 2248,
    "Mu": 2044,
    "wat": 1600,
    "dem": 3047,
    "’tis</w>": 955,
    "means</w>": 1973,
    "work</w>": 2954,
    "ting</w>": 1158,
    "PAR": 1379,
    "crown,</w>": 3333,
    "speak": 2680,
    "buil": 3916,
    "law</w>": 3580,
    "W": 315,
    "ef": 1404,
    "rea": 466,
    "DUKE</w>": 2170,
    "true,</w>": 2750,
    "came</w>": 1672,
    "ford,</w>": 3396,
    "wife.</w>": 3704,
    "hear": 588,
    "wert</w>": 3431,
    "read</w>": 2358,
    "Pal": 2596,
    "soo": 3631,
    "e,</w>": 376,
    "mea": 1369,
    "HAR": 1399,
    "er,</w>": 626,
    "thoughts</w>": 2410,
    "over": 1755,
    "bloody</w>": 2016,
    "him,</w>": 923,
    "we": 620,
    "people,</w>": 3680,
    "mp": 578,
    "mercy</w>": 3548,
    "KIN": 599,
    "may": 3496,
    "<0x1A>": 30,
    "<0xD6>": 218,
    "mock</w>": 3263,
    "lip": 3387,
    "ct</w>": 1793,
    "a-": 3956,
    "revenge</w>": 4001,
    "How</w>": 788,
    "ell,</w>": 1139,
    "ned</w>": 1328,
    "est</w>": 562,
    "Aufidi": 2711,
    "men": 959,
    "Flour": 2705,
    ",—</w>": 2597,
    "servan": 3436,
    "IN": 459,
    "AM": 655,
    "Sa": 1168,
    "CADE.</w>": 2484,
    "CLEOPATRA.</w>": 1143,
    "lun": 3500,
    "Phoe": 3697,
    "took</w>": 2356,
    "pol": 2606,
    "ace</w>": 2821,
    "plu": 2413,
    "sl": 1280,
    "o’er</w>": 2792,
    "nature</w>": 2233,
    "fing": 2880,
    "iel": 1502,
    "Can": 3784,
    "ect</w>": 1324,
    "gar": 1527,
    "ound</w>": 922,
    "[_Aside_.]</w>": 3096,
    "now": 619,
    "chamb": 2660,
    "bear</w>": 1177,
    "us</w>": 523,
    "COND</w>": 1151,
    "Look</w>": 2359,
    "spee": 1749,
    "Do": 1620,
    "King": 1726,
    ".—</w>": 2852,
    "che": 1696,
    "Lanca": 2709,
    "mur": 2064,
    "c.</w>": 4035,
    "Bu": 1384,
    "dst</w>": 1108,
    "fe": 925,
    "ICK.</w>": 1076,
    "ten": 2216,
    "Geor": 2759,
    ":": 286,
    "sti": 1530,
    "wil": 2004,
    "ces</w>": 1574,
    "</s>": 2,
    "Da": 1623,
    "eye</w>": 1972,
    "tar": 3729,
    "th’</w>": 753,
    "red</w>": 1919,
    "come.</w>": 2237,
    "nobl": 2722,
    "full</w>": 1425,
    "pos": 1029,
    "Cardin": 3652,
    "es?</w>": 2260,
    "SENGER.</w>": 1713,
    "now</w>": 556,
    "thir": 2573,
    "spirits</w>": 3802,
    "low</w>": 934,
    "expres": 4063,
    "strong": 2494,
    "e": 329,
    "fri": 765,
    "gain": 693,
    "kis": 1950,
    "and,</w>": 844,
    "con": 518,
    "am</w>": 592,
    "one.</w>": 1277,
    "<0x4A>": 78,
    "fear</w>": 1396,
    "Warwick": 3098,
    "’Tis</w>": 1026,
    "Give</w>": 1592,
    "WEST": 2884,
    "blow": 2256,
    "M": 305,
    "you": 475,
    "vile</w>": 3008,
    "let’s</w>": 2588,
    "wherefore</w>": 3969,
    "vy</w>": 3562,
    "Richar": 1640,
    "lady</w>": 2674,
    "Char": 1589,
    "IA": 1994,
    "high": 2126,
    "cient</w>": 3833,
    "sc": 779,
    "eri": 2508,
    "FAL": 871,
    "Marry,</w>": 2480,
    "ENT": 2478,
    "natural</w>": 3440,
    "thought</w>": 1534,
    "lia": 3450,
    "fool": 1412,
    "WILLIAM": 4030,
    "eff": 2684,
    "Welcome,</w>": 4020,
    "show</w>": 1541,
    "re": 401,
    "bet": 798,
    "King</w>": 842,
    "de,</w>": 1542,
    "power</w>": 1781,
    "More</w>": 1987,
    "ace.</w>": 1809,
    "together</w>": 2770,
    "sma": 3479,
    "gg": 2085,
    "st;</w>": 3502,
    "T": 312,
    "HOST": 1835,
    "art</w>": 824,
    "WILLI": 3084,
    "loved</w>": 3248,
    "word.</w>": 3891,
    "ct": 2760,
    "Their</w>": 2507,
    "rought</w>": 2091,
    "voice</w>": 3622,
    "place</w>": 1768,
    "enemi": 2851,
    "a": 325,
    "ANGEL": 3791,
    "musi": 2689,
    "mind,</w>": 3950,
    "stu": 2307,
    "gon": 3507,
    "ch’d</w>": 3491,
    "living</w>": 3867,
    "ink</w>": 3051,
    "<0x6E>": 114,
    "S.</w>": 436,
    "ful</w>": 820,
    "LAERT": 2455,
    "gave</w>": 1864,
    "ver": 541,
    "Di": 1743,
    "bun": 2654,
    "would</w>": 596,
    "umber": 2733,
    "main": 3322,
    "nothing</w>": 1466,
    "hear</w>": 1022,
    "ry": 2799,
    "pleasure</w>": 2840,
    "ANTI": 1248,
    "well;</w>": 3474,
    "s": 343,
    "must</w>": 712,
    "secre": 3267,
    "Ha": 709,
    "been</w>": 989,
    "<0xF5>": 249,
    "SERV": 1932,
    "AGRI": 3997,
    "er": 359,
    "gainst</w>": 1675,
    "Mor": 1294,
    "thful</w>": 3281,
    "fer": 3144,
    ";": 287,
    "By</w>": 867,
    "<0xC0>": 196,
    "shake</w>": 3911,
    "mer</w>": 2652,
    "Hamlet</w>": 3892,
    "equal</w>": 3983,
    "LANCA": 3716,
    "who</w>": 1219,
    "This</w>": 762,
    "make</w>": 664,
    "grave</w>": 3615,
    "Z": 318,
    "this,</w>": 1843,
    "horse</w>": 2685,
    "<0x22>": 38,
    "on": 369,
    "God’s</w>": 2487,
    "mark": 3318,
    "mit</w>": 3714,
    "dness</w>": 2620,
    "/": 275,
    "yet,</w>": 3441,
    "ho": 994,
    "semb": 3081,
    "ne’er</w>": 2059,
    "HOTSPUR.</w>": 1812,
    "TOUCH": 2221,
    "m;</w>": 3541,
    "soon</w>": 2834,
    "tavi": 3798,
    "par": 584,
    "’d</w>": 498,
    "sun": 2352,
    "bir": 2151,
    "W.</w>": 1173,
    "pose</w>": 2065,
    "qua": 2686,
    "all</w>": 496,
    "gates</w>": 3575,
    "action</w>": 3691,
    "OR.</w>": 1779,
    "edi": 3951,
    "Coun": 2527,
    "them?</w>": 3973,
    "play": 2472,
    "YOR": 1477,
    "Duk": 4079,
    "thr": 3597,
    "hide</w>": 4017,
    "ni": 1361,
    "soldiers</w>": 3644,
    "ROSENCR": 2857,
    "rec": 2902,
    "th.</w>": 937,
    "Therefore</w>": 2076,
    "hang": 2386,
    "over</w>": 2587,
    "memor": 3111,
    "kill</w>": 2777,
    "AR.</w>": 1824,
    "s’d</w>": 2976,
    "come</w>": 725,
    "after": 3321,
    "ste": 2725,
    "tor": 1095,
    "cee": 2265,
    "ks,</w>": 1780,
    "ow</w>": 527,
    "ity</w>": 944,
    "hand": 1649,
    "far": 2428,
    "sir?</w>": 3262,
    "<0x27>": 43,
    "ang": 909,
    "Peace,</w>": 3294,
    "h": 332,
    "though</w>": 1162,
    "bu": 946,
    "ft</w>": 1184,
    "far</w>": 1662,
    "ful": 1844,
    "e.</w>": 393,
    "sof": 4016,
    "SOL": 1832,
    "es.</w>": 673,
    "mple</w>": 3303,
    "DY.</w>": 3906,
    "fair</w>": 1193,
    "mark</w>": 3101,
    "Edwar": 2294,
    "ris": 2431,
    "thyself</w>": 3018,
    "Why</w>": 1261,
    "prou": 1722,
    "zen": 3105,
    "anca": 2586,
    "ul": 1161,
    "IAN.</w>": 2218,
    "OUCH": 2215,
    "give</w>": 781,
    "COR": 1194,
    "ey</w>": 863,
    "did</w>": 680,
    "Winches": 4002,
    "le,</w>": 1359,
    "soldier": 3663,
    "beh": 2967,
    "this.</w>": 2971,
    "hol": 1120,
    "st</w>": 400,
    "LUCIANA.</w>": 3161,
    "GOWER.</w>": 3816,
    "fear": 1401,
    "TALBO": 2268,
    "FRENCH</w>": 4031,
    "ARCH": 3776,
    "follow": 1734,
    "virtu": 1565,
    "dd": 2768,
    "th": 355,
    "hadst</w>": 4070,
    "Au": 1930,
    "CAR": 2972,
    "gent": 875,
    "OR": 508,
    "wea": 1246,
    "else</w>": 1913,
    "ea": 368,
    "ose</w>": 688,
    "see": 892,
    "Not</w>": 1224,
    "be,</w>": 2043,
    "Lo": 3233,
    "CYMBEL": 2061,
    "yours</w>": 3860,
    "LANCASTER.</w>": 3876,
    "maid": 3599,
    "vo": 1182,
    "marri": 1744,
    "CITIZEN.</w>": 2213,
    "honest</w>": 2452,
    "French": 3326,
    "<0x8E>": 146,
    "loo": 585,
    "sure.</w>": 3777,
    "oni": 2960,
    "wra": 2946,
    "Messeng": 2291,
    "lt</w>": 991,
    "vereig": 1799,
    "Fi": 2611,
    "RO": 729,
    "t._]</w>": 963,
    "ADRIANA.</w>": 2143,
    "rat": 3504,
    "happ": 1614,
    "There’s</w>": 1956,
    "When</w>": 856,
    "No</w>": 1287,
    "o’": 1674,
    "Charmi": 3224,
    "re</w>": 1040,
    "L.</w>": 1856,
    "Therefore,</w>": 3093,
    "MON": 3947,
    "sp": 487,
    "ind": 1109,
    "hus": 1503,
    "desp": 3564,
    "I.</w>": 695,
    "boo": 2497,
    "boun": 2963,
    "man</w>": 707,
    "SIL": 2741,
    "very</w>": 884,
    "Her</w>": 2296,
    "tes": 2754,
    "Pe": 3282,
    "too": 1004,
    "ARCHBISHOP.</w>": 3977,
    "QUE": 950,
    "nor</w>": 1070,
    "usur": 3593,
    "til</w>": 3632,
    "int": 1408,
    "duty</w>": 3585,
    "Thus</w>": 2137,
    "ood</w>": 537,
    "day,</w>": 1951,
    "cri": 1822,
    "har": 814,
    "m.</w>": 849,
    "daughter</w>": 3045,
    "report</w>": 3100,
    "ced</w>": 2036,
    "point</w>": 3126,
    "ending</w>": 3694,
    "strike</w>": 3608,
    "understand</w>": 4007,
    "ru": 492,
    "CHIE": 2622,
    "half</w>": 2250,
    "men’s</w>": 3603,
    "n.</w>": 1010,
    "choo": 3400,
    "WAR": 857,
    "chil": 1692,
    "Fare": 2189,
    "France,</w>": 1993,
    "WORCESTER.</w>": 3554,
    "gover": 3705,
    "cal": 2558,
    "CYMBELINE.</w>": 2103,
    "Li": 1505,
    "Tru": 2453,
    "ence</w>": 776,
    "SECOND</w>": 1153,
    "shepher": 3227,
    "fetch</w>": 3293,
    "so?</w>": 2868,
    "Le": 2806,
    "ish": 743,
    "know": 847,
    "is": 394,
    "il,</w>": 2242,
    "dies</w>": 2397,
    "Then</w>": 1019,
    "Dromi": 2525,
    "umphre": 2585,
    "army</w>": 3363,
    "ambiti": 3897,
    "<0x64>": 104,
    "West": 2384,
    "youth</w>": 2366,
    "mini": 3804,
    "ans</w>": 2070,
    "Eno": 3246,
    "poor</w>": 1131,
    "loves</w>": 2720,
    "e’s</w>": 763,
    "pris": 1531,
    "You</w>": 647,
    "War": 1011,
    "face,</w>": 3398,
    "For</w>": 621,
    "wha": 1865,
    "ers.</w>": 1605,
    "ENOBARB": 1664,
    "Enobar": 3252,
    "<0xE4>": 232,
    "you.</w>": 928,
    "brother": 2379,
    "ins,</w>": 3458,
    "<0xDF>": 227,
    "el": 380,
    "<0x47>": 75,
    "what</w>": 583,
    "wall": 3164,
    "IM": 1046,
    "head.</w>": 3202,
    "both</w>": 1231,
    "force</w>": 2447,
    "not,</w>": 1166,
    "Joh": 1238,
    "ar": 360,
    "<0x96>": 154,
    "peace,</w>": 3284,
    "bish": 4018,
    "VOLUMNIA.</w>": 2633,
    "<0xC3>": 199,
    "bear": 1393,
    "<0x7C>": 128,
    "thor": 2956,
    "because</w>": 3979,
    "end</w>": 684,
    "gran": 2757,
    "Martius,</w>": 3728,
    "vel": 3236,
    "mira": 3403,
    "y’s</w>": 1083,
    "wear": 2293,
    "me!</w>": 2655,
    "PIS": 2566,
    "ant,</w>": 3738,
    "and.</w>": 2923,
    "rich</w>": 3349,
    "ly</w>": 506,
    "sor": 1295,
    "said,</w>": 3364,
    "busin": 2179,
    "pl": 3686,
    "love</w>": 731,
    "Ge": 2710,
    "offer</w>": 3823,
    "RICHAR": 1661,
    "ye</w>": 2007,
    "kna": 1778,
    "keeps</w>": 3904,
    "<0x06>": 10,
    "lth</w>": 2647,
    "fu": 614,
    "._]</w>": 503,
    "mother</w>": 2302,
    "sick</w>": 3156,
    "themselves</w>": 3299,
    "What,</w>": 1492,
    "service</w>": 2839,
    "’t": 714,
    "der": 870,
    "C": 295,
    "Or</w>": 947,
    "has</w>": 1598,
    "wel": 1711,
    "he’s</w>": 2251,
    "stom": 3329,
    "secon": 2491,
    "Warwi": 1056,
    "thee,</w>": 910,
    "PHOLU": 1244,
    "We’ll</w>": 2232,
    "<0x4B>": 79,
    "pale</w>": 3637,
    "bil": 3050,
    "thou": 564,
    "tru": 628,
    "your</w>": 439,
    "take</w>": 777,
    "ach</w>": 3194,
    "Pro": 1576,
    "Upon</w>": 1518,
    "ig": 886,
    "young</w>": 1474,
    "deliver": 3732,
    "enti": 3546,
    "fi": 689,
    "g,</w>": 3350,
    "K": 303,
    "Bur": 2836,
    "selves,</w>": 3671,
    "ree</w>": 1202,
    "guar": 3169,
    "div": 3254,
    "strength</w>": 3166,
    "gl": 774,
    "each</w>": 1807,
    "pen": 1958,
    "Coriolan": 2500,
    "Ed": 1356,
    "d’s</w>": 1381,
    "The": 2226,
    "SENG": 1708,
    "RIC": 1463,
    "ears</w>": 1205,
    "wis": 2071,
    "IDIUS.</w>": 2548,
    "win": 1520,
    "pet": 2694,
    "arm</w>": 3413,
    "crow": 1038,
    "supp": 2564,
    "mon": 851,
    "BRUT": 1939,
    "s.</w>": 455,
    "Now</w>": 1257,
    "son,</w>": 1606,
    "GE": 2536,
    "<0x61>": 101,
    "us;</w>": 3707,
    "lor": 528,
    "ble,</w>": 2341,
    "X": 316,
    "dear": 1904,
    "her</w>": 574,
    "an,</w>": 1543,
    "fai": 1582,
    "ORC": 3533,
    "SC": 773,
    "ren": 872,
    "<0x3D>": 65,
    "sm": 2785,
    "se": 468,
    "man": 549,
    "oun": 510,
    "With</w>": 784,
    "rough</w>": 1494,
    "stay</w>": 1879,
    "comfor": 2230,
    "pay</w>": 2615,
    "ESS.</w>": 1167,
    "ond</w>": 2826,
    "ORLEANS.</w>": 3985,
    "OP.</w>": 3527,
    "<0x21>": 37,
    "earth</w>": 2949,
    "heaven": 1689,
    "sel</w>": 3437,
    "S": 311,
    "Caesar,</w>": 2787,
    "PISAN": 2567,
    "wa": 531,
    "ANTIPHOLUS</w>": 1250,
    "%": 265,
    "EN": 440,
    "N": 306,
    "<0x77>": 123,
    "pri": 929,
    "fore,</w>": 1867,
    "Den": 3257,
    "clou": 3223,
    "reig": 3786,
    "tim": 1234,
    "<s>": 1,
    "ine</w>": 1009,
    "me?</w>": 1446,
    "<0xB4>": 184,
    "knigh": 3883,
    "Margar": 3889,
    "sake,</w>": 3794,
    "ire</w>": 1716,
    "diff": 3340,
    "<0xB5>": 185,
    "eng": 1403,
    "pun": 3730,
    "Fare</w>": 4021,
    "<0x6C>": 112,
    "q": 341,
    "ere": 606,
    "gy": 2404,
    "Pa": 3069,
    "y._]</w>": 3642,
    "ath": 3907,
    "queen</w>": 4091,
    "best": 2919,
    "jo": 1043,
    "think,</w>": 3167,
    "within</w>": 2183,
    "then": 3678,
    "bon": 2131,
    "besee": 1960,
    "<0xB9>": 189,
    ",—": 2811,
    "comman": 2141,
    "gol": 1884,
    "SENI": 3760,
    "Enter</w>": 571,
    "po": 550,
    "va": 1509,
    "foul</w>": 2467,
    "after</w>": 1782,
    "e:</w>": 3141,
    "GLO": 1479,
    "n": 338,
    "more.</w>": 2144,
    "but": 2304,
    "thy": 2025,
    "BE": 2889,
    "Bea": 2901,
    "Martius</w>": 3341,
    "shame,</w>": 3877,
    "II.</w>": 938,
    "o": 339,
    "kiss</w>": 3515,
    "fast</w>": 3648,
    "daugh": 1567,
    "What</w>": 636,
    "Wi": 1694,
    "<0xD5>": 217,
    "youn": 1188,
    "cep": 2937,
    "CAD": 2444,
    "Into</w>": 3606,
    "The</w>": 464,
    "put</w>": 1360,
    "ity,</w>": 1724,
    "struck</w>": 3576,
    "POIN": 2362,
    "LAN": 1065,
    "ite</w>": 1114,
    "lords</w>": 3831,
    "ill</w>": 665,
    "stor": 1825,
    "end": 637,
    "to": 609,
    "ff</w>": 2088,
    "Fortun": 2374,
    "GUILDENSTERN.</w>": 3787,
    "Laert": 3334,
    "TOUCHST": 2222,
    "rom</w>": 530,
    "prin": 2310,
    "ong": 803,
    "call": 1373,
    "present": 2403,
    "run</w>": 2892,
    "through</w>": 1773,
    "AT": 738,
    "no,</w>": 2331,
    "pa": 598,
    "right,</w>": 3552,
    "QUEEN.</w>": 1823,
    "ous</w>": 612,
    "vers</w>": 3300,
    "son.</w>": 2624,
    "MOR": 2018,
    "whence</w>": 4069,
    "heaven,</w>": 2940,
    "in</w>": 379,
    "woun": 1985,
    "stand</w>": 1286,
    "dy.</w>": 2185,
    "<0x2B>": 47,
    "come,</w>": 1390,
    "Tell</w>": 2398,
    "thin</w>": 2962,
    "fel": 1203,
    "8": 284,
    "allow": 3305,
    "ke.</w>": 2617,
    "ined</w>": 3135,
    "IV": 3292,
    "buri": 3808,
    "ow": 462,
    "SOMER": 2816,
    "procee": 4071,
    "<0xA2>": 166,
    "IMOGEN.</w>": 1626,
    "ation</w>": 1301,
    "ils</w>": 2897,
    "me’s</w>": 3739,
    "under": 1638,
    "myself</w>": 2184,
    "bring</w>": 1557,
    "requ": 3041,
    "Faith,</w>": 3417,
    "POSTHUM": 2145,
    "<0x6D>": 113,
    "OP": 1036,
    "sigh": 2050,
    "AS.</w>": 1811,
    "bla": 1476,
    "Nay,</w>": 1132,
    "ther": 483,
    "when</w>": 713,
    "ck,</w>": 936,
    "mo": 517,
    "possi": 3446,
    "Since</w>": 2205,
    "out": 1929,
    "H": 300,
    "them</w>": 666,
    "John,</w>": 2756,
    "him!</w>": 3470,
    "shows</w>": 3666,
    "ine,</w>": 2693,
    "In</w>": 761,
    "LES.</w>": 1190,
    "Were</w>": 2100,
    "natu": 2198,
    "umph": 2208,
    "rememb": 1736,
    "ious</w>": 2875,
    "[_They</w>": 3268,
    "broo": 3537,
    "And</w>": 413,
    "night,</w>": 1974,
    "cat": 2020,
    "out,</w>": 2731,
    "ke</w>": 430,
    "BURY.</w>": 3180,
    "by</w>": 534,
    "sig": 2450,
    "cru": 2593,
    "[_S": 2742,
    "ers</w>": 702,
    "d!</w>": 1351,
    "ince</w>": 897,
    "oura": 1827,
    "bit": 2747,
    "They</w>": 1044,
    "Another</w>": 1895,
    "CLOW": 1676,
    "vers": 4053,
    "fare": 2361,
    "uncle</w>": 3087,
    "wear</w>": 2096,
    "hope,</w>": 3982,
    "being</w>": 1051,
    "TH": 1027,
    "HUM": 1996,
    "Att": 2562,
    "England</w>": 2138,
    "cl": 3034,
    "shar": 3311,
    "Your</w>": 960,
    "walk</w>": 4090,
    "Fren": 1335,
    "crea": 2150,
    "cous": 1980,
    "MORT": 3747,
    "chan": 1504,
    "~": 354,
    "HELEN": 1691,
    "Henry</w>": 1585,
    "lose</w>": 2247,
    "<0xBB>": 191,
    "EST": 1020,
    "F": 298,
    "last</w>": 2243,
    "But</w>": 544,
    "oft</w>": 2703,
    "Franc": 3647,
    "England,</w>": 3651,
    "Clif": 2069,
    "uph": 2486,
    "parts</w>": 3902,
    "i’</w>": 1519,
    "cu": 834,
    "Qu": 1124,
    "honoura": 2980,
    "ap": 1253,
    "rel": 2523,
    "Tha": 978,
    "ved</w>": 1105,
    "Farewell,</w>": 2939,
    "woo": 3086,
    "Somerset</w>": 3212,
    "ment,</w>": 2190,
    "reli": 3283,
    "conclu": 3591,
    "PISANIO.</w>": 2600,
    "Antony,</w>": 3328,
    "swif": 3555,
    "ure.</w>": 4046,
    "boy</w>": 3317,
    "light</w>": 2207,
    "which</w>": 658,
    "&": 266,
    "ings.</w>": 3795,
    "JAQUE": 2528,
    "thre": 3986,
    "these</w>": 786,
    "hence.</w>": 3838,
    "or</w>": 390,
    "xt</w>": 1766,
    "aff": 2090,
    "Grace</w>": 2803,
    "WESTMOREL": 3379,
    "for,</w>": 3872,
    "why</w>": 2123,
    "memb": 1525,
    "ut": 754,
    "will,</w>": 2202,
    "sure</w>": 1170,
    "SERVING": 2350,
    "beat</w>": 3030,
    "DAU": 3912,
    "ither</w>": 1440,
    "shor": 1935,
    "Spea": 2113,
    "<0x44>": 72,
    "ess": 780,
    "fearful</w>": 3929,
    "<0xF0>": 244,
    "please</w>": 1695,
    "ent</w>": 561,
    "noble</w>": 1066,
    "Prince</w>": 1756,
    "vent": 2106,
    "hold</w>": 1249,
    "Westmor": 2751,
    "queen,</w>": 3801,
    "now,</w>": 1197,
    "AL.</w>": 3826,
    "ind</w>": 760,
    "du": 775,
    "do,</w>": 1891,
    "y.</w>": 507,
    "<0xE0>": 228,
    "HAMLE": 823,
    "od": 3713,
    "CAES": 1821,
    "can": 726,
    "o’s</w>": 3954,
    "lan": 1154,
    "fle": 3355,
    "whi": 1186,
    ",": 272,
    "AR": 465,
    "ID": 1123,
    "found</w>": 2171,
    "beg</w>": 3793,
    "._</w>": 1964,
    "ardin": 3162,
    "ck": 504,
    "dost</w>": 1758,
    "dare</w>": 2227,
    "in’s</w>": 3841,
    "ged</w>": 1618,
    "<0xD9>": 221,
    "Ham": 1687,
    "gener": 1834,
    "sud": 2675,
    "glor": 2429,
    "set</w>": 1077,
    "VII.</w>": 3903,
    "others.</w>": 3449,
    "so.</w>": 1591,
    "id": 952,
    "shouldst</w>": 3789,
    "mann": 2569,
    "<0xEC>": 240,
    "II</w>": 2865,
    "it;</w>": 2360,
    "t,</w>": 437,
    "Dost</w>": 3654,
    "ag": 3771,
    "Hamle": 2290,
    "word,</w>": 3310,
    "<0x31>": 53,
    "blood,</w>": 2228,
    "flatter": 3724,
    "EL": 615,
    "ACT</w>": 1526,
    "<0x82>": 134,
    "BEL": 1285,
    "indee": 2224,
    "ance.</w>": 3402,
    "high</w>": 2289,
    "ga": 558,
    "OPHELIA.</w>": 2582,
    "l": 336,
    "bo": 560,
    "plea": 899,
    "spor": 2603,
    "su": 478,
    "kind": 2583,
    "win</w>": 3327,
    "suc": 2394,
    "men,</w>": 1878,
    "stran": 1602,
    "ing": 438,
    "CLIFFORD.</w>": 2670,
    "King’s</w>": 2737,
    "life.</w>": 2882,
    "Pom": 2784,
    "Richard</w>": 2726,
    "hor": 1048,
    "ion</w>": 3561,
    "<0x57>": 91,
    "<0x17>": 27,
    "shame</w>": 2546,
    "ALL.</w>": 2964,
    "E.</w>": 548,
    "bre": 3725,
    "migh": 1943,
    "Coriol": 1947,
    "inst": 3068,
    "end,</w>": 2815,
    "count": 1327,
    "Thi": 3773,
    "<0x56>": 90,
    "good,</w>": 3385,
    "sau": 4041,
    "act</w>": 4058,
    "get</w>": 1698,
    "der,</w>": 3556,
    "qual": 3273,
    "_": 323,
    "<0x28>": 44,
    "OLIVER.</w>": 3485,
    "ish.</w>": 2263,
    "Ala": 2338,
    "brought</w>": 2349,
    "ture</w>": 2887,
    "oll": 3338,
    "CLOTEN.</w>": 2187,
    "ster": 1539,
    "ceive</w>": 2152,
    "<0x91>": 149,
    "ard</w>": 1211,
    "gain</w>": 1622,
    "coura": 3204,
    "te</w>": 1284,
    "me</w>": 418,
    "<0xFC>": 256,
    "voic": 3372,
    "vali": 2052,
    "tears</w>": 2847,
    "as</w>": 419,
    "PISTOL.</w>": 1893,
    "ima": 2824,
    "Bel": 3578,
    "p,</w>": 1992,
    "swa": 3356,
    "subj": 2262,
    "there,</w>": 2629,
    "CLOT": 2163,
    "past</w>": 3748,
    "eful</w>": 4076,
    "still": 2008,
    "ir</w>": 491,
    "Ca": 704,
    "e!</w>": 1252,
    "stri": 1586,
    "field</w>": 3006,
    "Be</w>": 1149,
    "ARVIRAG": 2958,
    "ess</w>": 568,
    "wife</w>": 1999,
    "But,</w>": 1794,
    "father</w>": 1227,
    "chea": 3665,
    "poin": 4059,
    "ad": 838,
    "^": 322,
    "Had</w>": 2348,
    "<0xFB>": 255,
    "ELEN": 1682,
    "ing;</w>": 2270,
    "sil": 1836,
    "est.</w>": 3035,
    "ce!</w>": 2271,
    "car": 1111,
    "ctor": 1859,
    "dull</w>": 3558,
    "tain</w>": 1278,
    "weep</w>": 3690,
    "<0xB8>": 188,
    "HOT": 1802,
    "my": 1241,
    "true.</w>": 3609,
    "is.</w>": 2280,
    "mada": 1435,
    "<0xB6>": 186,
    "I,</w>": 1487,
    "stand": 2530,
    "eye,</w>": 3399,
    "an.</w>": 3163,
    "London.</w>": 2393,
    "IACHIM": 2177,
    "wind</w>": 2866,
    "TALBOT.</w>": 2299,
    "FIRST</w>": 833,
    "de": 546,
    "ill": 839,
    "not?</w>": 3048,
    "ea,</w>": 2203,
    "cho": 2390,
    "Fal": 2062,
    "proud</w>": 2324,
    "p": 340,
    "from</w>": 551,
    "<0xED>": 241,
    "PI": 1345,
    "So</w>": 766,
    "mee": 2436,
    "cry</w>": 3160,
    "Whilst</w>": 3878,
    "Se": 2206,
    "go,</w>": 2626,
    "conqu": 2411,
    "ERT": 1304,
    "Britain.</w>": 3571,
    "at": 410,
    "US,</w>": 3624,
    "fly</w>": 2434,
    "cking</w>": 3888,
    "y-": 2204,
    "<0xD8>": 220,
    "unto</w>": 1185,
    "cannot</w>": 956,
    "reat</w>": 2457,
    "STA": 797,
    "ns</w>": 1507,
    "you’ll</w>": 3253,
    "in?</w>": 4056,
    "ch.</w>": 1552,
    "seen</w>": 1946,
    "TOUCHSTONE.</w>": 2249,
    "eli": 862,
    "UR": 1407,
    "others</w>": 3583,
    "il</w>": 1104,
    "slaugh": 3909,
    "<0xF3>": 247,
    "you?</w>": 2051,
    "the": 384,
    "ear": 458,
    "<0xA9>": 173,
    "<0xBD>": 193,
    "CE.</w>": 993,
    "fet": 2916,
    "purpose</w>": 3241,
    "ran": 555,
    "Antony</w>": 2101,
    "th;</w>": 2699,
    "Against</w>": 2378,
    "Ay,</w>": 1088,
    "ban": 1303,
    "sun</w>": 2769,
    "Where’s</w>": 3746,
    "wit": 1753,
    "part,</w>": 2641,
    "tion": 1772,
    "way,</w>": 2026,
    "eat</w>": 2089,
    "NORTHUM": 2891,
    "OPH": 2550,
    "<0x68>": 108,
    "touch</w>": 3999,
    "bea": 932,
    "ur</w>": 1062,
    "Did</w>": 1862,
    "ce,</w>": 594,
    "red,</w>": 2818,
    "words,</w>": 3445,
    "virtuous</w>": 3958,
    "D": 296,
    "z": 350,
    "Fa": 1894,
    "que": 1577,
    "knave</w>": 3991,
    "ring</w>": 972,
    "ani": 1846,
    "pt</w>": 1902,
    "ford</w>": 3074,
    "<0x30>": 52,
    "friend</w>": 2275,
    "sick": 3165,
    "ished</w>": 2454,
    "ment</w>": 1080,
    "pal": 1214,
    "Such</w>": 2561,
    "J": 302,
    "toge": 1537,
    "Tri": 3519,
    "pass</w>": 3103,
    "Marg": 4065,
    "gue,</w>": 3931,
    "<0x6B>": 111,
    "back": 3353,
    "MAR": 1052,
    "don": 2708,
    "som": 1323,
    "Caesar’s</w>": 3304,
    "JAQUES.</w>": 2612,
    "Opheli": 3998,
    "Dra": 3197,
    "king</w>": 930,
    "on;</w>": 2295,
    "villain": 2899,
    "In": 1482,
    "x": 348,
    "foo": 1431,
    "tro": 1785,
    "North": 3062,
    "tomor": 2820,
    "LI": 1532,
    "ef</w>": 1597,
    "n’d</w>": 2079,
    "ar</w>": 1578,
    "there</w>": 837,
    "<0xAE>": 178,
    "FORD.</w>": 3489,
    "women</w>": 3873,
    "[_": 486,
    "<0x10>": 20,
    "Gloucester": 2906,
    "op</w>": 2124,
    "jud": 2130,
    "<0xAC>": 176,
    "ANT": 715,
    "loving</w>": 3158,
    "ther,</w>": 830,
    "en?</w>": 2319,
    "app": 1368,
    "Was</w>": 1908,
    "qu": 542,
    "Dauphin</w>": 4086,
    "ouch</w>": 3065,
    "<0x99>": 157,
    "SHALLOW.</w>": 2196,
    "fell</w>": 3319,
    "o’er": 2120,
    "your": 1033,
    "1": 277,
    "Salisbur": 2790,
    "well</w>": 807,
    "Scene</w>": 970,
    "Unless</w>": 3188,
    "I’</w>": 3868,
    "<0x23>": 39,
    "<0x7A>": 126,
    "ter.</w>": 1413,
    "Brita": 2474,
    "Gloucester</w>": 3812,
    "so;</w>": 3635,
    "warrant</w>": 2837,
    "Tal": 1630,
    "y;</w>": 979,
    "temp": 1499,
    "Ere</w>": 3721,
    "question</w>": 3418,
    "know</w>": 719,
    "court,</w>": 4061,
    "sa": 470,
    "ELIA.</w>": 1313,
    "ome</w>": 622,
    "not": 3193,
    "Burgun": 3528,
    "ANGELO.</w>": 3936,
    "between</w>": 2038,
    "heavy</w>": 2817,
    "He</w>": 639,
    "strange</w>": 2529,
    "inted</w>": 2755,
    "sub": 1386,
    "dis": 671,
    "ving</w>": 1232,
    "out.</w>": 2677,
    "dist": 2925,
    "hous": 2365,
    "claim</w>": 2908,
    "ves,</w>": 2107,
    "Laer": 3076,
    "<0xAB>": 175,
    "ere,</w>": 1971,
    "recei": 2970,
    "ally</w>": 2996,
    "gh": 422,
    "again,</w>": 2298,
    "ARVIRAGUS.</w>": 2965,
    "pair</w>": 3219,
    "particu": 3297,
    "ded.</w>": 2819,
    "Buckingha": 3549,
    "ously</w>": 3750,
    "<0xDC>": 224,
    "de</w>": 580,
    "Do</w>": 1307,
    "<0x5B>": 95,
    "spo": 1590,
    "h,</w>": 1415,
    "POM": 3206,
    "hat</w>": 427,
    "ps</w>": 1648,
    "stood</w>": 3584,
    "for": 447,
    "PAROL": 1436,
    "_.]</w>": 1171,
    "es</w>": 404,
    "wish</w>": 2427,
    "<0x0E>": 18,
    "<0x1D>": 33,
    "charge</w>": 2092,
    "JO": 3468,
    "s,</w>": 403,
    "POLONIUS.</w>": 2024,
    "cus": 2501,
    "kill": 2373,
    "str": 1383,
    "ha": 362,
    "mes</w>": 3099,
    "ts.</w>": 1860,
    "dro": 2032,
    "worthy</w>": 1808,
    "ny</w>": 4032,
    "ant</w>": 812,
    "des": 751,
    "<0x1E>": 34,
    "pu": 1601,
    "roy": 1874,
    "holy</w>": 2716,
    "lou": 1072,
    "et’s</w>": 2477,
    "ity.</w>": 1784,
    "less</w>": 1005,
    "Har": 1439,
    "ut</w>": 423,
    "down.</w>": 3477,
    "lords,</w>": 1942,
    "US": 1057,
    "thri": 2381,
    "stra": 1350,
    "ROSALIN": 1157,
    "better</w>": 1150,
    "dru": 1975,
    "false</w>": 1995,
    "thus</w>": 1353,
    "way</w>": 1348,
    "tun": 953,
    "<0x71>": 117,
    "Lor": 771,
    "twi": 3473,
    "ry.</w>": 2278,
    "sure,</w>": 2635,
    "lord</w>": 1850,
    "Caesar</w>": 2099,
    "thee.</w>": 1223,
    "comes</w>": 1163,
    "fight</w>": 2046,
    "<0xAA>": 174,
    "au": 1735,
    "’en</w>": 2519,
    "<0x92>": 150,
    "SENIOR.</w>": 3805,
    "we’ll</w>": 2201,
    "liv": 2625,
    "’s</w>": 414,
    "dom": 2073,
    "humb": 2493,
    "heir</w>": 3510,
    "<0x84>": 136,
    "himself</w>": 1830,
    "Dro": 2408,
    "stands</w>": 2860,
    "him?</w>": 2951,
    "Luci": 3488,
    "sound</w>": 3347,
    "fla": 2995,
    "part</w>": 1191,
    "w": 347,
    "former</w>": 3820,
    "die</w>": 1887,
    "money</w>": 3662,
    "SYRACUSE.</w>": 1159,
    "v": 346,
    "IRD</w>": 2844,
    "Suffolk</w>": 3518,
    "dr": 1140,
    "ment": 1145,
    "Clar": 2470,
    "Ga": 3345,
    "farewell.</w>": 3744,
    "BUR": 3586,
    "house</w>": 2040,
    "hen": 2669,
    "AS": 3974,
    "FALSTAFF.</w>": 874,
    "John</w>": 1925,
    "<0x9B>": 159,
    "<0x01>": 5,
    "known</w>": 2438,
    "publi": 3055,
    "<0x4F>": 83,
    "sie": 2969,
    "chance</w>": 3024,
    "Sol": 2128,
    "t.</w>": 519,
    "ook</w>": 1678,
    "na": 648,
    "RY.</w>": 811,
    "Queen</w>": 2067,
    "natura": 2864,
    "Ero": 3532,
    "in.</w>": 1084,
    "chur": 3125,
    "Soldi": 2258,
    "ca": 543,
    "<0x38>": 60,
    "bri": 1775,
    "ston": 3698,
    "Fortune</w>": 3723,
    "jur": 3366,
    "scor": 2039,
    "EN</w>": 1521,
    "=": 289,
    "hope</w>": 1673,
    "way.</w>": 3211,
    "Comini": 3505,
    "OU": 1017,
    "inc": 1146,
    "Will</w>": 1233,
    "change</w>": 2678,
    "ke,</w>": 1309,
    "Flor": 3200,
    "k’st</w>": 3214,
    "fin": 1892,
    "dev": 1389,
    "gracious</w>": 2191,
    "ure,</w>": 2681,
    "Come</w>": 1917,
    "dam": 2011,
    "fit</w>": 2300,
    "gall": 2979,
    "write</w>": 3618,
    "en</w>": 406,
    "POL": 2000,
    "doth</w>": 858,
    "dre": 2367,
    "Speak</w>": 3121,
    "Messenger.</w>": 3247,
    "deed,</w>": 3574,
    "ence,</w>": 1213,
    "et,</w>": 1910,
    "none</w>": 1730,
    "with": 1316,
    "<0xDA>": 222,
    "good.</w>": 4039,
    "res</w>": 1857,
    "death</w>": 1417,
    "EPHESUS.</w>": 1472,
    "fully</w>": 3621,
    "got</w>": 2321,
    "<0x86>": 138,
    "one,</w>": 1042,
    "life</w>": 1292,
    "swor": 919,
    "man.</w>": 1536,
    "low": 661,
    "pardon</w>": 3195,
    "Mon": 2063,
    "<0x0B>": 15,
    "together,</w>": 3781,
    "<0xFE>": 258,
    "Why,</w>": 1015,
    "go": 649,
    "hi": 381,
    "Com": 795,
    "m": 337,
    "ough</w>": 1254,
    "grea": 730,
    "obe": 2401,
    "er</w>": 371,
    "<0x45>": 73,
    "Majest": 2458,
    "cur": 1225,
    "as": 809,
    "ED": 1073,
    "heart</w>": 1122,
    "hom": 1545,
    "ba": 694,
    "Cy": 2668,
    "given</w>": 2148,
    "pla": 685,
    "be.</w>": 2683,
    "est,</w>": 1719,
    "ENOBARBUS.</w>": 1668,
    "ORLAN": 1523,
    "dang": 1931,
    "content</w>": 3829,
    "hear,</w>": 3952,
    "but,</w>": 4033,
    "ough": 1760,
    "drin": 1922,
    "f": 330,
    "have</w>": 453,
    "bol": 3962,
    "met</w>": 3079,
    "bran": 4064,
    "<0x03>": 7,
    "y,</w>": 421,
    "la": 434,
    "shalt</w>": 1663,
    "comm": 1264,
    "rest</w>": 1788,
    "well": 746,
    "k,</w>": 756,
    "<0x12>": 22,
    "ri": 417,
    "them,</w>": 1839,
    "ee": 433,
    "ms</w>": 1317,
    "es;</w>": 1500,
    "<0x98>": 156,
    "day.</w>": 2727,
    "consci": 3059,
    "do": 513,
    "with</w>": 420,
    "confess</w>": 4024,
    "Alexand": 2385,
    "ORCESTER.</w>": 3536,
    "<0x65>": 105,
    "our": 511,
    "ck</w>": 610,
    "may</w>": 717,
    "sion</w>": 1416,
    "bel": 1455,
    "Suffol": 1786,
    "crown</w>": 2328,
    "SPUR": 1804,
    "ons.</w>": 3348,
    "place.</w>": 3757,
    "rant</w>": 1625,
    "at</w>": 392,
    "us._]</w>": 3369,
    "ry</w>": 674,
    "grow": 1890,
    "mour": 3542,
    "ir": 446,
    "keep": 2340,
    "counter": 2432,
    "used</w>": 3270,
    "Clo": 3471,
    "garm": 3850,
    "Si": 3993,
    "CHARMIAN.</w>": 2443,
    "bad</w>": 3296,
    "cei": 1791,
    "Pr": 1457,
    "ugh": 1031,
    "LAERTES.</w>": 2463,
    "Rea": 2893,
    "um</w>": 3464,
    "ds.</w>": 1516
  },
  "id_to_token": [
    "<pad>",
    "<s>",
    "</s>",
    "<unk>",
    "<0x00>",
    "<0x01>",
    "<0x02>",
    "<0x03>",
    "<0x04>",
    "<0x05>",
    "<0x06>",
    "<0x07>",
    "<0x08>",
    "<0x09>",
    "<0x0A>",
    "<0x0B>",
    "<0x0C>",
    "<0x0D>",
    "<0x0E>",
    "<0x0F>",
    "<0x10>",
    "<0x11>",
    "<0x12>",
    "<0x13>",
    "<0x14>",
    "<0x15>",
    "<0x16>",
    "<0x17>",
    "<0x18>",
    "<0x19>",
    "<0x1A>",
    "<0x1B>",
    "<0x1C>",
    "<0x1D>",
    "<0x1E>",
    "<0x1F>",
    "<0x20>",
    "<0x21>",
    "<0x22>",
    "<0x23>",
    "<0x24>",
    "<0x25>",
    "<0x26>",
    "<0x27>",
    "<0x28>",
    "<0x29>",
    "<0x2A>",
    "<0x2B>",
    "<0x2C>",
    "<0x2D>",
    "<0x2E>",
    "<0x2F>",
    "<0x30>",
    "<0x31>",
    "<0x32>",
    "<0x33>",
    "<0x34>",
    "<0x35>",
    "<0x36>",
    "<0x37>",
    "<0x38>",
    "<0x39>",
    "<0x3A>",
    "<0x3B>",
    "<0x3C>",
    "<0x3D>",
    "<0x3E>",
    "<0x3F>",
    "<0x40>",
    "<0x41>",
    "<0x42>",
    "<0x43>",
    "<0x44>",
    "<0x45>",
    "<0x46>",
    "<0x47>",
    "<0x48>",
    "<0x49>",
    "<0x4A>",
    "<0x4B>",
    "<0x4C>",
    "<0x4D>",
    "<0x4E>",
    "<0x4F>",
    "<0x50>",
    "<0x51>",
    "<0x52>",
    "<0x53>",
    "<0x54>",
    "<0x55>",
    "<0x56>",
    "<0x57>",
    "<0x58>",
    "<0x59>",
    "<0x5A>",
    "<0x5B>",
    "<0x5C>",
    "<0x5D>",
    "<0x5E>",
    "<0x5F>",
    "<0x60>",
    "<0x61>",
    "<0x62>",
    "<0x63>",
    "<0x64>",
    "<0x65>",
    "<0x66>",
    "<0x67>",
    "<0x68>",
    "<0x69>",
    "<0x6A>",
    "<0x6B>",
    "<0x6C>",
    "<0x6D>",
    "<0x6E>",
    "<0x6F>",
    "<0x70>",
    "<0x71>",
    "<0x72>",
    "<0x73>",
    "<0x74>",
    "<0x75>",
    "<0x76>",
    "<0x77>",
    "<0x78>",
    "<0x79>",
    "<0x7A>",
    "<0x7B>",
    "<0x7C>",
    "<0x7D>",
    "<0x7E>",
    "<0x7F>",
    "<0x80>",
    "<0x81>",
    "<0x82>",
    "<0x83>",
    "<0x84>",
    "<0x85>",
    "<0x86>",
    "<0x87>",
    "<0x88>",
    "<0x89>",
    "<0x8A>",
    "<0x8B>",
    "<0x8C>",
    "<0x8D>",
    "<0x8E>",
    "<0x8F>",
    "<0x90>",
    "<0x91>",
    "<0x92>",
    "<0x93>",
    "<0x94>",
    "<0x95>",
    "<0x96>",
    "<0x97>",
    "<0x98>",
    "<0x99>",
    "<0x9A>",
    "<0x9B>",
    "<0x9C>",
    "<0x9D>",
    "<0x9E>",
    "<0x9F>",
    "<0xA0>",
    "<0xA1>",
    "<0xA2>",
    "<0xA3>",
    "<0xA4>",
    "<0xA5>",
    "<0xA6>",
    "<0xA7>",
    "<0xA8>",
    "<0xA9>",
    "<0xAA>",
    "<0xAB>",
    "<0xAC>",
    "<0xAD>",
    "<0xAE>",
    "<0xAF>",
    "<0xB0>",
    "<0xB1>",
    "<0xB2>",
    "<0xB3>",
    "<0xB4>",
    "<0xB5>",
    "<0xB6>",
    "<0xB7>",
    "<0xB8>",
    "<0xB9>",
    "<0xBA>",
    "<0xBB>",
    "<0xBC>",
    "<0xBD>",
    "<0xBE>",
    "<0xBF>",
    "<0xC0>",
    "<0xC1>",
    "<0xC2>",
    "<0xC3>",
    "<0xC4>",
    "<0xC5>",
    "<0xC6>",
    "<0xC7>",
    "<0xC8>",
    "<0xC9>",
    "<0xCA>",
    "<0xCB>",
    "<0xCC>",
    "<0xCD>",
    "<0xCE>",
    "<0xCF>",
    "<0xD0>",
    "<0xD1>",
    "<0xD2>",
    "<0xD3>",
    "<0xD4>",
    "<0xD5>",
    "<0xD6>",
    "<0xD7>",
    "<0xD8>",
    "<0xD9>",
    "<0xDA>",
    "<0xDB>",
    "<0xDC>",
    "<0xDD>",
    "<0xDE>",
    "<0xDF>",
    "<0xE0>",
    "<0xE1>",
    "<0xE2>",
    "<0xE3>",
    "<0xE4>",
    "<0xE5>",
    "<0xE6>",
    "<0xE7>",
    "<0xE8>",
    "<0xE9>",
    "<0xEA>",
    "<0xEB>",
    "<0xEC>",
    "<0xED>",
    "<0xEE>",
    "<0xEF>",
    "<0xF0>",
    "<0xF1>",
    "<0xF2>",
    "<0xF3>",
    "<0xF4>",
    "<0xF5>",
    "<0xF6>",
    "<0xF7>",
    "<0xF8>",
    "<0xF9>",
    "<0xFA>",
    "<0xFB>",
    "<0xFC>",
    "<0xFD>",
    "<0xFE>",
    "<0xFF>",
    " ",
    "!",
    "\"",
    "#",
    "$",
    "%",
    "&",
    "'",
    "(",
    ")",
    "*",
    "+",
    ",",
    "-",
    ".",
    "/",
    "0",
    "1",
    "2",
    "3",
    "4",
    "5",
    "6",
    "7",
    "8",
    "9",
    ":",
    ";",
    "<",
    "=",
    ">",
    "?",
    "@",
    "A",
    "B",
    "C",
    "D",
    "E",
    "F",
    "G",
    "H",
    "I",
    "J",
    "K",
    "L",
    "M",
    "N",
    "O",
    "P",
    "Q",
    "R",
    "S",
    "T",
    "U",
    "V",
    "W",
    "X",
    "Y",
    "Z",
    "[",
    "\\",
    "]",
    "^",
    "_",
    "`",
    "a",
    "b",
    "c",
    "d",
    "e",
    "f",
    "g",
    "h",
    "i",
    "j",
    "k",
    "l",
    "m",
    "n",
    "o",
    "p",
    "q",
    "r",
    "s",
    "t",
    "u",
    "v",
    "w",
    "x",
    "y",
    "z",
    "{",
    "|",
    "}",
    "~",
    "th",
    "an",
    "ou",
    "in",
    "er",
    "ar",
    "or",
    "ha",
    "the</w>",
    "en",
    "is</w>",
    "es",
    "and</w>",
    "ea",
    "on",
    "ll</w>",
    "er</w>",
    "it",
    "of</w>",
    "to</w>",
    "no",
    "e,</w>",
    "ou</w>",
    "st",
    "in</w>",
    "el",
    "hi",
    "ve</w>",
    "ro",
    "the",
    "our</w>",
    "my</w>",
    "om",
    "Th",
    "ed</w>",
    "or</w>",
    "ing</w>",
    "at</w>",
    "e.</w>",
    "is",
    "ma",
    "lo",
    "An",
    "ra",
    "d,</w>",
    "st</w>",
    "re",
    "you</w>",
    "s,</w>",
    "es</w>",
    "al",
    "en</w>",
    "ol",
    "ith</w>",
    "on</w>",
    "at",
    "wi",
    "li",
    "And</w>",
    "’s</w>",
    "not</w>",
    "that</w>",
    "ri",
    "me</w>",
    "as</w>",
    "with</w>",
    "y,</w>",
    "gh",
    "ut</w>",
    "his</w>",
    "ur",
    "un",
    "hat</w>",
    "it</w>",
    "ch</w>",
    "ke</w>",
    "he</w>",
    "ti",
    "ee",
    "la",
    "be</w>",
    "S.</w>",
    "t,</w>",
    "ing",
    "your</w>",
    "EN",
    "ce</w>",
    "be",
    "th</w>",
    "ere</w>",
    "oo",
    "ir",
    "for",
    "for</w>",
    "le",
    "ch",
    "di",
    "oul",
    "have</w>",
    "se</w>",
    "s.</w>",
    "fa",
    "an</w>",
    "ear",
    "IN",
    "com",
    "wh",
    "ow",
    "d.</w>",
    "The</w>",
    "AR",
    "rea",
    "this</w>",
    "se",
    "ould</w>",
    "sa",
    "thou</w>",
    "sha",
    "ter</w>",
    "le</w>",
    "you",
    "sh",
    "thy</w>",
    "su",
    "ta",
    "AN",
    "il",
    "Wh",
    "ther",
    "will</w>",
    "wor",
    "[_",
    "sp",
    "are</w>",
    "ER",
    "US.</w>",
    "ir</w>",
    "ru",
    "but</w>",
    "ent",
    "ev",
    "all</w>",
    "si",
    "’d</w>",
    "ther</w>",
    "_]</w>",
    "him</w>",
    "et</w>",
    "._]</w>",
    "ck",
    "En",
    "ly</w>",
    "y.</w>",
    "OR",
    "To</w>",
    "oun",
    "our",
    "ear</w>",
    "do",
    "shall</w>",
    "mor",
    "ter",
    "mo",
    "con",
    "t.</w>",
    "so</w>",
    "ST",
    "igh",
    "us</w>",
    "OL",
    "ds</w>",
    "we</w>",
    "ow</w>",
    "lor",
    "da",
    "rom</w>",
    "wa",
    "LE",
    "mu",
    "by</w>",
    "That</w>",
    "res",
    "ood</w>",
    "do</w>",
    "me",
    "sel",
    "ver",
    "qu",
    "ca",
    "But</w>",
    "him",
    "de",
    "ell",
    "E.</w>",
    "man",
    "po",
    "from</w>",
    "es,</w>",
    "no</w>",
    "’ll</w>",
    "ran",
    "now</w>",
    "ff",
    "ga",
    "ne",
    "bo",
    "ent</w>",
    "est</w>",
    "hich</w>",
    "thou",
    "AL",
    "was</w>",
    "te",
    "ess</w>",
    "Ex",
    "lea",
    "Enter</w>",
    "D.</w>",
    "up",
    "her</w>",
    "ce",
    "one</w>",
    "us",
    "mp",
    "their</w>",
    "de</w>",
    "Y.</w>",
    "A.</w>",
    "what</w>",
    "par",
    "loo",
    "good</w>",
    "ge</w>",
    "hear",
    "thee</w>",
    "mb",
    "gi",
    "am</w>",
    "ER.</w>",
    "ce,</w>",
    "so",
    "would</w>",
    "thin",
    "pa",
    "KIN",
    "they</w>",
    "pro",
    "ON",
    "ts</w>",
    "hea",
    "IUS.</w>",
    "ere",
    "min",
    "if</w>",
    "to",
    "ck</w>",
    "[_Ex",
    "ous</w>",
    "me,</w>",
    "fu",
    "EL",
    "T.</w>",
    "gu",
    "war",
    "now",
    "we",
    "For</w>",
    "ome</w>",
    "op",
    "like</w>",
    "more</w>",
    "er,</w>",
    "sw",
    "tru",
    "old</w>",
    "sir",
    "I’ll</w>",
    "vi",
    "all",
    "gh</w>",
    "dea",
    "What</w>",
    "end",
    "My</w>",
    "He</w>",
    "row",
    "on,</w>",
    "hath</w>",
    "en,</w>",
    "IC",
    "If</w>",
    "th,</w>",
    "You</w>",
    "na",
    "go",
    "ce.</w>",
    "ing,</w>",
    "ever</w>",
    "ec",
    "than</w>",
    "AM",
    "fore</w>",
    "As</w>",
    "which</w>",
    "ble</w>",
    "ght</w>",
    "low",
    "you,</w>",
    "ES",
    "make</w>",
    "ill</w>",
    "them</w>",
    "per",
    "should</w>",
    "were</w>",
    "ati",
    "dis",
    "ty</w>",
    "es.</w>",
    "ry</w>",
    "Ma",
    "er.</w>",
    "PH",
    "upon</w>",
    "out</w>",
    "did</w>",
    "and",
    "ge",
    "FF",
    "end</w>",
    "pla",
    "hon",
    "ex",
    "ose</w>",
    "fi",
    "ci",
    "ll",
    "bl",
    "gain",
    "ba",
    "I.</w>",
    "IR",
    "ey",
    "ight</w>",
    "let</w>",
    "had</w>",
    "on.</w>",
    "ers</w>",
    "ure</w>",
    "Ca",
    "lov",
    "own</w>",
    "man</w>",
    "No",
    "Ha",
    "et",
    "pr",
    "must</w>",
    "when</w>",
    "’t",
    "ANT",
    "gra",
    "may</w>",
    "ese</w>",
    "know</w>",
    "mi",
    "most</w>",
    "such</w>",
    "ac",
    "pp",
    "come</w>",
    "can",
    "CH",
    "id</w>",
    "RO",
    "grea",
    "love</w>",
    "mar",
    "ton",
    "Go",
    "K.</w>",
    "KING</w>",
    "spea",
    "AT",
    "she</w>",
    "O.</w>",
    "sta",
    "bro",
    "ish",
    "me.</w>",
    "lif",
    "well",
    "self</w>",
    "EN.</w>",
    "m,</w>",
    "her",
    "des",
    "eun",
    "th’</w>",
    "ut",
    "al</w>",
    "k,</w>",
    "OF</w>",
    "pra",
    "dy</w>",
    "ind</w>",
    "In</w>",
    "This</w>",
    "e’s</w>",
    "ves</w>",
    "fri",
    "So</w>",
    "ish</w>",
    "ing.</w>",
    "LO",
    "see</w>",
    "Lor",
    "est",
    "SC",
    "gl",
    "du",
    "ence</w>",
    "take</w>",
    "[_Exeun",
    "sc",
    "ess",
    "give</w>",
    "It</w>",
    "ted</w>",
    "With</w>",
    "can</w>",
    "these</w>",
    "Of</w>",
    "How</w>",
    "coun",
    "HAM",
    "bloo",
    "again",
    "’st</w>",
    "Mar",
    "Com",
    "it.</w>",
    "STA",
    "bet",
    "off",
    "some</w>",
    "e;</w>",
    "lord,</w>",
    "ong",
    "then</w>",
    "d;</w>",
    "ser",
    "well</w>",
    "how</w>",
    "as",
    "ab",
    "RY.</w>",
    "ant</w>",
    "thing</w>",
    "har",
    "of",
    "eet</w>",
    "e?</w>",
    "n,</w>",
    "SCEN",
    "ful</w>",
    "s;</w>",
    "ate</w>",
    "HAMLE",
    "art</w>",
    "sir,</w>",
    "ST</w>",
    "Sc",
    "say</w>",
    "it,</w>",
    "ther,</w>",
    "FIR",
    "Thou</w>",
    "FIRST</w>",
    "cu",
    "tw",
    "HAMLET.</w>",
    "there</w>",
    "ad",
    "ill",
    "SCENE</w>",
    "never</w>",
    "King</w>",
    "yet</w>",
    "and,</w>",
    "ven",
    "self",
    "know",
    "rou",
    "m.</w>",
    "ds,</w>",
    "mon",
    "HEN",
    "brea",
    "iti",
    "STAFF",
    "When</w>",
    "WAR",
    "doth</w>",
    "Du",
    "t’s</w>",
    "time</w>",
    "eli",
    "ey</w>",
    "char",
    "AC",
    "Let</w>",
    "By</w>",
    "mine</w>",
    "We</w>",
    "der",
    "FAL",
    "ren",
    "FALSTAFF",
    "FALSTAFF.</w>",
    "gent",
    "here</w>",
    "Which</w>",
    "Fran",
    "tur",
    "ven</w>",
    "fir",
    "shi",
    "up</w>",
    "very</w>",
    "ks</w>",
    "ig",
    "HENRY.</w>",
    "eep</w>",
    "in,</w>",
    "der</w>",
    "O,</w>",
    "see",
    "him.</w>",
    "us,</w>",
    "tell</w>",
    "Engl",
    "ince</w>",
    "mis",
    "plea",
    "think</w>",
    "se,</w>",
    "pres",
    "’T",
    "co",
    "fl",
    "d?</w>",
    "awa",
    "great</w>",
    "ang",
    "thee,</w>",
    "UC",
    "other</w>",
    "ph",
    "ic",
    "tion</w>",
    "Is</w>",
    "go</w>",
    "KING",
    "swor",
    "st,</w>",
    "Be",
    "ound</w>",
    "him,</w>",
    "worl",
    "fe",
    "tra",
    "much</w>",
    "you.</w>",
    "pri",
    "king</w>",
    "sol",
    "bea",
    "made</w>",
    "low</w>",
    "pea",
    "ck,</w>",
    "th.</w>",
    "II.</w>",
    "men</w>",
    "pre",
    "ene</w>",
    "that",
    "QU",
    "ity</w>",
    "cour",
    "bu",
    "Or</w>",
    "Lord</w>",
    "ness</w>",
    "QUE",
    "bra",
    "id",
    "tun",
    "hil",
    "’tis</w>",
    "cannot</w>",
    "fo",
    "any</w>",
    "men",
    "Your</w>",
    "KING.</w>",
    "mer",
    "t._]</w>",
    "ve,</w>",
    "too</w>",
    "IA.</w>",
    "ard",
    "wom",
    "ong</w>",
    "Scene</w>",
    "son</w>",
    "ring</w>",
    "ings</w>",
    "use</w>",
    "eep",
    "ance</w>",
    "Hen",
    "Tha",
    "y;</w>",
    "cha",
    "pe",
    "LA",
    "SE",
    "IAN",
    "ous",
    "he",
    "ORD.</w>",
    "Sha",
    "been</w>",
    "om</w>",
    "lt</w>",
    "speak</w>",
    "CE.</w>",
    "ho",
    "His</w>",
    "Duke</w>",
    "ry,</w>",
    "ys</w>",
    "ju",
    "where</w>",
    "fol",
    "this",
    "Wha",
    "too",
    "less</w>",
    "PR",
    "ay,</w>",
    "tu",
    "ine</w>",
    "n.</w>",
    "War",
    "Come,</w>",
    "af",
    "CON",
    "Why,</w>",
    "ever",
    "OU",
    "ROS",
    "Then</w>",
    "EST",
    "ed,</w>",
    "hear</w>",
    "ise</w>",
    "us.</w>",
    "PRIN",
    "’Tis</w>",
    "TH",
    "ons</w>",
    "pos",
    "mast",
    "ugh",
    "could</w>",
    "your",
    "kes</w>",
    "Jo",
    "OP",
    "sur",
    "crow",
    "arm",
    "re</w>",
    "pur",
    "one,</w>",
    "jo",
    "They</w>",
    "ge,</w>",
    "IM",
    "God</w>",
    "hor",
    "lu",
    "ces",
    "being</w>",
    "MAR",
    "tri",
    "wr",
    "OLU",
    "Warwi",
    "US",
    "t;</w>",
    "itt",
    "ter,</w>",
    "bur",
    "ur</w>",
    "two</w>",
    "ive</w>",
    "LAN",
    "noble</w>",
    "s?</w>",
    "ers,</w>",
    "Yor",
    "nor</w>",
    "will",
    "lou",
    "ED",
    "into</w>",
    "There",
    "ICK.</w>",
    "set</w>",
    "mat",
    "there",
    "ment</w>",
    "wif",
    "[_Exeunt._]</w>",
    "y’s</w>",
    "in.</w>",
    "ther.</w>",
    "PRINCE.</w>",
    "ely</w>",
    "Ay,</w>",
    "Rom",
    "nigh",
    "os",
    "BAR",
    "CA",
    "Caes",
    "tor",
    "’er</w>",
    "’t</w>",
    "IL",
    "pi",
    "many</w>",
    "Where</w>",
    "cor",
    "Un",
    "il</w>",
    "ved</w>",
    "k.</w>",
    "’d,</w>",
    "dst</w>",
    "ind",
    "before</w>",
    "car",
    "nat",
    "comp",
    "ite</w>",
    "ch,</w>",
    "day</w>",
    "pow",
    "leave</w>",
    "ATR",
    "hol",
    "ve",
    "heart</w>",
    "ID",
    "Qu",
    "For",
    "row</w>",
    "Who</w>",
    "No,</w>",
    "ANTON",
    "LEOP",
    "poor</w>",
    "Nay,</w>",
    "CLEOP",
    "HO",
    "CLEOPATR",
    "hast</w>",
    "YR",
    "y?</w>",
    "ell,</w>",
    "dr",
    "YRAC",
    "SYRAC",
    "CLEOPATRA.</w>",
    "MEN",
    "ment",
    "inc",
    "sweet</w>",
    "ANTONY.</w>",
    "Be</w>",
    "better</w>",
    "COND</w>",
    "_.",
    "SECOND</w>",
    "lan",
    "USE.</w>",
    "ROSAL",
    "ROSALIN",
    "ting</w>",
    "SYRACUSE.</w>",
    "gri",
    "ul",
    "though</w>",
    "comes</w>",
    "s!</w>",
    "ROSALIND.</w>",
    "not,</w>",
    "ESS.</w>",
    "Sa",
    "att",
    "sure</w>",
    "_.]</w>",
    "Anton",
    "W.</w>",
    "y!</w>",
    "PO",
    "mean",
    "bear</w>",
    "ESTER.</w>",
    "answ",
    "Su",
    "lar",
    "vo",
    "those</w>",
    "ft</w>",
    "unto</w>",
    "whi",
    "o,</w>",
    "youn",
    "hel",
    "LES.</w>",
    "part</w>",
    "ten</w>",
    "fair</w>",
    "COR",
    "tongu",
    "bor",
    "now,</w>",
    "por",
    "it._]</w>",
    "soldi",
    "t?</w>",
    "ree</w>",
    "fel",
    "against</w>",
    "ears</w>",
    "look</w>",
    "CLO",
    "sea",
    "hop",
    "han",
    "ard</w>",
    "ene",
    "ence,</w>",
    "pal",
    "[_Exit._]</w>",
    "ow,</w>",
    "new",
    "pas",
    "who</w>",
    "Good</w>",
    "ess,</w>",
    "might</w>",
    "thee.</w>",
    "Not</w>",
    "cur",
    "Sir</w>",
    "father</w>",
    "are",
    "WARW",
    "ver</w>",
    "both</w>",
    "ving</w>",
    "Will</w>",
    "tim",
    "hu",
    "ts,</w>",
    "friend",
    "Joh",
    "find</w>",
    "WARWICK.</w>",
    "my",
    "INIUS.</w>",
    "Shall</w>",
    "PHOLU",
    "PHOLUS</w>",
    "wea",
    "cont",
    "ANTI",
    "hold</w>",
    "ANTIPHOLUS</w>",
    "son",
    "e!</w>",
    "ap",
    "ough</w>",
    "ROM",
    "SEN",
    "Now</w>",
    "well,</w>",
    "IO.</w>",
    "Than</w>",
    "Why</w>",
    "dra",
    "Our</w>",
    "comm",
    "dow",
    "tal",
    "bes",
    "sla",
    "den",
    "cap",
    "lord.</w>",
    "val",
    "till</w>",
    "honour</w>",
    "ding</w>",
    "whose</w>",
    "one.</w>",
    "tain</w>",
    "true</w>",
    "sl",
    "king",
    "Thy</w>",
    "ir,</w>",
    "te</w>",
    "BEL",
    "stand</w>",
    "No</w>",
    "van",
    "ins</w>",
    "ly,</w>",
    "IANA.</w>",
    "life</w>",
    "every</w>",
    "Mor",
    "sor",
    "qui",
    "gentle",
    "[_Exeunt</w>",
    "vir",
    "La",
    "ation</w>",
    "fortun",
    "ban",
    "ERT",
    "than",
    "LORD.</w>",
    "Do</w>",
    "IO</w>",
    "ke,</w>",
    "Have</w>",
    "ge.</w>",
    "call</w>",
    "ELIA.</w>",
    "imp",
    "clo",
    "with",
    "ms</w>",
    "MENEN",
    "AN.</w>",
    "goo",
    "ther’s</w>",
    "litt",
    "som",
    "ect</w>",
    "ded</w>",
    "ROMIO</w>",
    "count",
    "ned</w>",
    "ed.</w>",
    "DROMIO</w>",
    "ET.</w>",
    "MENENIUS.</w>",
    "int</w>",
    "name</w>",
    "Fren",
    "beg",
    "les</w>",
    "gen",
    "well.</w>",
    "GU",
    "hou",
    "honour",
    "its</w>",
    "ve.</w>",
    "PI",
    "Well,</w>",
    "Que",
    "way</w>",
    "trea",
    "stra",
    "d!</w>",
    "Here</w>",
    "thus</w>",
    "[_A",
    "Yet</w>",
    "Ed",
    "ward</w>",
    "world</w>",
    "le,</w>",
    "put</w>",
    "ni",
    "ath</w>",
    "vil",
    "ond",
    "fal",
    "though",
    "sen",
    "app",
    "mea",
    "pray</w>",
    "ly.</w>",
    "bar",
    "call",
    "col",
    "V.</w>",
    "man,</w>",
    "And,</w>",
    "There</w>",
    "PAR",
    "keep</w>",
    "d’s</w>",
    "DO.</w>",
    "str",
    "Bu",
    "so,</w>",
    "sub",
    "ster</w>",
    "OM",
    "dev",
    "come,</w>",
    "IOL",
    "CORIOL",
    "bear",
    "CORIOLAN",
    "WARD.</w>",
    "fear</w>",
    "stres",
    "eyes</w>",
    "HAR",
    "them",
    "fear",
    "blood</w>",
    "eng",
    "ef",
    "ep",
    "eig",
    "UR",
    "int",
    "o’</w>",
    "CORIOLANUS.</w>",
    "[_Exit</w>",
    "fool",
    "ter.</w>",
    "self,</w>",
    "h,</w>",
    "sion</w>",
    "death</w>",
    "From</w>",
    "EPH",
    "al,</w>",
    "N.</w>",
    "EDWARD.</w>",
    "en.</w>",
    "thous",
    "full</w>",
    "st.</w>",
    "thine</w>",
    "oul</w>",
    "dou",
    "down</w>",
    "foo",
    "cause</w>",
    "Ros",
    "stan",
    "mada",
    "PAROL",
    "SH",
    "gre",
    "Har",
    "ither</w>",
    "AG",
    "s._]</w>",
    "then,</w>",
    "Nor</w>",
    "cla",
    "me?</w>",
    ".—",
    "GAR",
    "DOL",
    "Glou",
    "PAROLLES.</w>",
    "EPHES",
    "first</w>",
    "Glouces",
    "bel",
    "UM",
    "Pr",
    "fur",
    "sed</w>",
    "MAN.</w>",
    "live</w>",
    "Caesar",
    "RIC",
    "se.</w>",
    "Ri",
    "nothing</w>",
    "ning</w>",
    "MARGAR",
    "tt",
    "Cor",
    "Up",
    "EPHESUS.</w>",
    "sir.</w>",
    "young</w>",
    "frien",
    "bla",
    "YOR",
    "where",
    "GLO",
    "is,</w>",
    "She</w>",
    "In",
    "IER.</w>",
    "cious</w>",
    "GLOUC",
    "All</w>",
    "I,</w>",
    "MARGARET.</w>",
    "[_Asi",
    "whom</w>",
    "We",
    "What,</w>",
    "them.</w>",
    "rough</w>",
    "sent</w>",
    "ess.</w>",
    "ence.</w>",
    "hand</w>",
    "temp",
    "es;</w>",
    "ce;</w>",
    "iel",
    "hus",
    "chan",
    "Li",
    "GLOUCESTER.</w>",
    "ns</w>",
    "Go</w>",
    "va",
    "Where",
    "cer",
    "off</w>",
    "cre",
    "thout</w>",
    "little</w>",
    "ds.</w>",
    "ew",
    "Upon</w>",
    "i’</w>",
    "win",
    "EN</w>",
    "peop",
    "ORLAN",
    "Con",
    "memb",
    "ACT</w>",
    "gar",
    "hal",
    "best</w>",
    "sti",
    "pris",
    "LI",
    "dee",
    "thought</w>",
    "done</w>",
    "man.</w>",
    "toge",
    "III.</w>",
    "ster",
    "still</w>",
    "show</w>",
    "de,</w>",
    "an,</w>",
    "me;</w>",
    "hom",
    "AD",
    "other",
    "long",
    "chi",
    "fiel",
    "Ar",
    "ch.</w>",
    "let",
    "even</w>",
    "thousand</w>",
    "kne",
    "bring</w>",
    "tain",
    "tly</w>",
    "head</w>",
    "dear</w>",
    "QUEEN</w>",
    "Now,</w>",
    "led</w>",
    "virtu",
    "YORK.</w>",
    "daugh",
    "Som",
    "BR",
    "SIC",
    "righ",
    "unc",
    "ate,</w>",
    "ces</w>",
    "heard</w>",
    "Pro",
    "que",
    "ar</w>",
    "den</w>",
    "long</w>",
    "AM.</w>",
    "fai",
    "ob",
    "Sh",
    "Henry</w>",
    "stri",
    "villa",
    "therefore</w>",
    "Char",
    "spo",
    "so.</w>",
    "Give</w>",
    "conf",
    "ying</w>",
    "turn</w>",
    "answer</w>",
    "ef</w>",
    "has</w>",
    "dly</w>",
    "wat",
    "pu",
    "stran",
    "Hath</w>",
    "ORLANDO.</w>",
    "ers.</w>",
    "son,</w>",
    "IMO",
    "or,</w>",
    "here",
    "rit",
    "thi",
    "IMOG",
    "UT",
    "happ",
    "servi",
    "hour",
    "age</w>",
    "ged</w>",
    "love,</w>",
    "Do",
    "gentle</w>",
    "gain</w>",
    "Da",
    "LE.</w>",
    "rant</w>",
    "IMOGEN.</w>",
    "forth</w>",
    "tow",
    "COU",
    "Tal",
    "Al",
    "Or",
    "HOR",
    "once</w>",
    "SP",
    "t!</w>",
    "jest",
    "under",
    "SICINIUS.</w>",
    "Richar",
    "CHAR",
    "away</w>",
    "heav",
    "hun",
    "about</w>",
    "sk",
    "umb",
    "ps</w>",
    "hand",
    "’d.</w>",
    "nee",
    "makes</w>",
    "mil",
    "bus",
    "stru",
    "le.</w>",
    "BARB",
    "ENO",
    "self.</w>",
    "INE.</w>",
    "RICHAR",
    "far</w>",
    "shalt</w>",
    "ENOBARB",
    "Are</w>",
    "ween</w>",
    "ss</w>",
    "ENOBARBUS.</w>",
    "mistres",
    "lex",
    "cra",
    "came</w>",
    "hope</w>",
    "o’",
    "gainst</w>",
    "CLOW",
    "ses</w>",
    "ook</w>",
    "CLOWN.</w>",
    "HORAT",
    "soul",
    "ELEN",
    "ING",
    "gla",
    "ree",
    "Before</w>",
    "Ham",
    "OLK.</w>",
    "heaven",
    "Talbo",
    "HELEN",
    "chil",
    "night</w>",
    "Wi",
    "please</w>",
    "che",
    "ELL",
    "get</w>",
    "Suff",
    "dy,</w>",
    "fellow",
    "SU",
    "SUFF",
    "Per",
    "im",
    "BO",
    "HELENA.</w>",
    "SENG",
    "Lond",
    "not.</w>",
    "wel",
    "MES",
    "SENGER.</w>",
    "ck.</w>",
    "ne</w>",
    "ire</w>",
    "ini",
    "MESSENGER.</w>",
    "est,</w>",
    "YM",
    "drea",
    "prou",
    "dar",
    "ity,</w>",
    "s’</w>",
    "King",
    "RICHARD.</w>",
    "law",
    "AU",
    "none</w>",
    "SUFFOLK.</w>",
    "ump",
    "CELIA.</w>",
    "follow",
    "au",
    "rememb",
    "emp",
    "TI",
    "Whose</w>",
    "HORATIO.</w>",
    "DU",
    "FE",
    "Di",
    "marri",
    "DUK",
    "ret",
    "Marti",
    "brother</w>",
    "spee",
    "An</w>",
    "fea",
    "gr",
    "wit",
    "doub",
    "over",
    "Prince</w>",
    "all,</w>",
    "dost</w>",
    "since</w>",
    "ough",
    "lin",
    "NT",
    "ERTR",
    "pati",
    "said</w>",
    "xt</w>",
    ".”</w>",
    "place</w>",
    "cy</w>",
    "BERTR",
    "Though</w>",
    "tion",
    "through</w>",
    "CI",
    "bri",
    "deser",
    "King,</w>",
    "kna",
    "OR.</w>",
    "ks,</w>",
    "power</w>",
    "after</w>",
    "esseng",
    "ity.</w>",
    "tro",
    "Suffol",
    "BERTRAM.</w>",
    "rest</w>",
    "husb",
    "here,</w>",
    "cei",
    "eve</w>",
    "ct</w>",
    "But,</w>",
    "without</w>",
    "Ta",
    "things</w>",
    "ent.</w>",
    "vereig",
    "sovereig",
    "three</w>",
    "HOT",
    "COUNT",
    "SPUR",
    "HOTSPUR",
    "near</w>",
    "each</w>",
    "worthy</w>",
    "ace.</w>",
    "ouch",
    "AS.</w>",
    "HOTSPUR.</w>",
    "words</w>",
    "all.</w>",
    "a,</w>",
    "St",
    "dge</w>",
    "COUNTESS.</w>",
    "spir",
    "Somer",
    "CAES",
    "cri",
    "QUEEN.</w>",
    "AR.</w>",
    "stor",
    "Ano",
    "oura",
    "ked</w>",
    "ouldst</w>",
    "himself</w>",
    "LAFE",
    "SOL",
    "yiel",
    "gener",
    "HOST",
    "sil",
    "reven",
    "French</w>",
    "them,</w>",
    "STOL",
    "some",
    "king,</w>",
    "this,</w>",
    "ful",
    "DIER.</w>",
    "ani",
    "LAFEW.</w>",
    "SOLDIER.</w>",
    "thank</w>",
    "lord</w>",
    "does</w>",
    "tion,</w>",
    "ice</w>",
    "ken</w>",
    "father’s</w>",
    "L.</w>",
    "res</w>",
    "Re",
    "ctor",
    "ts.</w>",
    "grace</w>",
    "Did</w>",
    "show",
    "gave</w>",
    "wha",
    "tit",
    "fore,</w>",
    "’t.</w>",
    "Gra",
    "ERV",
    "Even</w>",
    "ES.</w>",
    "CAESAR.</w>",
    "roy",
    "won",
    "lay</w>",
    "bid</w>",
    "men,</w>",
    "stay</w>",
    "another</w>",
    "Par",
    "times</w>",
    "lord",
    "gol",
    "rather</w>",
    "LUC",
    "die</w>",
    "selves</w>",
    "STOL.</w>",
    "grow",
    "do,</w>",
    "fin",
    "PISTOL.</w>",
    "Fa",
    "Another</w>",
    "that’s</w>",
    "beli",
    "wo",
    "ted,</w>",
    "heaven</w>",
    "fair",
    "pt</w>",
    "pat",
    "dear",
    "meet</w>",
    "[_Aside",
    "say,</w>",
    "Was</w>",
    "cell",
    "et,</w>",
    "face</w>",
    "fee",
    "else</w>",
    "ors</w>",
    "that,</w>",
    "batt",
    "Come</w>",
    "ce?</w>",
    "red</w>",
    "Warwick,</w>",
    "able</w>",
    "drin",
    "ber",
    "iol",
    "John</w>",
    "sing</w>",
    "spi",
    "again</w>",
    "out",
    "Au",
    "dang",
    "SERV",
    "sword</w>",
    "saw</w>",
    "shor",
    "only</w>",
    "Ja",
    "left</w>",
    "BRUT",
    "ship</w>",
    "repor",
    "lords,</w>",
    "migh",
    "a.</w>",
    "mou",
    "seen</w>",
    "Coriol",
    "English</w>",
    "Bard",
    "kis",
    "day,</w>",
    "Bardol",
    "star",
    "BRUTUS.</w>",
    "RE",
    "There’s</w>",
    "lie",
    "pen",
    "What’s</w>",
    "besee",
    "Mo",
    "rit</w>",
    "body</w>",
    "._</w>",
    "IV.</w>",
    "France</w>",
    "word</w>",
    "wilt</w>",
    "ste</w>",
    "POST",
    "ere,</w>",
    "eye</w>",
    "means</w>",
    "night,</w>",
    "dru",
    "[_To</w>",
    "time,</w>",
    "beau",
    "din",
    "cous",
    "suff",
    "Brit",
    "Till</w>",
    "oa",
    "woun",
    "ray</w>",
    "More</w>",
    "ligh",
    "Warwick</w>",
    "life,</w>",
    "med</w>",
    "p,</w>",
    "France,</w>",
    "IA",
    "false</w>",
    "HUM",
    "At</w>",
    "trait",
    "wife</w>",
    "POL",
    "ques",
    "pard",
    "thou,</w>",
    "wil",
    "land</w>",
    "whil",
    "ye</w>",
    "still",
    "Nor",
    "fall</w>",
    "dam",
    "POLON",
    "Po",
    "father,</w>",
    "follow</w>",
    "bloody</w>",
    "same</w>",
    "MOR",
    "DOLPH",
    "cat",
    "promis",
    "DOLPH.</w>",
    "Sir,</w>",
    "POLONIUS.</w>",
    "thy",
    "way,</w>",
    "BARDOLPH.</w>",
    "break</w>",
    "ness,</w>",
    "Ear",
    "sin",
    "dro",
    "lies</w>",
    "wrong",
    "figh",
    "ced</w>",
    "Alex",
    "between</w>",
    "scor",
    "house</w>",
    "stol",
    "vis",
    "be,</w>",
    "Mu",
    "Would</w>",
    "fight</w>",
    "ent,</w>",
    "These</w>",
    "ling</w>",
    "sigh",
    "you?</w>",
    "vali",
    "again.</w>",
    "HOSTESS.</w>",
    "CYM",
    "def",
    "her,</w>",
    "gro",
    "ne’er</w>",
    "ET",
    "CYMBEL",
    "Fal",
    "Mon",
    "mur",
    "pose</w>",
    "hand,</w>",
    "Queen</w>",
    "tre",
    "Clif",
    "ans</w>",
    "wis",
    "woman",
    "dom",
    "send</w>",
    "too.</w>",
    "Therefore</w>",
    "run",
    "LU",
    "n’d</w>",
    "death.</w>",
    "IN.</w>",
    "ought</w>",
    "York</w>",
    "ENC",
    "gg",
    "Cap",
    "deed</w>",
    "ff</w>",
    "eat</w>",
    "aff",
    "rought</w>",
    "charge</w>",
    "say",
    "her.</w>",
    "Whi",
    "wear</w>",
    "gods</w>",
    "FR",
    "Caesar</w>",
    "Were</w>",
    "Antony</w>",
    "ters</w>",
    "CYMBELINE.</w>",
    "um",
    "t-",
    "vent",
    "ves,</w>",
    "tongue</w>",
    "TIZ",
    "kind</w>",
    "CITIZ",
    "Ah,</w>",
    "Spea",
    "rep",
    "cow",
    "fav",
    "right</w>",
    "ke",
    "dead</w>",
    "o’er",
    "prove</w>",
    "im</w>",
    "why</w>",
    "op</w>",
    "gat",
    "high",
    "jes",
    "Sol",
    "ICE.</w>",
    "jud",
    "bon",
    "ADR",
    "York,</w>",
    "tend",
    "Cliffor",
    "master</w>",
    "Thus</w>",
    "England</w>",
    "OW",
    "back</w>",
    "comman",
    "Rosal",
    "ADRIANA.</w>",
    "more.</w>",
    "POSTHUM",
    "Like</w>",
    "saf",
    "given</w>",
    "friends</w>",
    "crea",
    "bir",
    "ceive</w>",
    "cks</w>",
    "reng",
    "ell</w>",
    "Cle",
    "faul",
    "ry’s</w>",
    "soul</w>",
    "ched</w>",
    "under</w>",
    "SHAL",
    "CLOT",
    "ition</w>",
    "prison",
    "id,</w>",
    "lear",
    "enter",
    "SHALLO",
    "DUKE</w>",
    "found</w>",
    "Master</w>",
    "lie</w>",
    "CHIM",
    "ali",
    "ON.</w>",
    "IACHIM",
    "tion.</w>",
    "busin",
    "present</w>",
    "streng",
    "IACHIMO.</w>",
    "within</w>",
    "myself</w>",
    "dy.</w>",
    "hour</w>",
    "CLOTEN.</w>",
    "mean</w>",
    "Fare",
    "ment,</w>",
    "gracious</w>",
    "mel",
    "er;</w>",
    "POSTHUMUS.</w>",
    "seek</w>",
    "SHALLOW.</w>",
    "amb",
    "natu",
    "VIR",
    "On</w>",
    "we’ll</w>",
    "will,</w>",
    "ea,</w>",
    "y-",
    "Since</w>",
    "Se",
    "light</w>",
    "umph",
    "heart,</w>",
    "princ",
    "moun",
    "deli",
    "CITIZEN.</w>",
    "more,</w>",
    "OUCH",
    "ten",
    "help</w>",
    "IAN.</w>",
    "cked</w>",
    "whol",
    "TOUCH",
    "TOUCHST",
    "TOUCHSTON",
    "indee",
    "gue</w>",
    "The",
    "dare</w>",
    "blood,</w>",
    "Some</w>",
    "comfor",
    "play</w>",
    "We’ll</w>",
    "nature</w>",
    "lost</w>",
    "fall",
    "men.</w>",
    "come.</w>",
    "sleep",
    "lik",
    "May</w>",
    "omor",
    "il,</w>",
    "last</w>",
    "ery</w>",
    "Falsta",
    "ble",
    "lose</w>",
    "Wal",
    "TOUCHSTONE.</w>",
    "half</w>",
    "he’s</w>",
    "TAL",
    "el,</w>",
    "e-",
    "p.</w>",
    "blow",
    "serve</w>",
    "Soldi",
    "oom</w>",
    "es?</w>",
    "Gu",
    "subj",
    "ish.</w>",
    "Most</w>",
    "cee",
    "worth</w>",
    "COM",
    "TALBO",
    "it?</w>",
    "ing;</w>",
    "ce!</w>",
    "beseech</w>",
    "sci",
    "Take</w>",
    "friend</w>",
    "Rome</w>",
    "seem</w>",
    "ry.</w>",
    "faith,</w>",
    "is.</w>",
    "d-",
    "sum",
    "ours</w>",
    "row,</w>",
    "ari",
    "royal</w>",
    "stea",
    "away.</w>",
    "high</w>",
    "Hamle",
    "Messeng",
    "fan",
    "wear",
    "Edwar",
    "on;</w>",
    "Her</w>",
    "’t,</w>",
    "again,</w>",
    "TALBOT.</w>",
    "fit</w>",
    "Cleop",
    "mother</w>",
    "Cleopat",
    "but",
    "mp</w>",
    "great",
    "stu",
    "common</w>",
    "cro",
    "prin",
    "FLU",
    "him;</w>",
    "draw</w>",
    "save</w>",
    "death",
    "FLUELL",
    "mind</w>",
    "lat",
    "en?</w>",
    "peace</w>",
    "got</w>",
    "swee",
    "Wil",
    "proud</w>",
    "Rome.</w>",
    "er’s</w>",
    "al.</w>",
    "crown</w>",
    "Bardolph",
    "hand.</w>",
    "no,</w>",
    "Pol",
    "Wel",
    "FLUELLEN.</w>",
    "form</w>",
    "new</w>",
    "yourself</w>",
    "Ala",
    "les,</w>",
    "keep",
    "ble,</w>",
    "hands</w>",
    "soun",
    "any",
    "says</w>",
    "Pray</w>",
    "dom</w>",
    "Had</w>",
    "brought</w>",
    "SERVING",
    "France.</w>",
    "sun",
    "am",
    "ents</w>",
    "Edward</w>",
    "took</w>",
    "done,</w>",
    "read</w>",
    "Look</w>",
    "it;</w>",
    "fare",
    "POIN",
    "ster,</w>",
    "here.</w>",
    "hous",
    "youth</w>",
    "dre",
    "bi",
    "woman</w>",
    "palace.</w>",
    "POINS.</w>",
    "assa",
    "kill",
    "Fortun",
    "reason</w>",
    "enough</w>",
    "COMINIUS.</w>",
    "Against</w>",
    "brother",
    "de.</w>",
    "thri",
    "emb",
    "chee",
    "West",
    "Alexand",
    "hang",
    "brave</w>",
    "ant",
    "madam,</w>",
    "cho",
    "LAND.</w>",
    "dig",
    "London.</w>",
    "suc",
    "swear</w>",
    "JA",
    "dies</w>",
    "Tell</w>",
    "beauty</w>",
    "Vol",
    "obe",
    "flow",
    "present",
    "gy",
    "truth</w>",
    "SERVINGMAN.</w>",
    "state</w>",
    "Dro",
    "quar",
    "thoughts</w>",
    "conqu",
    "land,</w>",
    "plu",
    "Make</w>",
    "our,</w>",
    "knows</w>",
    "rema",
    "Earl</w>",
    "Dis",
    "prais",
    "nor",
    "ons,</w>",
    "CHARM",
    "death,</w>",
    "or.</w>",
    "England",
    "wish</w>",
    "far",
    "glor",
    "room</w>",
    "ris",
    "counter",
    ",”</w>",
    "fly</w>",
    "king.</w>",
    "mee",
    "ius</w>",
    "known</w>",
    "Pea",
    "draw",
    "Room</w>",
    "spirit</w>",
    "CHARMIAN.</w>",
    "CAD",
    "while</w>",
    "man’s</w>",
    "force</w>",
    "ness",
    "THE</w>",
    "sig",
    "now.</w>",
    "honest</w>",
    "Tru",
    "ished</w>",
    "LAERT",
    "cea",
    "reat</w>",
    "Majest",
    "there’s</w>",
    "Wor",
    "father",
    "TIUS.</w>",
    "LAERTES.</w>",
    "scar",
    "Sta",
    "lives</w>",
    "foul</w>",
    "happy</w>",
    "lean",
    "Clar",
    "sal",
    "play",
    "dri",
    "Brita",
    "home</w>",
    "lab",
    "et’s</w>",
    "ENT",
    "tal</w>",
    "Marry,</w>",
    "year",
    "ot",
    "heart.</w>",
    "CADE.</w>",
    "valiant</w>",
    "uph",
    "God’s</w>",
    "grief",
    "Fl",
    "strong</w>",
    "secon",
    "Saint</w>",
    "humb",
    "strong",
    "tin",
    "God,</w>",
    "boo",
    "ze</w>",
    "JU",
    "Coriolan",
    "cus",
    "IDER",
    "tell",
    "ys,</w>",
    "praise</w>",
    "GUIDER",
    "Their</w>",
    "eri",
    "serv",
    "war</w>",
    "Bo",
    "bound</w>",
    "King.</w>",
    "old,</w>",
    "Say</w>",
    "Anti",
    "vanta",
    "er?</w>",
    "’en</w>",
    "offic",
    "Dauph",
    "lord?</w>",
    "rel",
    "cy,</w>",
    "Dromi",
    "twent",
    "Coun",
    "JAQUE",
    "strange</w>",
    "stand",
    "flat",
    "ments</w>",
    "Egy",
    "wret",
    "sh</w>",
    "GE",
    "fre",
    "told</w>",
    "Should</w>",
    "mine,</w>",
    "pois",
    "news</w>",
    "fortune</w>",
    "he,</w>",
    "desire</w>",
    "shame</w>",
    "bed</w>",
    "IDIUS.</w>",
    "Men",
    "OPH",
    "wal",
    "GUIDERIUS.</w>",
    "dam,</w>",
    "LIFF",
    "alrea",
    "jesty</w>",
    "thinks</w>",
    "cal",
    "del",
    "will.</w>",
    "Such</w>",
    "Att",
    "fellow</w>",
    "supp",
    "Yes,</w>",
    "PIS",
    "PISAN",
    "BELAR",
    "mann",
    "CLIFF",
    "late</w>",
    "caus",
    "thir",
    "BU",
    "pity</w>",
    "OLUM",
    "either</w>",
    "born</w>",
    "quick",
    "speak.</w>",
    "retur",
    "OPHELIA.</w>",
    "kind",
    "Sal",
    "umphre",
    "anca",
    "over</w>",
    "let’s</w>",
    "Humphre",
    "Pi",
    "llow",
    "sit</w>",
    "cru",
    "OLUMN",
    "Yea,</w>",
    "Pal",
    ",—</w>",
    "BELARIUS.</w>",
    "ous,</w>",
    "PISANIO.</w>",
    "love.</w>",
    "LAD",
    "spor",
    "VOLUMN",
    "One</w>",
    "pol",
    "IE",
    "noth",
    "gin",
    "eyes,</w>",
    "Fi",
    "JAQUES.</w>",
    "pec",
    "hur",
    "pay</w>",
    "Must</w>",
    "ke.</w>",
    "es!</w>",
    "fidi",
    "dness</w>",
    "world,</w>",
    "CHIE",
    "didst</w>",
    "son.</w>",
    "liv",
    "go,</w>",
    "JUST",
    "joy</w>",
    "there,</w>",
    "Henry,</w>",
    "parti",
    "Can</w>",
    "VOLUMNIA.</w>",
    "ths</w>",
    "sure,</w>",
    "guil",
    "OMER",
    "care</w>",
    "CHIEF</w>",
    "pe</w>",
    "part,</w>",
    "Pos",
    "Hel",
    "rew",
    "ANT.</w>",
    "BER",
    "lth</w>",
    "Somerse",
    "knew</w>",
    "you;</w>",
    "friends,</w>",
    "mer</w>",
    "sho",
    "bun",
    "me!</w>",
    "ast",
    "Lu",
    "Whil",
    "bless",
    "chamb",
    "som</w>",
    "OWER.</w>",
    "cold</w>",
    "That’s</w>",
    "Let’s</w>",
    "nati",
    "JUSTICE.</w>",
    "Cy",
    "hen",
    "CLIFFORD.</w>",
    "e’er</w>",
    "yield</w>",
    "ll,</w>",
    "lady</w>",
    "sud",
    "SET.</w>",
    "out.</w>",
    "change</w>",
    "tions</w>",
    "speak",
    "ure,</w>",
    "fac",
    "be.</w>",
    "eff",
    "horse</w>",
    "qua",
    "chol",
    "els</w>",
    "musi",
    "itself</w>",
    "us?</w>",
    "k’d</w>",
    "ine,</w>",
    "pet",
    "dead.</w>",
    "ger</w>",
    "RI",
    "go.</w>",
    "th;</w>",
    "trump",
    "sing",
    "tear",
    "oft</w>",
    "em",
    "Flour",
    "sy</w>",
    "Roman</w>",
    "don",
    "Lanca",
    "Ge",
    "Aufidi",
    "believe</w>",
    "sons</w>",
    "people</w>",
    "dead,</w>",
    "holy</w>",
    "fra",
    "Ju",
    "ary</w>",
    "loves</w>",
    "wixt</w>",
    "nobl",
    "ches</w>",
    "Prote",
    "ste",
    "Richard</w>",
    "day.</w>",
    "excell",
    "ness.</w>",
    "ron",
    "out,</w>",
    "hoo",
    "umber",
    "pit",
    "ETER.</w>",
    "stat",
    "King’s</w>",
    "Sw",
    "ENTLE",
    "GENTLE",
    "SIL",
    "[_S",
    "almost</w>",
    "hence</w>",
    "fles",
    "Me",
    "bit",
    "EX",
    "NOR",
    "true,</w>",
    "Westmor",
    "hard</w>",
    "cut</w>",
    "tes",
    "inted</w>",
    "John,</w>",
    "gran",
    "certain</w>",
    "Geor",
    "ct",
    "abo",
    "know,</w>",
    "ss,</w>",
    "land",
    "pray",
    "LEAN",
    "br",
    "dd",
    "sun</w>",
    "together</w>",
    "liber",
    "this?</w>",
    "Falstaff",
    "called</w>",
    "ment.</w>",
    "further</w>",
    "kill</w>",
    "ards</w>",
    "ew</w>",
    "isbur",
    "spec",
    "general</w>",
    "cuse</w>",
    "Pom",
    "sm",
    "um.</w>",
    "Caesar,</w>",
    "indeed</w>",
    "Dou",
    "Salisbur",
    "side</w>",
    "o’er</w>",
    "TA",
    "vol",
    "ye",
    "looks</w>",
    "gone,</w>",
    "Ser",
    "ry",
    "mother,</w>",
    "So,</w>",
    "sul",
    "Grace</w>",
    "Harry</w>",
    "inter",
    "Le",
    "away,</w>",
    "dred</w>",
    "master,</w>",
    "city</w>",
    ",—",
    "arms</w>",
    "brother,</w>",
    "four</w>",
    "end,</w>",
    "SOMER",
    "heavy</w>",
    "red,</w>",
    "ded.</w>",
    "tomor",
    "ace</w>",
    "Hor",
    "matter</w>",
    "ima",
    "ended</w>",
    "ond</w>",
    "d:</w>",
    "d._]</w>",
    "bli",
    "house.</w>",
    "are,</w>",
    "lad",
    "PE",
    "soon</w>",
    "head,</w>",
    "Bur",
    "warrant</w>",
    "hundred</w>",
    "service</w>",
    "pleasure</w>",
    "per</w>",
    "groun",
    "wars</w>",
    "IRD</w>",
    "ROSENC",
    "THUM",
    "tears</w>",
    "Under</w>",
    "Pri",
    "Well</w>",
    "enemi",
    ".—</w>",
    "ert</w>",
    "base</w>",
    "too,</w>",
    "cess",
    "ROSENCR",
    "gone</w>",
    "You",
    "stands</w>",
    "kep",
    "welcome</w>",
    "THIRD</w>",
    "natura",
    "II</w>",
    "wind</w>",
    "gs</w>",
    "so?</w>",
    "Go,</w>",
    "canst</w>",
    "need</w>",
    "m’d</w>",
    "ROSENCRANT",
    "Madam,</w>",
    "ious</w>",
    "days</w>",
    "Posth",
    "weep",
    "ind,</w>",
    "fing",
    "ered</w>",
    "life.</w>",
    "Alas,</w>",
    "WEST",
    "lack</w>",
    "ings,</w>",
    "ture</w>",
    "er’d</w>",
    "BE",
    "needs</w>",
    "NORTHUM",
    "run</w>",
    "Rea",
    "mbel",
    "Attend",
    "NORTHUMBER",
    "ils</w>",
    "court</w>",
    "villain",
    "plo",
    "Bea",
    "rec",
    "enough",
    "CHARLES.</w>",
    "Cymbel",
    "Gloucester",
    "sto",
    "claim</w>",
    "Bet",
    "here?</w>",
    "Imo",
    "trou",
    "Mortim",
    "Gloucester,</w>",
    "Henry’s</w>",
    "fet",
    "next</w>",
    "cher",
    "best",
    "ble.</w>",
    "tain,</w>",
    "do.</w>",
    "and.</w>",
    "Orlan",
    "dist",
    "goes</w>",
    "GENTLEMAN.</w>",
    "bal",
    "ends</w>",
    "LADY</w>",
    "Here",
    "majest",
    "foot</w>",
    "fter</w>",
    "!”</w>",
    "sat",
    "cep",
    "SOMERSET.</w>",
    "Farewell,</w>",
    "heaven,</w>",
    "talk</w>",
    "name,</w>",
    "High",
    "eu",
    "VIRAG",
    "wra",
    "doubt</w>",
    "ind.</w>",
    "earth</w>",
    "NORTHUMBERLAND.</w>",
    "him?</w>",
    "ute</w>",
    "[_Aside._]</w>",
    "work</w>",
    "Mine</w>",
    "thor",
    "sue</w>",
    "ARVIRAG",
    "return</w>",
    "oni",
    "enc",
    "thin</w>",
    "boun",
    "ALL.</w>",
    "ARVIRAGUS.</w>",
    "Tow",
    "beh",
    "UCEL",
    "sie",
    "recei",
    "this.</w>",
    "CAR",
    "ty",
    "He’s</w>",
    "course</w>",
    "s’d</w>",
    "BLE.</w>",
    "ges</w>",
    "gall",
    "honoura",
    "try</w>",
    "PUCEL",
    "Bes",
    "twenty</w>",
    "ty,</w>",
    "oc",
    "resol",
    "On",
    "s:</w>",
    "ist</w>",
    "ish,</w>",
    "ll.</w>",
    "Alexandri",
    "hot</w>",
    "fla",
    "ally</w>",
    "numb",
    "gun",
    "PUCELLE.</w>",
    "Westmorel",
    "Egyp",
    "t:</w>",
    "spur",
    "up,</w>",
    "ter?</w>",
    "field</w>",
    "eni",
    "vile</w>",
    "Sweet</w>",
    "Lea",
    "ask</w>",
    "whole</w>",
    "EXETER.</w>",
    "Lord,</w>",
    "night.</w>",
    "WIL",
    "youth,</w>",
    "thyself</w>",
    "Pis",
    "often</w>",
    "neither</w>",
    "devil</w>",
    "honour,</w>",
    "chance</w>",
    "ught</w>",
    "cover",
    "sever",
    "second</w>",
    "clu",
    "beat</w>",
    "carri",
    "AUF",
    "Call</w>",
    "cl",
    "est.</w>",
    "common",
    "AST",
    "sty</w>",
    "appro",
    "Being</w>",
    "requ",
    "ROSENCRANTZ",
    "pret",
    "sts</w>",
    "daughter</w>",
    "sword,</w>",
    "dem",
    "not?</w>",
    "ROSENCRANTZ.</w>",
    "bil",
    "ink</w>",
    "subjec",
    "ming</w>",
    "ish’d</w>",
    "publi",
    "loy",
    "compan",
    "Ch",
    "consci",
    "anc",
    "AUFIDIUS.</w>",
    "North",
    "Horati",
    "Cleopatra",
    "ouch</w>",
    "tender</w>",
    "Pisani",
    "inst",
    "Pa",
    "Queen,</w>",
    "’gainst</w>",
    "poss",
    "arti",
    "ford</w>",
    "something</w>",
    "Laer",
    "Richard,</w>",
    "truth,</w>",
    "met</w>",
    "remember</w>",
    "semb",
    "business</w>",
    "ight.</w>",
    "WILLI",
    "real",
    "woo",
    "uncle</w>",
    "hate</w>",
    "Shallow",
    "ether</w>",
    "enter</w>",
    "Fir",
    "Therefore,</w>",
    "Exe",
    "soul,</w>",
    "[_Aside_.]</w>",
    "spoke</w>",
    "Warwick",
    "mes</w>",
    "report</w>",
    "mark</w>",
    "having</w>",
    "pass</w>",
    "Sy",
    "zen",
    "Dea",
    "rebel",
    "cousin</w>",
    "SA",
    "coming</w>",
    "memor",
    "viol",
    "hours</w>",
    "gold</w>",
    "hum",
    "deb",
    "l,</w>",
    "down,</w>",
    "GE.</w>",
    "ching</w>",
    "Speak</w>",
    "myself,</w>",
    "ing?</w>",
    "see,</w>",
    "chur",
    "point</w>",
    "Northumber",
    "mortal</w>",
    "to,</w>",
    "Doth</w>",
    "fire</w>",
    "Her",
    "have,</w>",
    "within",
    "ined</w>",
    "die.</w>",
    "DIANA.</w>",
    "v’d</w>",
    "wouldst</w>",
    "ano",
    "e:</w>",
    "enemy</w>",
    "Flourish.</w>",
    "fer",
    "rah,</w>",
    "Talbot</w>",
    "ks.</w>",
    "deny</w>",
    "victor",
    "vow",
    "phes",
    "want</w>",
    "sea</w>",
    "on?</w>",
    "WAT",
    "sick</w>",
    "Pu",
    "loving</w>",
    "dest</w>",
    "cry</w>",
    "LUCIANA.</w>",
    "ardin",
    "an.</w>",
    "wall",
    "sick",
    "strength</w>",
    "think,</w>",
    "now?</w>",
    "guar",
    "n?</w>",
    "indeed,</w>",
    "worse</w>",
    "WATCH",
    "fashi",
    "virtue</w>",
    "that?</w>",
    "gone.</w>",
    "ors,</w>",
    "dinn",
    "BURY.</w>",
    "argu",
    "se;</w>",
    "Then,</w>",
    "Cast",
    "[_Aside</w>",
    "of.</w>",
    "shep",
    "Unless</w>",
    "purpos",
    "Hea",
    "ingha",
    "thro",
    "not",
    "ach</w>",
    "pardon</w>",
    "laid</w>",
    "Dra",
    "ily</w>",
    "friends.</w>",
    "Flor",
    "murder",
    "head.</w>",
    "our.</w>",
    "coura",
    "rown</w>",
    "POM",
    "gives</w>",
    "home,</w>",
    "grow</w>",
    "danger",
    "way.</w>",
    "Somerset</w>",
    "ult</w>",
    "k’st</w>",
    "trust</w>",
    "shoul",
    "ed",
    "POMPE",
    "pair</w>",
    "five</w>",
    "cel",
    "REY.</w>",
    "clou",
    "Charmi",
    "th?</w>",
    "diti",
    "shepher",
    "what’s</w>",
    "free</w>",
    "glad</w>",
    "kept</w>",
    "up.</w>",
    "Lo",
    "ls</w>",
    "VER",
    "vel",
    "ge;</w>",
    "man?</w>",
    "sting</w>",
    "on’s</w>",
    "purpose</w>",
    "liege,</w>",
    "ation.</w>",
    "black</w>",
    "vel</w>",
    "Eno",
    "Messenger.</w>",
    "loved</w>",
    "POMPEY.</w>",
    "touch",
    "that.</w>",
    "Enobar",
    "you’ll</w>",
    "div",
    "Loo",
    "England’s</w>",
    "Den",
    "dow</w>",
    "drink</w>",
    "wife,</w>",
    "affec",
    "sir?</w>",
    "mock</w>",
    "Alexandria.</w>",
    "satis",
    "ted.</w>",
    "secre",
    "[_They</w>",
    "become</w>",
    "used</w>",
    "public</w>",
    "bold</w>",
    "qual",
    "Ti",
    "ship",
    "ns,</w>",
    "Within</w>",
    "es._]</w>",
    "grant</w>",
    "died</w>",
    "thful</w>",
    "Pe",
    "reli",
    "peace,</w>",
    "STABLE.</w>",
    "writ",
    "Pho",
    "battle</w>",
    "ith,</w>",
    "mad</w>",
    "inf",
    "IV",
    "fetch</w>",
    "Peace,</w>",
    "years</w>",
    "bad</w>",
    "particu",
    "war,</w>",
    "themselves</w>",
    "vers</w>",
    "le;</w>",
    "behold</w>",
    "mple</w>",
    "Caesar’s</w>",
    "allow",
    "command</w>",
    "fy</w>",
    "count</w>",
    "MARTIUS.</w>",
    "word,</w>",
    "shar",
    "Away,</w>",
    "fit",
    "ties</w>",
    "CONSTABLE.</w>",
    "beaut",
    "boy</w>",
    "mark",
    "fell</w>",
    "ation,</w>",
    "after",
    "main",
    "’d;</w>",
    "LAR",
    "Ber",
    "French",
    "win</w>",
    "Antony,</w>",
    "stom",
    "AND.</w>",
    "enem",
    "exec",
    "crown,</w>",
    "Laert",
    "ing-",
    "comfort</w>",
    "Tu",
    "oll",
    "Sir",
    "diff",
    "Martius</w>",
    "mir",
    "ys.</w>",
    "justi",
    "Ga",
    "desir",
    "sound</w>",
    "ons.</w>",
    "rich</w>",
    "g,</w>",
    "cen",
    "wan",
    "back",
    "ledge</w>",
    "fle",
    "swa",
    "judge",
    "hearts</w>",
    "ets</w>",
    "ANG",
    "MOREL",
    "rag",
    "army</w>",
    "said,</w>",
    "GEOR",
    "jur",
    "’twas</w>",
    "th’",
    "us._]</w>",
    "neigh",
    "se?</w>",
    "voic",
    "Is",
    "ves.</w>",
    "Lady</w>",
    "friend,</w>",
    "ded,</w>",
    "lead</w>",
    "WESTMOREL",
    "DEN",
    "ms,</w>",
    "husband</w>",
    "posed</w>",
    "Edward,</w>",
    "good,</w>",
    "d’",
    "lip",
    "Never</w>",
    "mul",
    "pluck</w>",
    "wise</w>",
    "mistress</w>",
    "fool</w>",
    "sworn</w>",
    "fellow,</w>",
    "ford,</w>",
    "world.</w>",
    "face,</w>",
    "eye,</w>",
    "choo",
    "grief</w>",
    "ance.</w>",
    "mira",
    "appear",
    "alone</w>",
    "ENCE.</w>",
    "Off",
    "Great</w>",
    "To",
    "des</w>",
    "Sil",
    "Whom</w>",
    "arm</w>",
    "on!</w>",
    "itizen",
    "York.</w>",
    "Faith,</w>",
    "question</w>",
    "in’d</w>",
    "esti",
    "rasc",
    "country</w>",
    "ck’d</w>",
    "deep</w>",
    "OLIV",
    "soon",
    "equ",
    "bow",
    "longer</w>",
    "swear",
    "wert</w>",
    "Gent",
    "lord;</w>",
    "Antiph",
    "bears</w>",
    "servan",
    "sel</w>",
    "GEORGE.</w>",
    "down",
    "natural</w>",
    "yet,</w>",
    "buy</w>",
    "sir;</w>",
    "fat",
    "words,</w>",
    "possi",
    "rever",
    "chang",
    "others.</w>",
    "lia",
    "perf",
    "white</w>",
    "WESTMORELAND.</w>",
    "el</w>",
    "letters</w>",
    "sup",
    "VI.</w>",
    "ins,</w>",
    "grace,</w>",
    "end.</w>",
    "ost",
    "il.</w>",
    "Alar",
    "um</w>",
    "Antiphol",
    "house,</w>",
    "mali",
    "JO",
    "prithee,</w>",
    "him!</w>",
    "Clo",
    "ly",
    "twi",
    "well;</w>",
    "soldier</w>",
    "excellent</w>",
    "down.</w>",
    "beggar",
    "sma",
    "ches",
    "place,</w>",
    "father.</w>",
    "safe</w>",
    "CELL",
    "OLIVER.</w>",
    "prepar",
    "Bring</w>",
    "Luci",
    "FORD.</w>",
    "sleep</w>",
    "ch’d</w>",
    "pretty</w>",
    "mighty</w>",
    "throw</w>",
    "borne</w>",
    "may",
    "f,</w>",
    "ill,</w>",
    "Sen",
    "lun",
    "husband",
    "st;</w>",
    "haste</w>",
    "rat",
    "Comini",
    "broke</w>",
    "gon",
    "golden</w>",
    "ourselves</w>",
    "heir</w>",
    "married</w>",
    "rough",
    "woman’s</w>",
    "sion,</w>",
    "kiss</w>",
    "Here’s</w>",
    "every",
    "Suffolk</w>",
    "Tri",
    "Buck",
    "takes</w>",
    "loss</w>",
    "camp",
    "ATOR.</w>",
    "advanta",
    "fres",
    "OP.</w>",
    "Burgun",
    "MARCELL",
    "Here,</w>",
    "test</w>",
    "Ero",
    "ORC",
    "note</w>",
    "ering</w>",
    "ORCESTER.</w>",
    "broo",
    "in;</w>",
    "lean</w>",
    "kingdom",
    "m;</w>",
    "mour",
    "march</w>",
    "ster.</w>",
    "Protector",
    "enti",
    "id.</w>",
    "mercy</w>",
    "Buckingha",
    "title</w>",
    "fru",
    "right,</w>",
    "Syra",
    "WORCESTER.</w>",
    "swif",
    "der,</w>",
    "cir",
    "dull</w>",
    "See</w>",
    "there.</w>",
    "ion</w>",
    "vy</w>",
    "Wherein</w>",
    "desp",
    "Suffolk,</w>",
    "flesh</w>",
    "Mark</w>",
    "spr",
    "boy,</w>",
    "breath</w>",
    "Britain.</w>",
    "suit</w>",
    "Ab",
    "deed,</w>",
    "gates</w>",
    "struck</w>",
    "sovereign</w>",
    "Bel",
    "bat",
    "law</w>",
    "madam.</w>",
    "side,</w>",
    "others</w>",
    "stood</w>",
    "duty</w>",
    "BUR",
    "After</w>",
    "amon",
    "compani",
    "age,</w>",
    "conclu",
    "INCH",
    "usur",
    "pect</w>",
    "is’t</w>",
    "dres",
    "thr",
    "sin</w>",
    "maid",
    "rows</w>",
    "preva",
    "occa",
    "men’s</w>",
    "state,</w>",
    "counterfe",
    "Into</w>",
    "weak</w>",
    "strike</w>",
    "true.</w>",
    "rob",
    "STER",
    "princely</w>",
    "Pistol",
    "stoo",
    "grave</w>",
    "MENAS.</w>",
    "receive</w>",
    "write</w>",
    "smil",
    "t’",
    "fully</w>",
    "voice</w>",
    "kno",
    "US,</w>",
    "perfor",
    "Forest</w>",
    "wee",
    "fault</w>",
    "sorrow</w>",
    "BI",
    "soo",
    "til</w>",
    "sight</w>",
    "Win",
    "so;</w>",
    "SAY",
    "pale</w>",
    "X.</w>",
    "Those</w>",
    "hence,</w>",
    "Unto</w>",
    "y._]</w>",
    "fam",
    "soldiers</w>",
    "cast</w>",
    "laugh",
    "Franc",
    "fast</w>",
    "acqua",
    "ours,</w>",
    "England,</w>",
    "Cardin",
    "ised</w>",
    "Dost</w>",
    "merry</w>",
    "quo",
    "whor",
    "remo",
    "Beau",
    "speaks</w>",
    "DENSTER",
    "money</w>",
    "soldier",
    "ice,</w>",
    "chea",
    "shows</w>",
    "content",
    "ited</w>",
    "sudden</w>",
    "LOR",
    "selves,</w>",
    "ve?</w>",
    "near",
    "consi",
    "GUIL",
    "fat</w>",
    "horse,</w>",
    "then",
    "held</w>",
    "people,</w>",
    "here’s</w>",
    "just</w>",
    "Wilt</w>",
    "Could</w>",
    "wit</w>",
    "pl",
    "greater</w>",
    "ed?</w>",
    "dful</w>",
    "weep</w>",
    "action</w>",
    "done.</w>",
    "GUILDENSTER",
    "ending</w>",
    "wherein</w>",
    "home.</w>",
    "Phoe",
    "ston",
    "titu",
    "ta’en</w>",
    "contin",
    "ignor",
    "KAT",
    "wife.</w>",
    "gover",
    "KATHAR",
    "us;</w>",
    "plague</w>",
    "speak,</w>",
    "still,</w>",
    "pie",
    "MARCELLUS.</w>",
    "od",
    "mit</w>",
    "revol",
    "LANCA",
    "lest</w>",
    "marry</w>",
    "Rome,</w>",
    "Oc",
    "Ere</w>",
    "ses,</w>",
    "Fortune</w>",
    "flatter",
    "bre",
    "fire,</w>",
    "Guil",
    "Martius,</w>",
    "tar",
    "pun",
    "Clifford,</w>",
    "deliver",
    "lips</w>",
    "bod",
    "neighb",
    "London</w>",
    "mb</w>",
    "ant,</w>",
    "me’s</w>",
    "irs</w>",
    "Plan",
    "tongue,</w>",
    "kings</w>",
    "farewell.</w>",
    "See",
    "Where’s</w>",
    "MORT",
    "past</w>",
    "PID",
    "ously</w>",
    "lawful</w>",
    "Ac",
    "sovereign,</w>",
    "off,</w>",
    "plain</w>",
    "Because</w>",
    "place.</w>",
    "Read",
    "KATHARINE.</w>",
    "SENI",
    "case</w>",
    "Ital",
    "lady,</w>",
    "[_Read",
    "’twere</w>",
    "then?</w>",
    "honourable</w>",
    "field.</w>",
    "Somerset,</w>",
    "Captain</w>",
    "ag",
    "Bertra",
    "Thi",
    "Planta",
    "seems</w>",
    "ARCH",
    "sure.</w>",
    "quickly</w>",
    "embra",
    "ARCHBI",
    "together,</w>",
    "call’d</w>",
    "LEPID",
    "Can",
    "Art</w>",
    "reig",
    "GUILDENSTERN.</w>",
    "Ra",
    "shouldst</w>",
    "join</w>",
    "ANGEL",
    "thee;</w>",
    "beg</w>",
    "sake,</w>",
    "ings.</w>",
    "appar",
    "Charles</w>",
    "tavi",
    "CARD",
    "alli",
    "queen,</w>",
    "spirits</w>",
    "ate.</w>",
    "mini",
    "SENIOR.</w>",
    "Chri",
    "part",
    "buri",
    "gentleman</w>",
    "reti",
    "k;</w>",
    "Gloucester</w>",
    "CARDIN",
    "assad",
    "witness</w>",
    "GOWER.</w>",
    "himself,</w>",
    "fore",
    "steal</w>",
    "former</w>",
    "denster",
    "rup",
    "offer</w>",
    "rest",
    "LANCAST",
    "AL.</w>",
    "Majesty</w>",
    "’s.</w>",
    "content</w>",
    "live,</w>",
    "lords</w>",
    "ways</w>",
    "cient</w>",
    "sent",
    "counten",
    "went</w>",
    "himself.</w>",
    "hence.</w>",
    "ground</w>",
    "thing,</w>",
    "in’s</w>",
    "open</w>",
    "ities</w>",
    "hither,</w>",
    "pped</w>",
    "Octavi",
    "forwar",
    "es’</w>",
    "LEPIDUS.</w>",
    "garm",
    "k!</w>",
    "them;</w>",
    "sake</w>",
    "instru",
    "limb",
    "wrong</w>",
    "bed,</w>",
    "SI",
    "dition</w>",
    "yours</w>",
    "Guildenster",
    "Orlean",
    "sed,</w>",
    "y:</w>",
    "messeng",
    "cowar",
    "living</w>",
    "I’</w>",
    "Tur",
    "phy",
    "Attendan",
    "for,</w>",
    "women</w>",
    "fair,</w>",
    "Hear</w>",
    "LANCASTER.</w>",
    "shame,</w>",
    "Whilst</w>",
    "which,</w>",
    "Count",
    "rest,</w>",
    "drum</w>",
    "knigh",
    "PHIN.</w>",
    "differ",
    "fortunes</w>",
    "That,</w>",
    "cking</w>",
    "Margar",
    "daughter,</w>",
    "word.</w>",
    "Hamlet</w>",
    "mad",
    "IG",
    "ja",
    "el.</w>",
    "ambiti",
    "calls</w>",
    "fif",
    "ner</w>",
    "dit",
    "parts</w>",
    "VII.</w>",
    "keeps</w>",
    "vide</w>",
    "DY.</w>",
    "ath",
    "Palace.</w>",
    "slaugh",
    "sooner</w>",
    "shake</w>",
    "DAU",
    "cept</w>",
    "physi",
    "lion</w>",
    "buil",
    "Pla",
    "rel</w>",
    "he’ll</w>",
    "DOLL.</w>",
    "deni",
    "forget</w>",
    "warlike</w>",
    "deman",
    "dieu",
    "then.</w>",
    "ty.</w>",
    "st?</w>",
    "fearful</w>",
    "bell",
    "gue,</w>",
    "ORLEAN",
    "lar</w>",
    "CARDINAL.</w>",
    "Des",
    "ANGELO.</w>",
    "DAUPHIN.</w>",
    "reason",
    "ans,</w>",
    "tran",
    "time.</w>",
    "piece</w>",
    "town</w>",
    "roo",
    "water</w>",
    "ender</w>",
    "MON",
    "matter.</w>",
    "ler</w>",
    "mind,</w>",
    "edi",
    "hear,</w>",
    "’st,</w>",
    "o’s</w>",
    "blessed</w>",
    "a-",
    "scorn</w>",
    "virtuous</w>",
    "ve;</w>",
    "re;</w>",
    "guard</w>",
    "bol",
    "us!</w>",
    "hy",
    "tains</w>",
    "attend</w>",
    "Without</w>",
    "crown.</w>",
    "wherefore</w>",
    "pheli",
    "SHOP.</w>",
    "griev",
    "them?</w>",
    "AS",
    "ush</w>",
    "While</w>",
    "ARCHBISHOP.</w>",
    "ir.</w>",
    "because</w>",
    "noise</w>",
    "FRENC",
    "hope,</w>",
    "equal</w>",
    "thee!</w>",
    "ORLEANS.</w>",
    "thre",
    "sle",
    "prince</w>",
    "Beli",
    "die,</w>",
    "knave</w>",
    "!—",
    "Si",
    "truly</w>",
    "lau",
    "tten</w>",
    "AGRI",
    "Opheli",
    "touch</w>",
    "igh</w>",
    "revenge</w>",
    "Winches",
    "Poloni",
    "n;</w>",
    "sted</w>",
    "rant",
    "understand</w>",
    "wounds</w>",
    "appear</w>",
    "lie,</w>",
    "ence",
    "TH</w>",
    "WATCH.</w>",
    "PP",
    "gir",
    "sof",
    "hide</w>",
    "bish",
    "WI",
    "Welcome,</w>",
    "Fare</w>",
    "troth,</w>",
    "Dav",
    "confess</w>",
    "ho!</w>",
    "GUN",
    "AGRIPP",
    "villain</w>",
    "awhil",
    "WILLIAM",
    "FRENCH</w>",
    "ny</w>",
    "but,</w>",
    "tee",
    "c.</w>",
    "dign",
    "myself.</w>",
    "Sic",
    "good.</w>",
    "El",
    "sau",
    "rose</w>",
    "hat",
    "He",
    "sion.</w>",
    "ure.</w>",
    "blu",
    "together.</w>",
    "pil",
    "won</w>",
    "sland",
    "VERN",
    "vers",
    "thing.</w>",
    "Coriolanus</w>",
    "in?</w>",
    "DUKE.</w>",
    "act</w>",
    "poin",
    "foolish</w>",
    "court,</w>",
    "Ox",
    "expres",
    "bran",
    "Marg",
    "shed</w>",
    "Fol",
    "remembran",
    "whence</w>",
    "hadst</w>",
    "procee",
    "same.</w>",
    "honours</w>",
    "dispat",
    "mine.</w>",
    "eful</w>",
    "LANT",
    "camp</w>",
    "Duk",
    "AGEN",
    "grown</w>",
    "ingly</w>",
    "zen</w>",
    "LANTAGEN",
    "Offic",
    "Dauphin</w>",
    "nar",
    "anything</w>",
    "impor",
    "walk</w>",
    "queen</w>",
    "Ephes",
    "mayst</w>",
    "love’s</w>"
  ],
  "merges": [
    [
      "t",
      "h"
    ],
    [
      "a",
      "n"
    ],
    [
      "o",
      "u"
    ],
    [
      "i",
      "n"
    ],
    [
      "e",
      "r"
    ],
    [
      "a",
      "r"
    ],
    [
      "o",
      "r"
    ],
    [
      "h",
      "a"
    ],
    [
      "th",
      "e</w>"
    ],
    [
      "e",
      "n"
    ],
    [
      "i",
      "s</w>"
    ],
    [
      "e",
      "s"
    ],
    [
      "an",
      "d</w>"
    ],
    [
      "e",
      "a"
    ],
    [
      "o",
      "n"
    ],
    [
      "l",
      "l</w>"
    ],
    [
      "e",
      "r</w>"
    ],
    [
      "i",
      "t"
    ],
    [
      "o",
      "f</w>"
    ],
    [
      "t",
      "o</w>"
    ],
    [
      "n",
      "o"
    ],
    [
      "e",
      ",</w>"
    ],
    [
      "o",
      "u</w>"
    ],
    [
      "s",
      "t"
    ],
    [
      "i",
      "n</w>"
    ],
    [
      "e",
      "l"
    ],
    [
      "h",
      "i"
    ],
    [
      "v",
      "e</w>"
    ],
    [
      "r",
      "o"
    ],
    [
      "th",
      "e"
    ],
    [
      "ou",
      "r</w>"
    ],
    [
      "m",
      "y</w>"
    ],
    [
      "o",
      "m"
    ],
    [
      "T",
      "h"
    ],
    [
      "e",
      "d</w>"
    ],
    [
      "o",
      "r</w>"
    ],
    [
      "in",
      "g</w>"
    ],
    [
      "a",
      "t</w>"
    ],
    [
      "e",
      ".</w>"
    ],
    [
      "i",
      "s"
    ],
    [
      "m",
      "a"
    ],
    [
      "l",
      "o"
    ],
    [
      "A",
      "n"
    ],
    [
      "r",
      "a"
    ],
    [
      "d",
      ",</w>"
    ],
    [
      "s",
      "t</w>"
    ],
    [
      "r",
      "e"
    ],
    [
      "y",
      "ou</w>"
    ],
    [
      "s",
      ",</w>"
    ],
    [
      "e",
      "s</w>"
    ],
    [
      "a",
      "l"
    ],
    [
      "e",
      "n</w>"
    ],
    [
      "o",
      "l"
    ],
    [
      "it",
      "h</w>"
    ],
    [
      "o",
      "n</w>"
    ],
    [
      "a",
      "t"
    ],
    [
      "w",
      "i"
    ],
    [
      "l",
      "i"
    ],
    [
      "An",
      "d</w>"
    ],
    [
      "’",
      "s</w>"
    ],
    [
      "no",
      "t</w>"
    ],
    [
      "th",
      "at</w>"
    ],
    [
      "r",
      "i"
    ],
    [
      "m",
      "e</w>"
    ],
    [
      "a",
      "s</w>"
    ],
    [
      "w",
      "ith</w>"
    ],
    [
      "y",
      ",</w>"
    ],
    [
      "g",
      "h"
    ],
    [
      "u",
      "t</w>"
    ],
    [
      "h",
      "is</w>"
    ],
    [
      "u",
      "r"
    ],
    [
      "u",
      "n"
    ],
    [
      "ha",
      "t</w>"
    ],
    [
      "i",
      "t</w>"
    ],
    [
      "c",
      "h</w>"
    ],
    [
      "k",
      "e</w>"
    ],
    [
      "h",
      "e</w>"
    ],
    [
      "t",
      "i"
    ],
    [
      "e",
      "e"
    ],
    [
      "l",
      "a"
    ],
    [
      "b",
      "e</w>"
    ],
    [
      "S",
      ".</w>"
    ],
    [
      "t",
      ",</w>"
    ],
    [
      "in",
      "g"
    ],
    [
      "y",
      "our</w>"
    ],
    [
      "E",
      "N"
    ],
    [
      "c",
      "e</w>"
    ],
    [
      "b",
      "e"
    ],
    [
      "t",
      "h</w>"
    ],
    [
      "er",
      "e</w>"
    ],
    [
      "o",
      "o"
    ],
    [
      "i",
      "r"
    ],
    [
      "f",
      "or"
    ],
    [
      "f",
      "or</w>"
    ],
    [
      "l",
      "e"
    ],
    [
      "c",
      "h"
    ],
    [
      "d",
      "i"
    ],
    [
      "ou",
      "l"
    ],
    [
      "ha",
      "ve</w>"
    ],
    [
      "s",
      "e</w>"
    ],
    [
      "s",
      ".</w>"
    ],
    [
      "f",
      "a"
    ],
    [
      "a",
      "n</w>"
    ],
    [
      "e",
      "ar"
    ],
    [
      "I",
      "N"
    ],
    [
      "c",
      "om"
    ],
    [
      "w",
      "h"
    ],
    [
      "o",
      "w"
    ],
    [
      "d",
      ".</w>"
    ],
    [
      "Th",
      "e</w>"
    ],
    [
      "A",
      "R"
    ],
    [
      "r",
      "ea"
    ],
    [
      "th",
      "is</w>"
    ],
    [
      "s",
      "e"
    ],
    [
      "oul",
      "d</w>"
    ],
    [
      "s",
      "a"
    ],
    [
      "th",
      "ou</w>"
    ],
    [
      "s",
      "ha"
    ],
    [
      "t",
      "er</w>"
    ],
    [
      "l",
      "e</w>"
    ],
    [
      "y",
      "ou"
    ],
    [
      "s",
      "h"
    ],
    [
      "th",
      "y</w>"
    ],
    [
      "s",
      "u"
    ],
    [
      "t",
      "a"
    ],
    [
      "A",
      "N"
    ],
    [
      "i",
      "l"
    ],
    [
      "W",
      "h"
    ],
    [
      "th",
      "er"
    ],
    [
      "wi",
      "ll</w>"
    ],
    [
      "w",
      "or"
    ],
    [
      "[",
      "_"
    ],
    [
      "s",
      "p"
    ],
    [
      "ar",
      "e</w>"
    ],
    [
      "E",
      "R"
    ],
    [
      "U",
      "S.</w>"
    ],
    [
      "i",
      "r</w>"
    ],
    [
      "r",
      "u"
    ],
    [
      "b",
      "ut</w>"
    ],
    [
      "en",
      "t"
    ],
    [
      "e",
      "v"
    ],
    [
      "a",
      "ll</w>"
    ],
    [
      "s",
      "i"
    ],
    [
      "’",
      "d</w>"
    ],
    [
      "th",
      "er</w>"
    ],
    [
      "_",
      "]</w>"
    ],
    [
      "hi",
      "m</w>"
    ],
    [
      "e",
      "t</w>"
    ],
    [
      ".",
      "_]</w>"
    ],
    [
      "c",
      "k"
    ],
    [
      "E",
      "n"
    ],
    [
      "l",
      "y</w>"
    ],
    [
      "y",
      ".</w>"
    ],
    [
      "O",
      "R"
    ],
    [
      "T",
      "o</w>"
    ],
    [
      "ou",
      "n"
    ],
    [
      "ou",
      "r"
    ],
    [
      "ea",
      "r</w>"
    ],
    [
      "d",
      "o"
    ],
    [
      "sha",
      "ll</w>"
    ],
    [
      "m",
      "or"
    ],
    [
      "t",
      "er"
    ],
    [
      "m",
      "o"
    ],
    [
      "c",
      "on"
    ],
    [
      "t",
      ".</w>"
    ],
    [
      "s",
      "o</w>"
    ],
    [
      "S",
      "T"
    ],
    [
      "i",
      "gh"
    ],
    [
      "u",
      "s</w>"
    ],
    [
      "O",
      "L"
    ],
    [
      "d",
      "s</w>"
    ],
    [
      "w",
      "e</w>"
    ],
    [
      "o",
      "w</w>"
    ],
    [
      "l",
      "or"
    ],
    [
      "d",
      "a"
    ],
    [
      "ro",
      "m</w>"
    ],
    [
      "w",
      "a"
    ],
    [
      "L",
      "E"
    ],
    [
      "m",
      "u"
    ],
    [
      "b",
      "y</w>"
    ],
    [
      "T",
      "hat</w>"
    ],
    [
      "r",
      "es"
    ],
    [
      "oo",
      "d</w>"
    ],
    [
      "d",
      "o</w>"
    ],
    [
      "m",
      "e"
    ],
    [
      "s",
      "el"
    ],
    [
      "v",
      "er"
    ],
    [
      "q",
      "u"
    ],
    [
      "c",
      "a"
    ],
    [
      "B",
      "ut</w>"
    ],
    [
      "hi",
      "m"
    ],
    [
      "d",
      "e"
    ],
    [
      "el",
      "l"
    ],
    [
      "E",
      ".</w>"
    ],
    [
      "m",
      "an"
    ],
    [
      "p",
      "o"
    ],
    [
      "f",
      "rom</w>"
    ],
    [
      "es",
      ",</w>"
    ],
    [
      "n",
      "o</w>"
    ],
    [
      "’",
      "ll</w>"
    ],
    [
      "r",
      "an"
    ],
    [
      "no",
      "w</w>"
    ],
    [
      "f",
      "f"
    ],
    [
      "g",
      "a"
    ],
    [
      "n",
      "e"
    ],
    [
      "b",
      "o"
    ],
    [
      "en",
      "t</w>"
    ],
    [
      "es",
      "t</w>"
    ],
    [
      "hi",
      "ch</w>"
    ],
    [
      "th",
      "ou"
    ],
    [
      "A",
      "L"
    ],
    [
      "w",
      "as</w>"
    ],
    [
      "t",
      "e"
    ],
    [
      "es",
      "s</w>"
    ],
    [
      "E",
      "x"
    ],
    [
      "l",
      "ea"
    ],
    [
      "En",
      "ter</w>"
    ],
    [
      "D",
      ".</w>"
    ],
    [
      "u",
      "p"
    ],
    [
      "h",
      "er</w>"
    ],
    [
      "c",
      "e"
    ],
    [
      "on",
      "e</w>"
    ],
    [
      "u",
      "s"
    ],
    [
      "m",
      "p"
    ],
    [
      "the",
      "ir</w>"
    ],
    [
      "d",
      "e</w>"
    ],
    [
      "Y",
      ".</w>"
    ],
    [
      "A",
      ".</w>"
    ],
    [
      "w",
      "hat</w>"
    ],
    [
      "p",
      "ar"
    ],
    [
      "lo",
      "o"
    ],
    [
      "g",
      "ood</w>"
    ],
    [
      "g",
      "e</w>"
    ],
    [
      "h",
      "ear"
    ],
    [
      "the",
      "e</w>"
    ],
    [
      "m",
      "b"
    ],
    [
      "g",
      "i"
    ],
    [
      "a",
      "m</w>"
    ],
    [
      "ER",
      ".</w>"
    ],
    [
      "c",
      "e,</w>"
    ],
    [
      "s",
      "o"
    ],
    [
      "w",
      "ould</w>"
    ],
    [
      "th",
      "in"
    ],
    [
      "p",
      "a"
    ],
    [
      "K",
      "IN"
    ],
    [
      "the",
      "y</w>"
    ],
    [
      "p",
      "ro"
    ],
    [
      "O",
      "N"
    ],
    [
      "t",
      "s</w>"
    ],
    [
      "h",
      "ea"
    ],
    [
      "I",
      "US.</w>"
    ],
    [
      "er",
      "e"
    ],
    [
      "m",
      "in"
    ],
    [
      "i",
      "f</w>"
    ],
    [
      "t",
      "o"
    ],
    [
      "c",
      "k</w>"
    ],
    [
      "[_",
      "Ex"
    ],
    [
      "ou",
      "s</w>"
    ],
    [
      "m",
      "e,</w>"
    ],
    [
      "f",
      "u"
    ],
    [
      "E",
      "L"
    ],
    [
      "T",
      ".</w>"
    ],
    [
      "g",
      "u"
    ],
    [
      "w",
      "ar"
    ],
    [
      "no",
      "w"
    ],
    [
      "w",
      "e"
    ],
    [
      "F",
      "or</w>"
    ],
    [
      "om",
      "e</w>"
    ],
    [
      "o",
      "p"
    ],
    [
      "li",
      "ke</w>"
    ],
    [
      "mor",
      "e</w>"
    ],
    [
      "er",
      ",</w>"
    ],
    [
      "s",
      "w"
    ],
    [
      "t",
      "ru"
    ],
    [
      "ol",
      "d</w>"
    ],
    [
      "s",
      "ir"
    ],
    [
      "I",
      "’ll</w>"
    ],
    [
      "v",
      "i"
    ],
    [
      "al",
      "l"
    ],
    [
      "g",
      "h</w>"
    ],
    [
      "d",
      "ea"
    ],
    [
      "W",
      "hat</w>"
    ],
    [
      "en",
      "d"
    ],
    [
      "M",
      "y</w>"
    ],
    [
      "H",
      "e</w>"
    ],
    [
      "ro",
      "w"
    ],
    [
      "on",
      ",</w>"
    ],
    [
      "ha",
      "th</w>"
    ],
    [
      "en",
      ",</w>"
    ],
    [
      "I",
      "C"
    ],
    [
      "I",
      "f</w>"
    ],
    [
      "th",
      ",</w>"
    ],
    [
      "Y",
      "ou</w>"
    ],
    [
      "n",
      "a"
    ],
    [
      "g",
      "o"
    ],
    [
      "c",
      "e.</w>"
    ],
    [
      "ing",
      ",</w>"
    ],
    [
      "ev",
      "er</w>"
    ],
    [
      "e",
      "c"
    ],
    [
      "th",
      "an</w>"
    ],
    [
      "A",
      "M"
    ],
    [
      "for",
      "e</w>"
    ],
    [
      "A",
      "s</w>"
    ],
    [
      "w",
      "hich</w>"
    ],
    [
      "b",
      "le</w>"
    ],
    [
      "gh",
      "t</w>"
    ],
    [
      "lo",
      "w"
    ],
    [
      "you",
      ",</w>"
    ],
    [
      "E",
      "S"
    ],
    [
      "ma",
      "ke</w>"
    ],
    [
      "i",
      "ll</w>"
    ],
    [
      "the",
      "m</w>"
    ],
    [
      "p",
      "er"
    ],
    [
      "sh",
      "ould</w>"
    ],
    [
      "w",
      "ere</w>"
    ],
    [
      "at",
      "i"
    ],
    [
      "d",
      "is"
    ],
    [
      "t",
      "y</w>"
    ],
    [
      "es",
      ".</w>"
    ],
    [
      "r",
      "y</w>"
    ],
    [
      "M",
      "a"
    ],
    [
      "er",
      ".</w>"
    ],
    [
      "P",
      "H"
    ],
    [
      "up",
      "on</w>"
    ],
    [
      "ou",
      "t</w>"
    ],
    [
      "di",
      "d</w>"
    ],
    [
      "an",
      "d"
    ],
    [
      "g",
      "e"
    ],
    [
      "F",
      "F"
    ],
    [
      "en",
      "d</w>"
    ],
    [
      "p",
      "la"
    ],
    [
      "h",
      "on"
    ],
    [
      "e",
      "x"
    ],
    [
      "o",
      "se</w>"
    ],
    [
      "f",
      "i"
    ],
    [
      "c",
      "i"
    ],
    [
      "l",
      "l"
    ],
    [
      "b",
      "l"
    ],
    [
      "ga",
      "in"
    ],
    [
      "b",
      "a"
    ],
    [
      "I",
      ".</w>"
    ],
    [
      "I",
      "R"
    ],
    [
      "e",
      "y"
    ],
    [
      "igh",
      "t</w>"
    ],
    [
      "le",
      "t</w>"
    ],
    [
      "ha",
      "d</w>"
    ],
    [
      "on",
      ".</w>"
    ],
    [
      "er",
      "s</w>"
    ],
    [
      "ur",
      "e</w>"
    ],
    [
      "C",
      "a"
    ],
    [
      "lo",
      "v"
    ],
    [
      "ow",
      "n</w>"
    ],
    [
      "ma",
      "n</w>"
    ],
    [
      "N",
      "o"
    ],
    [
      "H",
      "a"
    ],
    [
      "e",
      "t"
    ],
    [
      "p",
      "r"
    ],
    [
      "mu",
      "st</w>"
    ],
    [
      "wh",
      "en</w>"
    ],
    [
      "’",
      "t"
    ],
    [
      "AN",
      "T"
    ],
    [
      "g",
      "ra"
    ],
    [
      "ma",
      "y</w>"
    ],
    [
      "es",
      "e</w>"
    ],
    [
      "k",
      "now</w>"
    ],
    [
      "m",
      "i"
    ],
    [
      "mo",
      "st</w>"
    ],
    [
      "su",
      "ch</w>"
    ],
    [
      "a",
      "c"
    ],
    [
      "p",
      "p"
    ],
    [
      "com",
      "e</w>"
    ],
    [
      "c",
      "an"
    ],
    [
      "C",
      "H"
    ],
    [
      "i",
      "d</w>"
    ],
    [
      "R",
      "O"
    ],
    [
      "g",
      "rea"
    ],
    [
      "lo",
      "ve</w>"
    ],
    [
      "m",
      "ar"
    ],
    [
      "t",
      "on"
    ],
    [
      "G",
      "o"
    ],
    [
      "K",
      ".</w>"
    ],
    [
      "KIN",
      "G</w>"
    ],
    [
      "sp",
      "ea"
    ],
    [
      "A",
      "T"
    ],
    [
      "s",
      "he</w>"
    ],
    [
      "O",
      ".</w>"
    ],
    [
      "st",
      "a"
    ],
    [
      "b",
      "ro"
    ],
    [
      "is",
      "h"
    ],
    [
      "m",
      "e.</w>"
    ],
    [
      "li",
      "f"
    ],
    [
      "w",
      "ell"
    ],
    [
      "sel",
      "f</w>"
    ],
    [
      "EN",
      ".</w>"
    ],
    [
      "m",
      ",</w>"
    ],
    [
      "h",
      "er"
    ],
    [
      "d",
      "es"
    ],
    [
      "e",
      "un"
    ],
    [
      "th",
      "’</w>"
    ],
    [
      "u",
      "t"
    ],
    [
      "a",
      "l</w>"
    ],
    [
      "k",
      ",</w>"
    ],
    [
      "O",
      "F</w>"
    ],
    [
      "p",
      "ra"
    ],
    [
      "d",
      "y</w>"
    ],
    [
      "in",
      "d</w>"
    ],
    [
      "I",
      "n</w>"
    ],
    [
      "Th",
      "is</w>"
    ],
    [
      "e",
      "’s</w>"
    ],
    [
      "v",
      "es</w>"
    ],
    [
      "f",
      "ri"
    ],
    [
      "S",
      "o</w>"
    ],
    [
      "is",
      "h</w>"
    ],
    [
      "ing",
      ".</w>"
    ],
    [
      "L",
      "O"
    ],
    [
      "se",
      "e</w>"
    ],
    [
      "L",
      "or"
    ],
    [
      "es",
      "t"
    ],
    [
      "S",
      "C"
    ],
    [
      "g",
      "l"
    ],
    [
      "d",
      "u"
    ],
    [
      "en",
      "ce</w>"
    ],
    [
      "ta",
      "ke</w>"
    ],
    [
      "[_Ex",
      "eun"
    ],
    [
      "s",
      "c"
    ],
    [
      "es",
      "s"
    ],
    [
      "gi",
      "ve</w>"
    ],
    [
      "I",
      "t</w>"
    ],
    [
      "t",
      "ed</w>"
    ],
    [
      "W",
      "ith</w>"
    ],
    [
      "c",
      "an</w>"
    ],
    [
      "th",
      "ese</w>"
    ],
    [
      "O",
      "f</w>"
    ],
    [
      "H",
      "ow</w>"
    ],
    [
      "c",
      "oun"
    ],
    [
      "H",
      "AM"
    ],
    [
      "b",
      "loo"
    ],
    [
      "a",
      "gain"
    ],
    [
      "’",
      "st</w>"
    ],
    [
      "M",
      "ar"
    ],
    [
      "C",
      "om"
    ],
    [
      "it",
      ".</w>"
    ],
    [
      "ST",
      "A"
    ],
    [
      "be",
      "t"
    ],
    [
      "o",
      "ff"
    ],
    [
      "s",
      "ome</w>"
    ],
    [
      "e",
      ";</w>"
    ],
    [
      "lor",
      "d,</w>"
    ],
    [
      "on",
      "g"
    ],
    [
      "the",
      "n</w>"
    ],
    [
      "d",
      ";</w>"
    ],
    [
      "s",
      "er"
    ],
    [
      "we",
      "ll</w>"
    ],
    [
      "h",
      "ow</w>"
    ],
    [
      "a",
      "s"
    ],
    [
      "a",
      "b"
    ],
    [
      "R",
      "Y.</w>"
    ],
    [
      "an",
      "t</w>"
    ],
    [
      "th",
      "ing</w>"
    ],
    [
      "h",
      "ar"
    ],
    [
      "o",
      "f"
    ],
    [
      "ee",
      "t</w>"
    ],
    [
      "e",
      "?</w>"
    ],
    [
      "n",
      ",</w>"
    ],
    [
      "SC",
      "EN"
    ],
    [
      "fu",
      "l</w>"
    ],
    [
      "s",
      ";</w>"
    ],
    [
      "at",
      "e</w>"
    ],
    [
      "HAM",
      "LE"
    ],
    [
      "ar",
      "t</w>"
    ],
    [
      "sir",
      ",</w>"
    ],
    [
      "S",
      "T</w>"
    ],
    [
      "S",
      "c"
    ],
    [
      "sa",
      "y</w>"
    ],
    [
      "it",
      ",</w>"
    ],
    [
      "ther",
      ",</w>"
    ],
    [
      "F",
      "IR"
    ],
    [
      "Th",
      "ou</w>"
    ],
    [
      "FIR",
      "ST</w>"
    ],
    [
      "c",
      "u"
    ],
    [
      "t",
      "w"
    ],
    [
      "HAMLE",
      "T.</w>"
    ],
    [
      "th",
      "ere</w>"
    ],
    [
      "a",
      "d"
    ],
    [
      "il",
      "l"
    ],
    [
      "SCEN",
      "E</w>"
    ],
    [
      "n",
      "ever</w>"
    ],
    [
      "K",
      "ing</w>"
    ],
    [
      "y",
      "et</w>"
    ],
    [
      "an",
      "d,</w>"
    ],
    [
      "v",
      "en"
    ],
    [
      "sel",
      "f"
    ],
    [
      "k",
      "now"
    ],
    [
      "r",
      "ou"
    ],
    [
      "m",
      ".</w>"
    ],
    [
      "d",
      "s,</w>"
    ],
    [
      "m",
      "on"
    ],
    [
      "H",
      "EN"
    ],
    [
      "b",
      "rea"
    ],
    [
      "it",
      "i"
    ],
    [
      "STA",
      "FF"
    ],
    [
      "Wh",
      "en</w>"
    ],
    [
      "W",
      "AR"
    ],
    [
      "do",
      "th</w>"
    ],
    [
      "D",
      "u"
    ],
    [
      "t",
      "’s</w>"
    ],
    [
      "ti",
      "me</w>"
    ],
    [
      "el",
      "i"
    ],
    [
      "e",
      "y</w>"
    ],
    [
      "ch",
      "ar"
    ],
    [
      "A",
      "C"
    ],
    [
      "L",
      "et</w>"
    ],
    [
      "B",
      "y</w>"
    ],
    [
      "min",
      "e</w>"
    ],
    [
      "W",
      "e</w>"
    ],
    [
      "d",
      "er"
    ],
    [
      "F",
      "AL"
    ],
    [
      "r",
      "en"
    ],
    [
      "FAL",
      "STAFF"
    ],
    [
      "FALSTAFF",
      ".</w>"
    ],
    [
      "g",
      "ent"
    ],
    [
      "h",
      "ere</w>"
    ],
    [
      "W",
      "hich</w>"
    ],
    [
      "F",
      "ran"
    ],
    [
      "t",
      "ur"
    ],
    [
      "v",
      "en</w>"
    ],
    [
      "f",
      "ir"
    ],
    [
      "s",
      "hi"
    ],
    [
      "u",
      "p</w>"
    ],
    [
      "ver",
      "y</w>"
    ],
    [
      "k",
      "s</w>"
    ],
    [
      "i",
      "g"
    ],
    [
      "HEN",
      "RY.</w>"
    ],
    [
      "ee",
      "p</w>"
    ],
    [
      "in",
      ",</w>"
    ],
    [
      "d",
      "er</w>"
    ],
    [
      "O",
      ",</w>"
    ],
    [
      "s",
      "ee"
    ],
    [
      "him",
      ".</w>"
    ],
    [
      "u",
      "s,</w>"
    ],
    [
      "te",
      "ll</w>"
    ],
    [
      "En",
      "gl"
    ],
    [
      "in",
      "ce</w>"
    ],
    [
      "m",
      "is"
    ],
    [
      "p",
      "lea"
    ],
    [
      "thin",
      "k</w>"
    ],
    [
      "s",
      "e,</w>"
    ],
    [
      "p",
      "res"
    ],
    [
      "’",
      "T"
    ],
    [
      "c",
      "o"
    ],
    [
      "f",
      "l"
    ],
    [
      "d",
      "?</w>"
    ],
    [
      "a",
      "wa"
    ],
    [
      "grea",
      "t</w>"
    ],
    [
      "an",
      "g"
    ],
    [
      "the",
      "e,</w>"
    ],
    [
      "U",
      "C"
    ],
    [
      "o",
      "ther</w>"
    ],
    [
      "p",
      "h"
    ],
    [
      "i",
      "c"
    ],
    [
      "ti",
      "on</w>"
    ],
    [
      "I",
      "s</w>"
    ],
    [
      "g",
      "o</w>"
    ],
    [
      "KIN",
      "G"
    ],
    [
      "s",
      "wor"
    ],
    [
      "st",
      ",</w>"
    ],
    [
      "B",
      "e"
    ],
    [
      "oun",
      "d</w>"
    ],
    [
      "him",
      ",</w>"
    ],
    [
      "wor",
      "l"
    ],
    [
      "f",
      "e"
    ],
    [
      "t",
      "ra"
    ],
    [
      "mu",
      "ch</w>"
    ],
    [
      "you",
      ".</w>"
    ],
    [
      "p",
      "ri"
    ],
    [
      "k",
      "ing</w>"
    ],
    [
      "s",
      "ol"
    ],
    [
      "b",
      "ea"
    ],
    [
      "ma",
      "de</w>"
    ],
    [
      "lo",
      "w</w>"
    ],
    [
      "p",
      "ea"
    ],
    [
      "ck",
      ",</w>"
    ],
    [
      "th",
      ".</w>"
    ],
    [
      "I",
      "I.</w>"
    ],
    [
      "m",
      "en</w>"
    ],
    [
      "p",
      "re"
    ],
    [
      "en",
      "e</w>"
    ],
    [
      "th",
      "at"
    ],
    [
      "Q",
      "U"
    ],
    [
      "it",
      "y</w>"
    ],
    [
      "c",
      "our"
    ],
    [
      "b",
      "u"
    ],
    [
      "O",
      "r</w>"
    ],
    [
      "Lor",
      "d</w>"
    ],
    [
      "n",
      "ess</w>"
    ],
    [
      "QU",
      "E"
    ],
    [
      "b",
      "ra"
    ],
    [
      "i",
      "d"
    ],
    [
      "t",
      "un"
    ],
    [
      "hi",
      "l"
    ],
    [
      "’t",
      "is</w>"
    ],
    [
      "can",
      "not</w>"
    ],
    [
      "f",
      "o"
    ],
    [
      "an",
      "y</w>"
    ],
    [
      "m",
      "en"
    ],
    [
      "Y",
      "our</w>"
    ],
    [
      "KING",
      ".</w>"
    ],
    [
      "m",
      "er"
    ],
    [
      "t",
      "._]</w>"
    ],
    [
      "v",
      "e,</w>"
    ],
    [
      "to",
      "o</w>"
    ],
    [
      "I",
      "A.</w>"
    ],
    [
      "ar",
      "d"
    ],
    [
      "w",
      "om"
    ],
    [
      "on",
      "g</w>"
    ],
    [
      "Sc",
      "ene</w>"
    ],
    [
      "s",
      "on</w>"
    ],
    [
      "r",
      "ing</w>"
    ],
    [
      "ing",
      "s</w>"
    ],
    [
      "u",
      "se</w>"
    ],
    [
      "ee",
      "p"
    ],
    [
      "an",
      "ce</w>"
    ],
    [
      "H",
      "en"
    ],
    [
      "T",
      "ha"
    ],
    [
      "y",
      ";</w>"
    ],
    [
      "c",
      "ha"
    ],
    [
      "p",
      "e"
    ],
    [
      "L",
      "A"
    ],
    [
      "S",
      "E"
    ],
    [
      "I",
      "AN"
    ],
    [
      "ou",
      "s"
    ],
    [
      "h",
      "e"
    ],
    [
      "OR",
      "D.</w>"
    ],
    [
      "S",
      "ha"
    ],
    [
      "be",
      "en</w>"
    ],
    [
      "o",
      "m</w>"
    ],
    [
      "l",
      "t</w>"
    ],
    [
      "spea",
      "k</w>"
    ],
    [
      "C",
      "E.</w>"
    ],
    [
      "h",
      "o"
    ],
    [
      "H",
      "is</w>"
    ],
    [
      "Du",
      "ke</w>"
    ],
    [
      "r",
      "y,</w>"
    ],
    [
      "y",
      "s</w>"
    ],
    [
      "j",
      "u"
    ],
    [
      "wh",
      "ere</w>"
    ],
    [
      "f",
      "ol"
    ],
    [
      "th",
      "is"
    ],
    [
      "W",
      "ha"
    ],
    [
      "t",
      "oo"
    ],
    [
      "l",
      "ess</w>"
    ],
    [
      "P",
      "R"
    ],
    [
      "a",
      "y,</w>"
    ],
    [
      "t",
      "u"
    ],
    [
      "in",
      "e</w>"
    ],
    [
      "n",
      ".</w>"
    ],
    [
      "W",
      "ar"
    ],
    [
      "Com",
      "e,</w>"
    ],
    [
      "a",
      "f"
    ],
    [
      "C",
      "ON"
    ],
    [
      "Wh",
      "y,</w>"
    ],
    [
      "ev",
      "er"
    ],
    [
      "O",
      "U"
    ],
    [
      "RO",
      "S"
    ],
    [
      "Th",
      "en</w>"
    ],
    [
      "E",
      "ST"
    ],
    [
      "e",
      "d,</w>"
    ],
    [
      "h",
      "ear</w>"
    ],
    [
      "is",
      "e</w>"
    ],
    [
      "u",
      "s.</w>"
    ],
    [
      "PR",
      "IN"
    ],
    [
      "’T",
      "is</w>"
    ],
    [
      "T",
      "H"
    ],
    [
      "on",
      "s</w>"
    ],
    [
      "po",
      "s"
    ],
    [
      "ma",
      "st"
    ],
    [
      "u",
      "gh"
    ],
    [
      "c",
      "ould</w>"
    ],
    [
      "you",
      "r"
    ],
    [
      "k",
      "es</w>"
    ],
    [
      "J",
      "o"
    ],
    [
      "O",
      "P"
    ],
    [
      "s",
      "ur"
    ],
    [
      "c",
      "row"
    ],
    [
      "ar",
      "m"
    ],
    [
      "r",
      "e</w>"
    ],
    [
      "p",
      "ur"
    ],
    [
      "on",
      "e,</w>"
    ],
    [
      "j",
      "o"
    ],
    [
      "Th",
      "ey</w>"
    ],
    [
      "g",
      "e,</w>"
    ],
    [
      "I",
      "M"
    ],
    [
      "Go",
      "d</w>"
    ],
    [
      "h",
      "or"
    ],
    [
      "l",
      "u"
    ],
    [
      "c",
      "es"
    ],
    [
      "be",
      "ing</w>"
    ],
    [
      "M",
      "AR"
    ],
    [
      "t",
      "ri"
    ],
    [
      "w",
      "r"
    ],
    [
      "OL",
      "U"
    ],
    [
      "War",
      "wi"
    ],
    [
      "U",
      "S"
    ],
    [
      "t",
      ";</w>"
    ],
    [
      "it",
      "t"
    ],
    [
      "ter",
      ",</w>"
    ],
    [
      "b",
      "ur"
    ],
    [
      "u",
      "r</w>"
    ],
    [
      "tw",
      "o</w>"
    ],
    [
      "i",
      "ve</w>"
    ],
    [
      "L",
      "AN"
    ],
    [
      "no",
      "ble</w>"
    ],
    [
      "s",
      "?</w>"
    ],
    [
      "er",
      "s,</w>"
    ],
    [
      "Y",
      "or"
    ],
    [
      "no",
      "r</w>"
    ],
    [
      "wi",
      "ll"
    ],
    [
      "l",
      "ou"
    ],
    [
      "E",
      "D"
    ],
    [
      "in",
      "to</w>"
    ],
    [
      "Th",
      "ere"
    ],
    [
      "IC",
      "K.</w>"
    ],
    [
      "se",
      "t</w>"
    ],
    [
      "ma",
      "t"
    ],
    [
      "ther",
      "e"
    ],
    [
      "m",
      "ent</w>"
    ],
    [
      "wi",
      "f"
    ],
    [
      "[_Exeun",
      "t._]</w>"
    ],
    [
      "y",
      "’s</w>"
    ],
    [
      "in",
      ".</w>"
    ],
    [
      "ther",
      ".</w>"
    ],
    [
      "PRIN",
      "CE.</w>"
    ],
    [
      "el",
      "y</w>"
    ],
    [
      "A",
      "y,</w>"
    ],
    [
      "R",
      "om"
    ],
    [
      "n",
      "igh"
    ],
    [
      "o",
      "s"
    ],
    [
      "B",
      "AR"
    ],
    [
      "C",
      "A"
    ],
    [
      "Ca",
      "es"
    ],
    [
      "t",
      "or"
    ],
    [
      "’",
      "er</w>"
    ],
    [
      "’",
      "t</w>"
    ],
    [
      "I",
      "L"
    ],
    [
      "p",
      "i"
    ],
    [
      "man",
      "y</w>"
    ],
    [
      "Wh",
      "ere</w>"
    ],
    [
      "c",
      "or"
    ],
    [
      "U",
      "n"
    ],
    [
      "i",
      "l</w>"
    ],
    [
      "v",
      "ed</w>"
    ],
    [
      "k",
      ".</w>"
    ],
    [
      "’",
      "d,</w>"
    ],
    [
      "d",
      "st</w>"
    ],
    [
      "in",
      "d"
    ],
    [
      "be",
      "fore</w>"
    ],
    [
      "c",
      "ar"
    ],
    [
      "n",
      "at"
    ],
    [
      "com",
      "p"
    ],
    [
      "it",
      "e</w>"
    ],
    [
      "ch",
      ",</w>"
    ],
    [
      "da",
      "y</w>"
    ],
    [
      "p",
      "ow"
    ],
    [
      "lea",
      "ve</w>"
    ],
    [
      "AT",
      "R"
    ],
    [
      "h",
      "ol"
    ],
    [
      "v",
      "e"
    ],
    [
      "hear",
      "t</w>"
    ],
    [
      "I",
      "D"
    ],
    [
      "Q",
      "u"
    ],
    [
      "F",
      "or"
    ],
    [
      "ro",
      "w</w>"
    ],
    [
      "Wh",
      "o</w>"
    ],
    [
      "No",
      ",</w>"
    ],
    [
      "ANT",
      "ON"
    ],
    [
      "LE",
      "OP"
    ],
    [
      "po",
      "or</w>"
    ],
    [
      "N",
      "ay,</w>"
    ],
    [
      "C",
      "LEOP"
    ],
    [
      "H",
      "O"
    ],
    [
      "CLEOP",
      "ATR"
    ],
    [
      "ha",
      "st</w>"
    ],
    [
      "Y",
      "R"
    ],
    [
      "y",
      "?</w>"
    ],
    [
      "ell",
      ",</w>"
    ],
    [
      "d",
      "r"
    ],
    [
      "YR",
      "AC"
    ],
    [
      "S",
      "YRAC"
    ],
    [
      "CLEOPATR",
      "A.</w>"
    ],
    [
      "M",
      "EN"
    ],
    [
      "m",
      "ent"
    ],
    [
      "in",
      "c"
    ],
    [
      "sw",
      "eet</w>"
    ],
    [
      "ANTON",
      "Y.</w>"
    ],
    [
      "B",
      "e</w>"
    ],
    [
      "bet",
      "ter</w>"
    ],
    [
      "CON",
      "D</w>"
    ],
    [
      "_",
      "."
    ],
    [
      "SE",
      "COND</w>"
    ],
    [
      "l",
      "an"
    ],
    [
      "US",
      "E.</w>"
    ],
    [
      "ROS",
      "AL"
    ],
    [
      "ROSAL",
      "IN"
    ],
    [
      "t",
      "ing</w>"
    ],
    [
      "SYRAC",
      "USE.</w>"
    ],
    [
      "g",
      "ri"
    ],
    [
      "u",
      "l"
    ],
    [
      "thou",
      "gh</w>"
    ],
    [
      "com",
      "es</w>"
    ],
    [
      "s",
      "!</w>"
    ],
    [
      "ROSALIN",
      "D.</w>"
    ],
    [
      "no",
      "t,</w>"
    ],
    [
      "ES",
      "S.</w>"
    ],
    [
      "S",
      "a"
    ],
    [
      "at",
      "t"
    ],
    [
      "s",
      "ure</w>"
    ],
    [
      "_.",
      "]</w>"
    ],
    [
      "An",
      "ton"
    ],
    [
      "W",
      ".</w>"
    ],
    [
      "y",
      "!</w>"
    ],
    [
      "P",
      "O"
    ],
    [
      "me",
      "an"
    ],
    [
      "b",
      "ear</w>"
    ],
    [
      "EST",
      "ER.</w>"
    ],
    [
      "an",
      "sw"
    ],
    [
      "S",
      "u"
    ],
    [
      "l",
      "ar"
    ],
    [
      "v",
      "o"
    ],
    [
      "th",
      "ose</w>"
    ],
    [
      "f",
      "t</w>"
    ],
    [
      "un",
      "to</w>"
    ],
    [
      "w",
      "hi"
    ],
    [
      "o",
      ",</w>"
    ],
    [
      "you",
      "n"
    ],
    [
      "h",
      "el"
    ],
    [
      "LE",
      "S.</w>"
    ],
    [
      "par",
      "t</w>"
    ],
    [
      "t",
      "en</w>"
    ],
    [
      "fa",
      "ir</w>"
    ],
    [
      "C",
      "OR"
    ],
    [
      "ton",
      "gu"
    ],
    [
      "b",
      "or"
    ],
    [
      "now",
      ",</w>"
    ],
    [
      "p",
      "or"
    ],
    [
      "it",
      "._]</w>"
    ],
    [
      "sol",
      "di"
    ],
    [
      "t",
      "?</w>"
    ],
    [
      "re",
      "e</w>"
    ],
    [
      "f",
      "el"
    ],
    [
      "again",
      "st</w>"
    ],
    [
      "ear",
      "s</w>"
    ],
    [
      "loo",
      "k</w>"
    ],
    [
      "C",
      "LO"
    ],
    [
      "s",
      "ea"
    ],
    [
      "h",
      "op"
    ],
    [
      "h",
      "an"
    ],
    [
      "ar",
      "d</w>"
    ],
    [
      "en",
      "e"
    ],
    [
      "en",
      "ce,</w>"
    ],
    [
      "p",
      "al"
    ],
    [
      "[_Ex",
      "it._]</w>"
    ],
    [
      "ow",
      ",</w>"
    ],
    [
      "ne",
      "w"
    ],
    [
      "pa",
      "s"
    ],
    [
      "wh",
      "o</w>"
    ],
    [
      "G",
      "ood</w>"
    ],
    [
      "es",
      "s,</w>"
    ],
    [
      "m",
      "ight</w>"
    ],
    [
      "the",
      "e.</w>"
    ],
    [
      "No",
      "t</w>"
    ],
    [
      "c",
      "ur"
    ],
    [
      "S",
      "ir</w>"
    ],
    [
      "fa",
      "ther</w>"
    ],
    [
      "ar",
      "e"
    ],
    [
      "WAR",
      "W"
    ],
    [
      "v",
      "er</w>"
    ],
    [
      "bo",
      "th</w>"
    ],
    [
      "v",
      "ing</w>"
    ],
    [
      "W",
      "ill</w>"
    ],
    [
      "ti",
      "m"
    ],
    [
      "h",
      "u"
    ],
    [
      "t",
      "s,</w>"
    ],
    [
      "fri",
      "end"
    ],
    [
      "Jo",
      "h"
    ],
    [
      "f",
      "ind</w>"
    ],
    [
      "WARW",
      "ICK.</w>"
    ],
    [
      "m",
      "y"
    ],
    [
      "IN",
      "IUS.</w>"
    ],
    [
      "Sha",
      "ll</w>"
    ],
    [
      "PH",
      "OLU"
    ],
    [
      "PHOLU",
      "S</w>"
    ],
    [
      "w",
      "ea"
    ],
    [
      "con",
      "t"
    ],
    [
      "ANT",
      "I"
    ],
    [
      "h",
      "old</w>"
    ],
    [
      "ANTI",
      "PHOLUS</w>"
    ],
    [
      "s",
      "on"
    ],
    [
      "e",
      "!</w>"
    ],
    [
      "a",
      "p"
    ],
    [
      "ou",
      "gh</w>"
    ],
    [
      "RO",
      "M"
    ],
    [
      "S",
      "EN"
    ],
    [
      "N",
      "ow</w>"
    ],
    [
      "well",
      ",</w>"
    ],
    [
      "I",
      "O.</w>"
    ],
    [
      "Tha",
      "n</w>"
    ],
    [
      "Wh",
      "y</w>"
    ],
    [
      "d",
      "ra"
    ],
    [
      "O",
      "ur</w>"
    ],
    [
      "com",
      "m"
    ],
    [
      "d",
      "ow"
    ],
    [
      "t",
      "al"
    ],
    [
      "b",
      "es"
    ],
    [
      "s",
      "la"
    ],
    [
      "d",
      "en"
    ],
    [
      "ca",
      "p"
    ],
    [
      "lor",
      "d.</w>"
    ],
    [
      "v",
      "al"
    ],
    [
      "ti",
      "ll</w>"
    ],
    [
      "hon",
      "our</w>"
    ],
    [
      "d",
      "ing</w>"
    ],
    [
      "wh",
      "ose</w>"
    ],
    [
      "on",
      "e.</w>"
    ],
    [
      "ta",
      "in</w>"
    ],
    [
      "tru",
      "e</w>"
    ],
    [
      "s",
      "l"
    ],
    [
      "k",
      "ing"
    ],
    [
      "Th",
      "y</w>"
    ],
    [
      "ir",
      ",</w>"
    ],
    [
      "t",
      "e</w>"
    ],
    [
      "B",
      "EL"
    ],
    [
      "st",
      "and</w>"
    ],
    [
      "N",
      "o</w>"
    ],
    [
      "v",
      "an"
    ],
    [
      "in",
      "s</w>"
    ],
    [
      "l",
      "y,</w>"
    ],
    [
      "IAN",
      "A.</w>"
    ],
    [
      "lif",
      "e</w>"
    ],
    [
      "ever",
      "y</w>"
    ],
    [
      "M",
      "or"
    ],
    [
      "s",
      "or"
    ],
    [
      "qu",
      "i"
    ],
    [
      "gent",
      "le"
    ],
    [
      "[_Exeun",
      "t</w>"
    ],
    [
      "v",
      "ir"
    ],
    [
      "L",
      "a"
    ],
    [
      "ati",
      "on</w>"
    ],
    [
      "for",
      "tun"
    ],
    [
      "b",
      "an"
    ],
    [
      "ER",
      "T"
    ],
    [
      "th",
      "an"
    ],
    [
      "L",
      "ORD.</w>"
    ],
    [
      "D",
      "o</w>"
    ],
    [
      "I",
      "O</w>"
    ],
    [
      "k",
      "e,</w>"
    ],
    [
      "Ha",
      "ve</w>"
    ],
    [
      "g",
      "e.</w>"
    ],
    [
      "c",
      "all</w>"
    ],
    [
      "EL",
      "IA.</w>"
    ],
    [
      "i",
      "mp"
    ],
    [
      "c",
      "lo"
    ],
    [
      "wi",
      "th"
    ],
    [
      "m",
      "s</w>"
    ],
    [
      "MEN",
      "EN"
    ],
    [
      "AN",
      ".</w>"
    ],
    [
      "g",
      "oo"
    ],
    [
      "ther",
      "’s</w>"
    ],
    [
      "l",
      "itt"
    ],
    [
      "s",
      "om"
    ],
    [
      "ec",
      "t</w>"
    ],
    [
      "d",
      "ed</w>"
    ],
    [
      "ROM",
      "IO</w>"
    ],
    [
      "coun",
      "t"
    ],
    [
      "n",
      "ed</w>"
    ],
    [
      "e",
      "d.</w>"
    ],
    [
      "D",
      "ROMIO</w>"
    ],
    [
      "E",
      "T.</w>"
    ],
    [
      "MENEN",
      "IUS.</w>"
    ],
    [
      "in",
      "t</w>"
    ],
    [
      "na",
      "me</w>"
    ],
    [
      "F",
      "ren"
    ],
    [
      "be",
      "g"
    ],
    [
      "l",
      "es</w>"
    ],
    [
      "g",
      "en"
    ],
    [
      "well",
      ".</w>"
    ],
    [
      "G",
      "U"
    ],
    [
      "h",
      "ou"
    ],
    [
      "hon",
      "our"
    ],
    [
      "it",
      "s</w>"
    ],
    [
      "v",
      "e.</w>"
    ],
    [
      "P",
      "I"
    ],
    [
      "W",
      "ell,</w>"
    ],
    [
      "Qu",
      "e"
    ],
    [
      "wa",
      "y</w>"
    ],
    [
      "t",
      "rea"
    ],
    [
      "st",
      "ra"
    ],
    [
      "d",
      "!</w>"
    ],
    [
      "H",
      "ere</w>"
    ],
    [
      "th",
      "us</w>"
    ],
    [
      "[_",
      "A"
    ],
    [
      "Y",
      "et</w>"
    ],
    [
      "E",
      "d"
    ],
    [
      "war",
      "d</w>"
    ],
    [
      "worl",
      "d</w>"
    ],
    [
      "l",
      "e,</w>"
    ],
    [
      "p",
      "ut</w>"
    ],
    [
      "n",
      "i"
    ],
    [
      "at",
      "h</w>"
    ],
    [
      "v",
      "il"
    ],
    [
      "on",
      "d"
    ],
    [
      "f",
      "al"
    ],
    [
      "thou",
      "gh"
    ],
    [
      "s",
      "en"
    ],
    [
      "a",
      "pp"
    ],
    [
      "m",
      "ea"
    ],
    [
      "pra",
      "y</w>"
    ],
    [
      "l",
      "y.</w>"
    ],
    [
      "b",
      "ar"
    ],
    [
      "c",
      "all"
    ],
    [
      "c",
      "ol"
    ],
    [
      "V",
      ".</w>"
    ],
    [
      "man",
      ",</w>"
    ],
    [
      "An",
      "d,</w>"
    ],
    [
      "Th",
      "ere</w>"
    ],
    [
      "P",
      "AR"
    ],
    [
      "k",
      "eep</w>"
    ],
    [
      "d",
      "’s</w>"
    ],
    [
      "D",
      "O.</w>"
    ],
    [
      "st",
      "r"
    ],
    [
      "B",
      "u"
    ],
    [
      "so",
      ",</w>"
    ],
    [
      "su",
      "b"
    ],
    [
      "st",
      "er</w>"
    ],
    [
      "O",
      "M"
    ],
    [
      "d",
      "ev"
    ],
    [
      "com",
      "e,</w>"
    ],
    [
      "I",
      "OL"
    ],
    [
      "COR",
      "IOL"
    ],
    [
      "be",
      "ar"
    ],
    [
      "CORIOL",
      "AN"
    ],
    [
      "WAR",
      "D.</w>"
    ],
    [
      "f",
      "ear</w>"
    ],
    [
      "st",
      "res"
    ],
    [
      "ey",
      "es</w>"
    ],
    [
      "H",
      "AR"
    ],
    [
      "the",
      "m"
    ],
    [
      "f",
      "ear"
    ],
    [
      "bloo",
      "d</w>"
    ],
    [
      "en",
      "g"
    ],
    [
      "e",
      "f"
    ],
    [
      "e",
      "p"
    ],
    [
      "e",
      "ig"
    ],
    [
      "U",
      "R"
    ],
    [
      "in",
      "t"
    ],
    [
      "o",
      "’</w>"
    ],
    [
      "CORIOLAN",
      "US.</w>"
    ],
    [
      "[_Ex",
      "it</w>"
    ],
    [
      "fo",
      "ol"
    ],
    [
      "ter",
      ".</w>"
    ],
    [
      "self",
      ",</w>"
    ],
    [
      "h",
      ",</w>"
    ],
    [
      "si",
      "on</w>"
    ],
    [
      "dea",
      "th</w>"
    ],
    [
      "F",
      "rom</w>"
    ],
    [
      "E",
      "PH"
    ],
    [
      "al",
      ",</w>"
    ],
    [
      "N",
      ".</w>"
    ],
    [
      "ED",
      "WARD.</w>"
    ],
    [
      "en",
      ".</w>"
    ],
    [
      "thou",
      "s"
    ],
    [
      "fu",
      "ll</w>"
    ],
    [
      "st",
      ".</w>"
    ],
    [
      "thin",
      "e</w>"
    ],
    [
      "ou",
      "l</w>"
    ],
    [
      "d",
      "ou"
    ],
    [
      "d",
      "own</w>"
    ],
    [
      "f",
      "oo"
    ],
    [
      "ca",
      "use</w>"
    ],
    [
      "R",
      "os"
    ],
    [
      "st",
      "an"
    ],
    [
      "ma",
      "da"
    ],
    [
      "PAR",
      "OL"
    ],
    [
      "S",
      "H"
    ],
    [
      "g",
      "re"
    ],
    [
      "H",
      "ar"
    ],
    [
      "i",
      "ther</w>"
    ],
    [
      "A",
      "G"
    ],
    [
      "s",
      "._]</w>"
    ],
    [
      "th",
      "en,</w>"
    ],
    [
      "N",
      "or</w>"
    ],
    [
      "c",
      "la"
    ],
    [
      "me",
      "?</w>"
    ],
    [
      ".",
      "—"
    ],
    [
      "G",
      "AR"
    ],
    [
      "D",
      "OL"
    ],
    [
      "G",
      "lou"
    ],
    [
      "PAROL",
      "LES.</w>"
    ],
    [
      "EPH",
      "ES"
    ],
    [
      "fir",
      "st</w>"
    ],
    [
      "Glou",
      "ces"
    ],
    [
      "b",
      "el"
    ],
    [
      "U",
      "M"
    ],
    [
      "P",
      "r"
    ],
    [
      "f",
      "ur"
    ],
    [
      "s",
      "ed</w>"
    ],
    [
      "M",
      "AN.</w>"
    ],
    [
      "li",
      "ve</w>"
    ],
    [
      "Caes",
      "ar"
    ],
    [
      "R",
      "IC"
    ],
    [
      "s",
      "e.</w>"
    ],
    [
      "R",
      "i"
    ],
    [
      "no",
      "thing</w>"
    ],
    [
      "n",
      "ing</w>"
    ],
    [
      "MAR",
      "GAR"
    ],
    [
      "t",
      "t"
    ],
    [
      "C",
      "or"
    ],
    [
      "U",
      "p"
    ],
    [
      "EPHES",
      "US.</w>"
    ],
    [
      "sir",
      ".</w>"
    ],
    [
      "youn",
      "g</w>"
    ],
    [
      "fri",
      "en"
    ],
    [
      "b",
      "la"
    ],
    [
      "Y",
      "OR"
    ],
    [
      "wh",
      "ere"
    ],
    [
      "G",
      "LO"
    ],
    [
      "is",
      ",</w>"
    ],
    [
      "S",
      "he</w>"
    ],
    [
      "I",
      "n"
    ],
    [
      "I",
      "ER.</w>"
    ],
    [
      "ci",
      "ous</w>"
    ],
    [
      "GLO",
      "UC"
    ],
    [
      "A",
      "ll</w>"
    ],
    [
      "I",
      ",</w>"
    ],
    [
      "MARGAR",
      "ET.</w>"
    ],
    [
      "[_A",
      "si"
    ],
    [
      "wh",
      "om</w>"
    ],
    [
      "W",
      "e"
    ],
    [
      "Wha",
      "t,</w>"
    ],
    [
      "the",
      "m.</w>"
    ],
    [
      "rou",
      "gh</w>"
    ],
    [
      "s",
      "ent</w>"
    ],
    [
      "es",
      "s.</w>"
    ],
    [
      "en",
      "ce.</w>"
    ],
    [
      "h",
      "and</w>"
    ],
    [
      "te",
      "mp"
    ],
    [
      "es",
      ";</w>"
    ],
    [
      "ce",
      ";</w>"
    ],
    [
      "i",
      "el"
    ],
    [
      "h",
      "us"
    ],
    [
      "ch",
      "an"
    ],
    [
      "L",
      "i"
    ],
    [
      "GLOUC",
      "ESTER.</w>"
    ],
    [
      "n",
      "s</w>"
    ],
    [
      "G",
      "o</w>"
    ],
    [
      "v",
      "a"
    ],
    [
      "Wh",
      "ere"
    ],
    [
      "c",
      "er"
    ],
    [
      "of",
      "f</w>"
    ],
    [
      "c",
      "re"
    ],
    [
      "thou",
      "t</w>"
    ],
    [
      "litt",
      "le</w>"
    ],
    [
      "d",
      "s.</w>"
    ],
    [
      "e",
      "w"
    ],
    [
      "Up",
      "on</w>"
    ],
    [
      "i",
      "’</w>"
    ],
    [
      "w",
      "in"
    ],
    [
      "E",
      "N</w>"
    ],
    [
      "pe",
      "op"
    ],
    [
      "OR",
      "LAN"
    ],
    [
      "C",
      "on"
    ],
    [
      "me",
      "mb"
    ],
    [
      "AC",
      "T</w>"
    ],
    [
      "g",
      "ar"
    ],
    [
      "ha",
      "l"
    ],
    [
      "b",
      "est</w>"
    ],
    [
      "st",
      "i"
    ],
    [
      "pr",
      "is"
    ],
    [
      "L",
      "I"
    ],
    [
      "d",
      "ee"
    ],
    [
      "thou",
      "ght</w>"
    ],
    [
      "d",
      "one</w>"
    ],
    [
      "man",
      ".</w>"
    ],
    [
      "to",
      "ge"
    ],
    [
      "I",
      "II.</w>"
    ],
    [
      "st",
      "er"
    ],
    [
      "st",
      "ill</w>"
    ],
    [
      "sh",
      "ow</w>"
    ],
    [
      "d",
      "e,</w>"
    ],
    [
      "an",
      ",</w>"
    ],
    [
      "me",
      ";</w>"
    ],
    [
      "h",
      "om"
    ],
    [
      "A",
      "D"
    ],
    [
      "o",
      "ther"
    ],
    [
      "l",
      "ong"
    ],
    [
      "c",
      "hi"
    ],
    [
      "fi",
      "el"
    ],
    [
      "A",
      "r"
    ],
    [
      "ch",
      ".</w>"
    ],
    [
      "le",
      "t"
    ],
    [
      "ev",
      "en</w>"
    ],
    [
      "thous",
      "and</w>"
    ],
    [
      "k",
      "ne"
    ],
    [
      "b",
      "ring</w>"
    ],
    [
      "ta",
      "in"
    ],
    [
      "t",
      "ly</w>"
    ],
    [
      "hea",
      "d</w>"
    ],
    [
      "d",
      "ear</w>"
    ],
    [
      "QUE",
      "EN</w>"
    ],
    [
      "N",
      "ow,</w>"
    ],
    [
      "l",
      "ed</w>"
    ],
    [
      "vir",
      "tu"
    ],
    [
      "YOR",
      "K.</w>"
    ],
    [
      "da",
      "ugh"
    ],
    [
      "S",
      "om"
    ],
    [
      "B",
      "R"
    ],
    [
      "S",
      "IC"
    ],
    [
      "ri",
      "gh"
    ],
    [
      "un",
      "c"
    ],
    [
      "at",
      "e,</w>"
    ],
    [
      "c",
      "es</w>"
    ],
    [
      "hear",
      "d</w>"
    ],
    [
      "P",
      "ro"
    ],
    [
      "qu",
      "e"
    ],
    [
      "a",
      "r</w>"
    ],
    [
      "d",
      "en</w>"
    ],
    [
      "l",
      "ong</w>"
    ],
    [
      "AM",
      ".</w>"
    ],
    [
      "fa",
      "i"
    ],
    [
      "o",
      "b"
    ],
    [
      "S",
      "h"
    ],
    [
      "Hen",
      "ry</w>"
    ],
    [
      "st",
      "ri"
    ],
    [
      "vil",
      "la"
    ],
    [
      "there",
      "fore</w>"
    ],
    [
      "C",
      "har"
    ],
    [
      "sp",
      "o"
    ],
    [
      "so",
      ".</w>"
    ],
    [
      "G",
      "ive</w>"
    ],
    [
      "con",
      "f"
    ],
    [
      "y",
      "ing</w>"
    ],
    [
      "tur",
      "n</w>"
    ],
    [
      "answ",
      "er</w>"
    ],
    [
      "e",
      "f</w>"
    ],
    [
      "ha",
      "s</w>"
    ],
    [
      "d",
      "ly</w>"
    ],
    [
      "w",
      "at"
    ],
    [
      "p",
      "u"
    ],
    [
      "st",
      "ran"
    ],
    [
      "H",
      "ath</w>"
    ],
    [
      "ORLAN",
      "DO.</w>"
    ],
    [
      "er",
      "s.</w>"
    ],
    [
      "s",
      "on,</w>"
    ],
    [
      "IM",
      "O"
    ],
    [
      "or",
      ",</w>"
    ],
    [
      "h",
      "ere"
    ],
    [
      "r",
      "it"
    ],
    [
      "th",
      "i"
    ],
    [
      "IMO",
      "G"
    ],
    [
      "U",
      "T"
    ],
    [
      "ha",
      "pp"
    ],
    [
      "ser",
      "vi"
    ],
    [
      "h",
      "our"
    ],
    [
      "a",
      "ge</w>"
    ],
    [
      "g",
      "ed</w>"
    ],
    [
      "lov",
      "e,</w>"
    ],
    [
      "D",
      "o"
    ],
    [
      "gent",
      "le</w>"
    ],
    [
      "ga",
      "in</w>"
    ],
    [
      "D",
      "a"
    ],
    [
      "LE",
      ".</w>"
    ],
    [
      "ran",
      "t</w>"
    ],
    [
      "IMOG",
      "EN.</w>"
    ],
    [
      "for",
      "th</w>"
    ],
    [
      "t",
      "ow"
    ],
    [
      "C",
      "OU"
    ],
    [
      "T",
      "al"
    ],
    [
      "A",
      "l"
    ],
    [
      "O",
      "r"
    ],
    [
      "H",
      "OR"
    ],
    [
      "on",
      "ce</w>"
    ],
    [
      "S",
      "P"
    ],
    [
      "t",
      "!</w>"
    ],
    [
      "j",
      "est"
    ],
    [
      "un",
      "der"
    ],
    [
      "SIC",
      "INIUS.</w>"
    ],
    [
      "Ri",
      "char"
    ],
    [
      "CH",
      "AR"
    ],
    [
      "awa",
      "y</w>"
    ],
    [
      "hea",
      "v"
    ],
    [
      "h",
      "un"
    ],
    [
      "ab",
      "out</w>"
    ],
    [
      "s",
      "k"
    ],
    [
      "u",
      "mb"
    ],
    [
      "p",
      "s</w>"
    ],
    [
      "h",
      "and"
    ],
    [
      "’",
      "d.</w>"
    ],
    [
      "n",
      "ee"
    ],
    [
      "ma",
      "kes</w>"
    ],
    [
      "m",
      "il"
    ],
    [
      "b",
      "us"
    ],
    [
      "st",
      "ru"
    ],
    [
      "l",
      "e.</w>"
    ],
    [
      "BAR",
      "B"
    ],
    [
      "EN",
      "O"
    ],
    [
      "self",
      ".</w>"
    ],
    [
      "IN",
      "E.</w>"
    ],
    [
      "RIC",
      "HAR"
    ],
    [
      "fa",
      "r</w>"
    ],
    [
      "sha",
      "lt</w>"
    ],
    [
      "ENO",
      "BARB"
    ],
    [
      "A",
      "re</w>"
    ],
    [
      "we",
      "en</w>"
    ],
    [
      "s",
      "s</w>"
    ],
    [
      "ENOBARB",
      "US.</w>"
    ],
    [
      "mi",
      "stres"
    ],
    [
      "le",
      "x"
    ],
    [
      "c",
      "ra"
    ],
    [
      "ca",
      "me</w>"
    ],
    [
      "hop",
      "e</w>"
    ],
    [
      "o",
      "’"
    ],
    [
      "gain",
      "st</w>"
    ],
    [
      "CLO",
      "W"
    ],
    [
      "s",
      "es</w>"
    ],
    [
      "oo",
      "k</w>"
    ],
    [
      "CLOW",
      "N.</w>"
    ],
    [
      "HOR",
      "AT"
    ],
    [
      "s",
      "oul"
    ],
    [
      "EL",
      "EN"
    ],
    [
      "IN",
      "G"
    ],
    [
      "g",
      "la"
    ],
    [
      "re",
      "e"
    ],
    [
      "Be",
      "fore</w>"
    ],
    [
      "Ha",
      "m"
    ],
    [
      "OL",
      "K.</w>"
    ],
    [
      "hea",
      "ven"
    ],
    [
      "Tal",
      "bo"
    ],
    [
      "H",
      "ELEN"
    ],
    [
      "c",
      "hil"
    ],
    [
      "n",
      "ight</w>"
    ],
    [
      "W",
      "i"
    ],
    [
      "plea",
      "se</w>"
    ],
    [
      "ch",
      "e"
    ],
    [
      "EL",
      "L"
    ],
    [
      "g",
      "et</w>"
    ],
    [
      "Su",
      "ff"
    ],
    [
      "d",
      "y,</w>"
    ],
    [
      "fel",
      "low"
    ],
    [
      "S",
      "U"
    ],
    [
      "SU",
      "FF"
    ],
    [
      "P",
      "er"
    ],
    [
      "i",
      "m"
    ],
    [
      "B",
      "O"
    ],
    [
      "HELEN",
      "A.</w>"
    ],
    [
      "SEN",
      "G"
    ],
    [
      "L",
      "ond"
    ],
    [
      "no",
      "t.</w>"
    ],
    [
      "w",
      "el"
    ],
    [
      "M",
      "ES"
    ],
    [
      "SENG",
      "ER.</w>"
    ],
    [
      "ck",
      ".</w>"
    ],
    [
      "n",
      "e</w>"
    ],
    [
      "ir",
      "e</w>"
    ],
    [
      "in",
      "i"
    ],
    [
      "MES",
      "SENGER.</w>"
    ],
    [
      "es",
      "t,</w>"
    ],
    [
      "Y",
      "M"
    ],
    [
      "d",
      "rea"
    ],
    [
      "pr",
      "ou"
    ],
    [
      "d",
      "ar"
    ],
    [
      "it",
      "y,</w>"
    ],
    [
      "s",
      "’</w>"
    ],
    [
      "K",
      "ing"
    ],
    [
      "RICHAR",
      "D.</w>"
    ],
    [
      "la",
      "w"
    ],
    [
      "A",
      "U"
    ],
    [
      "n",
      "one</w>"
    ],
    [
      "SUFF",
      "OLK.</w>"
    ],
    [
      "u",
      "mp"
    ],
    [
      "C",
      "ELIA.</w>"
    ],
    [
      "fol",
      "low"
    ],
    [
      "a",
      "u"
    ],
    [
      "re",
      "memb"
    ],
    [
      "e",
      "mp"
    ],
    [
      "T",
      "I"
    ],
    [
      "Wh",
      "ose</w>"
    ],
    [
      "HORAT",
      "IO.</w>"
    ],
    [
      "D",
      "U"
    ],
    [
      "F",
      "E"
    ],
    [
      "D",
      "i"
    ],
    [
      "mar",
      "ri"
    ],
    [
      "DU",
      "K"
    ],
    [
      "re",
      "t"
    ],
    [
      "Mar",
      "ti"
    ],
    [
      "bro",
      "ther</w>"
    ],
    [
      "sp",
      "ee"
    ],
    [
      "A",
      "n</w>"
    ],
    [
      "f",
      "ea"
    ],
    [
      "g",
      "r"
    ],
    [
      "w",
      "it"
    ],
    [
      "dou",
      "b"
    ],
    [
      "o",
      "ver"
    ],
    [
      "Pr",
      "ince</w>"
    ],
    [
      "all",
      ",</w>"
    ],
    [
      "do",
      "st</w>"
    ],
    [
      "s",
      "ince</w>"
    ],
    [
      "ou",
      "gh"
    ],
    [
      "l",
      "in"
    ],
    [
      "N",
      "T"
    ],
    [
      "ERT",
      "R"
    ],
    [
      "p",
      "ati"
    ],
    [
      "sa",
      "id</w>"
    ],
    [
      "x",
      "t</w>"
    ],
    [
      ".",
      "”</w>"
    ],
    [
      "pla",
      "ce</w>"
    ],
    [
      "c",
      "y</w>"
    ],
    [
      "B",
      "ERTR"
    ],
    [
      "Th",
      "ough</w>"
    ],
    [
      "ti",
      "on"
    ],
    [
      "th",
      "rough</w>"
    ],
    [
      "C",
      "I"
    ],
    [
      "b",
      "ri"
    ],
    [
      "des",
      "er"
    ],
    [
      "K",
      "ing,</w>"
    ],
    [
      "k",
      "na"
    ],
    [
      "OR",
      ".</w>"
    ],
    [
      "k",
      "s,</w>"
    ],
    [
      "pow",
      "er</w>"
    ],
    [
      "af",
      "ter</w>"
    ],
    [
      "ess",
      "eng"
    ],
    [
      "it",
      "y.</w>"
    ],
    [
      "t",
      "ro"
    ],
    [
      "Suff",
      "ol"
    ],
    [
      "BERTR",
      "AM.</w>"
    ],
    [
      "res",
      "t</w>"
    ],
    [
      "hus",
      "b"
    ],
    [
      "her",
      "e,</w>"
    ],
    [
      "ce",
      "i"
    ],
    [
      "e",
      "ve</w>"
    ],
    [
      "c",
      "t</w>"
    ],
    [
      "Bu",
      "t,</w>"
    ],
    [
      "wi",
      "thout</w>"
    ],
    [
      "T",
      "a"
    ],
    [
      "th",
      "ings</w>"
    ],
    [
      "ent",
      ".</w>"
    ],
    [
      "ver",
      "eig"
    ],
    [
      "so",
      "vereig"
    ],
    [
      "th",
      "ree</w>"
    ],
    [
      "HO",
      "T"
    ],
    [
      "COU",
      "NT"
    ],
    [
      "SP",
      "UR"
    ],
    [
      "HOT",
      "SPUR"
    ],
    [
      "n",
      "ear</w>"
    ],
    [
      "ea",
      "ch</w>"
    ],
    [
      "wor",
      "thy</w>"
    ],
    [
      "a",
      "ce.</w>"
    ],
    [
      "ou",
      "ch"
    ],
    [
      "A",
      "S.</w>"
    ],
    [
      "HOTSPUR",
      ".</w>"
    ],
    [
      "wor",
      "ds</w>"
    ],
    [
      "all",
      ".</w>"
    ],
    [
      "a",
      ",</w>"
    ],
    [
      "S",
      "t"
    ],
    [
      "d",
      "ge</w>"
    ],
    [
      "COUNT",
      "ESS.</w>"
    ],
    [
      "sp",
      "ir"
    ],
    [
      "Som",
      "er"
    ],
    [
      "CA",
      "ES"
    ],
    [
      "c",
      "ri"
    ],
    [
      "QUE",
      "EN.</w>"
    ],
    [
      "AR",
      ".</w>"
    ],
    [
      "st",
      "or"
    ],
    [
      "A",
      "no"
    ],
    [
      "ou",
      "ra"
    ],
    [
      "k",
      "ed</w>"
    ],
    [
      "oul",
      "dst</w>"
    ],
    [
      "him",
      "self</w>"
    ],
    [
      "LA",
      "FE"
    ],
    [
      "S",
      "OL"
    ],
    [
      "y",
      "iel"
    ],
    [
      "gen",
      "er"
    ],
    [
      "HO",
      "ST"
    ],
    [
      "s",
      "il"
    ],
    [
      "re",
      "ven"
    ],
    [
      "Fren",
      "ch</w>"
    ],
    [
      "the",
      "m,</w>"
    ],
    [
      "ST",
      "OL"
    ],
    [
      "som",
      "e"
    ],
    [
      "k",
      "ing,</w>"
    ],
    [
      "this",
      ",</w>"
    ],
    [
      "fu",
      "l"
    ],
    [
      "D",
      "IER.</w>"
    ],
    [
      "an",
      "i"
    ],
    [
      "LAFE",
      "W.</w>"
    ],
    [
      "SOL",
      "DIER.</w>"
    ],
    [
      "than",
      "k</w>"
    ],
    [
      "lor",
      "d</w>"
    ],
    [
      "do",
      "es</w>"
    ],
    [
      "ti",
      "on,</w>"
    ],
    [
      "i",
      "ce</w>"
    ],
    [
      "k",
      "en</w>"
    ],
    [
      "fa",
      "ther’s</w>"
    ],
    [
      "L",
      ".</w>"
    ],
    [
      "re",
      "s</w>"
    ],
    [
      "R",
      "e"
    ],
    [
      "c",
      "tor"
    ],
    [
      "t",
      "s.</w>"
    ],
    [
      "gra",
      "ce</w>"
    ],
    [
      "D",
      "id</w>"
    ],
    [
      "sh",
      "ow"
    ],
    [
      "ga",
      "ve</w>"
    ],
    [
      "w",
      "ha"
    ],
    [
      "t",
      "it"
    ],
    [
      "for",
      "e,</w>"
    ],
    [
      "’",
      "t.</w>"
    ],
    [
      "G",
      "ra"
    ],
    [
      "ER",
      "V"
    ],
    [
      "E",
      "ven</w>"
    ],
    [
      "E",
      "S.</w>"
    ],
    [
      "CAES",
      "AR.</w>"
    ],
    [
      "ro",
      "y"
    ],
    [
      "w",
      "on"
    ],
    [
      "la",
      "y</w>"
    ],
    [
      "b",
      "id</w>"
    ],
    [
      "m",
      "en,</w>"
    ],
    [
      "sta",
      "y</w>"
    ],
    [
      "an",
      "other</w>"
    ],
    [
      "P",
      "ar"
    ],
    [
      "tim",
      "es</w>"
    ],
    [
      "lor",
      "d"
    ],
    [
      "g",
      "ol"
    ],
    [
      "ra",
      "ther</w>"
    ],
    [
      "L",
      "UC"
    ],
    [
      "di",
      "e</w>"
    ],
    [
      "sel",
      "ves</w>"
    ],
    [
      "STOL",
      ".</w>"
    ],
    [
      "g",
      "row"
    ],
    [
      "do",
      ",</w>"
    ],
    [
      "f",
      "in"
    ],
    [
      "PI",
      "STOL.</w>"
    ],
    [
      "F",
      "a"
    ],
    [
      "Ano",
      "ther</w>"
    ],
    [
      "that",
      "’s</w>"
    ],
    [
      "b",
      "eli"
    ],
    [
      "w",
      "o"
    ],
    [
      "te",
      "d,</w>"
    ],
    [
      "hea",
      "ven</w>"
    ],
    [
      "fa",
      "ir"
    ],
    [
      "p",
      "t</w>"
    ],
    [
      "p",
      "at"
    ],
    [
      "d",
      "ear"
    ],
    [
      "m",
      "eet</w>"
    ],
    [
      "[_Asi",
      "de"
    ],
    [
      "sa",
      "y,</w>"
    ],
    [
      "W",
      "as</w>"
    ],
    [
      "c",
      "ell"
    ],
    [
      "e",
      "t,</w>"
    ],
    [
      "fa",
      "ce</w>"
    ],
    [
      "f",
      "ee"
    ],
    [
      "el",
      "se</w>"
    ],
    [
      "or",
      "s</w>"
    ],
    [
      "that",
      ",</w>"
    ],
    [
      "b",
      "att"
    ],
    [
      "C",
      "ome</w>"
    ],
    [
      "ce",
      "?</w>"
    ],
    [
      "r",
      "ed</w>"
    ],
    [
      "Warwi",
      "ck,</w>"
    ],
    [
      "a",
      "ble</w>"
    ],
    [
      "dr",
      "in"
    ],
    [
      "b",
      "er"
    ],
    [
      "i",
      "ol"
    ],
    [
      "Joh",
      "n</w>"
    ],
    [
      "s",
      "ing</w>"
    ],
    [
      "sp",
      "i"
    ],
    [
      "a",
      "gain</w>"
    ],
    [
      "ou",
      "t"
    ],
    [
      "A",
      "u"
    ],
    [
      "d",
      "ang"
    ],
    [
      "S",
      "ERV"
    ],
    [
      "swor",
      "d</w>"
    ],
    [
      "sa",
      "w</w>"
    ],
    [
      "sh",
      "or"
    ],
    [
      "on",
      "ly</w>"
    ],
    [
      "J",
      "a"
    ],
    [
      "le",
      "ft</w>"
    ],
    [
      "BR",
      "UT"
    ],
    [
      "shi",
      "p</w>"
    ],
    [
      "re",
      "por"
    ],
    [
      "lor",
      "ds,</w>"
    ],
    [
      "m",
      "igh"
    ],
    [
      "a",
      ".</w>"
    ],
    [
      "m",
      "ou"
    ],
    [
      "se",
      "en</w>"
    ],
    [
      "Cor",
      "iol"
    ],
    [
      "Engl",
      "ish</w>"
    ],
    [
      "B",
      "ard"
    ],
    [
      "k",
      "is"
    ],
    [
      "da",
      "y,</w>"
    ],
    [
      "Bard",
      "ol"
    ],
    [
      "st",
      "ar"
    ],
    [
      "BRUT",
      "US.</w>"
    ],
    [
      "R",
      "E"
    ],
    [
      "There",
      "’s</w>"
    ],
    [
      "li",
      "e"
    ],
    [
      "p",
      "en"
    ],
    [
      "Wha",
      "t’s</w>"
    ],
    [
      "bes",
      "ee"
    ],
    [
      "M",
      "o"
    ],
    [
      "ri",
      "t</w>"
    ],
    [
      "bo",
      "dy</w>"
    ],
    [
      ".",
      "_</w>"
    ],
    [
      "I",
      "V.</w>"
    ],
    [
      "Fran",
      "ce</w>"
    ],
    [
      "wor",
      "d</w>"
    ],
    [
      "wi",
      "lt</w>"
    ],
    [
      "st",
      "e</w>"
    ],
    [
      "PO",
      "ST"
    ],
    [
      "er",
      "e,</w>"
    ],
    [
      "ey",
      "e</w>"
    ],
    [
      "mean",
      "s</w>"
    ],
    [
      "nigh",
      "t,</w>"
    ],
    [
      "d",
      "ru"
    ],
    [
      "[_",
      "To</w>"
    ],
    [
      "ti",
      "me,</w>"
    ],
    [
      "bea",
      "u"
    ],
    [
      "d",
      "in"
    ],
[...]
