{
  "vocab": {
    "Y": 317,
    "sus": 1813,
    "ed.</w>": 607,
    "few</w>": 935,
    "D": 296,
    "ation.</w>": 1454,
    "dn’t</w>": 1706,
    "poor</w>": 2194,
    "h": 332,
    "turned</w>": 950,
    "ali": 1480,
    "old</w>": 687,
    "fir": 759,
    "lam": 1546,
    "<0x89>": 141,
    "ment</w>": 1018,
    "<0xB8>": 188,
    "name</w>": 1264,
    "to-": 1090,
    "dre": 1029,
    "“Y": 731,
    "<0x0D>": 17,
    "as": 408,
    "t.</w>": 530,
    "ying</w>": 818,
    "exce": 1709,
    "<0x08>": 12,
    "“‘": 589,
    "house</w>": 1158,
    "mer": 1102,
    "house.</w>": 2054,
    "<0x64>": 104,
    "that</w>": 383,
    "ering</w>": 2074,
    "wis": 959,
    "no</w>": 548,
    "cle</w>": 2208,
    "hon": 1940,
    "case,</w>": 2313,
    "speak</w>": 2026,
    "<0x84>": 136,
    "over</w>": 653,
    "ent,</w>": 1179,
    "with": 757,
    "three</w>": 1080,
    "“N": 1268,
    "le-": 1995,
    "ate,</w>": 1677,
    "7": 283,
    "How</w>": 2041,
    "neighbour": 2130,
    "opin": 2148,
    "<0xEE>": 242,
    "et.</w>": 1430,
    "adm": 2338,
    "n": 338,
    "ing.</w>": 743,
    "ck": 782,
    "H": 300,
    "<0x15>": 25,
    "myself": 1775,
    "itt": 511,
    "\"": 262,
    "ugh": 997,
    "st.</w>": 1876,
    "ould</w>": 431,
    "“They</w>": 2039,
    "dy</w>": 1397,
    "fact</w>": 2330,
    "bride": 2266,
    "fortun": 1292,
    "wr": 820,
    "it,</w>": 813,
    "ren": 1624,
    "ong</w>": 656,
    "you.”</w>": 1459,
    "cke": 1756,
    "when</w>": 570,
    "ever,</w>": 822,
    "But</w>": 646,
    "ready</w>": 1033,
    "flo": 1391,
    "al</w>": 533,
    "woo": 1410,
    "interest</w>": 1934,
    "fif": 2269,
    "half</w>": 1388,
    "<0x90>": 148,
    "dge</w>": 1403,
    "low</w>": 857,
    "why</w>": 1438,
    "face</w>": 917,
    "fore": 1022,
    "sever": 1472,
    "all</w>": 481,
    "door</w>": 971,
    "Holmes": 1089,
    "<0xEF>": 243,
    "still</w>": 1095,
    "consi": 1210,
    "Watson": 1685,
    "y?”</w>": 1712,
    "“P": 1303,
    "every": 1737,
    "see,</w>": 1817,
    "wh": 428,
    "it.</w>": 763,
    "ening</w>": 1307,
    "<0x13>": 23,
    "po": 552,
    "ak": 495,
    "short</w>": 2127,
    "In": 1660,
    "<0x0B>": 15,
    "^": 322,
    "ir</w>": 593,
    "utely</w>": 1516,
    "things</w>": 1804,
    "hu": 1490,
    "ou</w>": 394,
    "head</w>": 1238,
    "daughter</w>": 2212,
    "“‘I</w>": 2264,
    "<0x93>": 151,
    "<0x7F>": 131,
    "<0xAC>": 176,
    "on’t</w>": 1274,
    "many</w>": 1374,
    "wor": 603,
    "ey": 689,
    "y’s</w>": 1647,
    "dead": 2082,
    "<0x14>": 24,
    "pul": 1448,
    "<0xDD>": 225,
    "wa": 586,
    "call</w>": 1286,
    "ened</w>": 815,
    "trac": 1314,
    "sen": 1681,
    "Ad": 1776,
    "back": 1530,
    "pr": 1838,
    "John</w>": 1902,
    "“G": 1950,
    "ed": 478,
    "Now</w>": 2110,
    "ish</w>": 1652,
    "matter,</w>": 2160,
    "answ": 907,
    "long</w>": 979,
    "os": 463,
    "pleas": 1975,
    "Lestr": 1277,
    "first</w>": 1027,
    "oun": 482,
    "band": 1725,
    "pub": 2008,
    "face,</w>": 1810,
    "said,</w>": 1956,
    "but": 2106,
    "atten": 1473,
    "love</w>": 2131,
    "<0x2F>": 51,
    "passa": 1998,
    "<0x4F>": 83,
    "hey</w>": 1151,
    "c": 327,
    "questi": 1122,
    "beli": 1260,
    "B": 294,
    "no": 390,
    "sir,</w>": 1863,
    "bour": 2028,
    "low": 682,
    "won": 1684,
    "<0x53>": 87,
    "peri": 2056,
    "ers</w>": 1092,
    "Quite</w>": 2312,
    "took</w>": 884,
    "tak": 1050,
    "type": 2308,
    "age,</w>": 1682,
    "!": 261,
    "<0x10>": 20,
    "am</w>": 608,
    "g": 331,
    "ing,</w>": 677,
    "swe": 1909,
    "understand,</w>": 2178,
    "enti": 1073,
    "ed</w>": 362,
    "profes": 1662,
    "wand": 2006,
    "&": 266,
    "there": 1464,
    "ar</w>": 564,
    "ons</w>": 996,
    "<0x5D>": 97,
    "'": 267,
    "ch</w>": 405,
    "eyes</w>": 1093,
    "step</w>": 2088,
    "papers</w>": 1627,
    "ven": 2123,
    "<0xBE>": 194,
    "afraid</w>": 2261,
    "aged</w>": 1806,
    "hand,</w>": 1463,
    "prob": 1621,
    "read": 1730,
    "<0x94>": 152,
    "lo": 407,
    "<0x4B>": 79,
    "<0x43>": 71,
    "<0x88>": 140,
    "tu": 1773,
    "“Oh,</w>": 1053,
    "cti": 1183,
    "pre": 722,
    "sure</w>": 1453,
    "room": 720,
    "ati": 545,
    "ong": 1005,
    "threw</w>": 1594,
    "<0xBF>": 195,
    "min": 574,
    "certain": 1218,
    "<0x36>": 58,
    "sive</w>": 1698,
    "bir": 1538,
    "fig": 1898,
    "Baker</w>": 1506,
    "temp": 1356,
    "<0xF5>": 249,
    "lamp</w>": 1982,
    "is,</w>": 1224,
    "asked</w>": 1204,
    "extre": 2230,
    "r.</w>": 527,
    "hour</w>": 2053,
    "we": 542,
    "bank</w>": 2069,
    "put</w>": 1011,
    "l": 336,
    "fl": 1004,
    "m": 337,
    "’s</w>": 522,
    "how": 797,
    "ste": 1565,
    "yed</w>": 1960,
    "ros": 1094,
    "natur": 2103,
    "<0xF7>": 251,
    "<0xC8>": 204,
    "ev": 597,
    "had</w>": 429,
    "ut": 604,
    "not": 1587,
    "<0xBA>": 190,
    "ere": 1452,
    "ck</w>": 611,
    "mor": 540,
    "med</w>": 1138,
    "doub": 805,
    "morning</w>": 1208,
    "belie": 1559,
    "ping</w>": 1833,
    "oned</w>": 2241,
    "bro": 994,
    "if</w>": 630,
    "its</w>": 825,
    "m,</w>": 1527,
    "mad": 1650,
    "tho": 2118,
    "<0x2E>": 50,
    "<0xB3>": 183,
    "man": 537,
    "dri": 1178,
    "rooms</w>": 2023,
    "ment": 896,
    "<0x04>": 8,
    "fre": 1298,
    "<0x33>": 55,
    "like": 1758,
    "well</w>": 1161,
    "rely</w>": 1821,
    "some</w>": 580,
    "possi": 1069,
    "<0x92>": 150,
    "smo": 1642,
    "is": 441,
    ";": 287,
    "hel": 802,
    "<0x56>": 90,
    "et": 664,
    "ter</w>": 544,
    "use": 2052,
    "turning</w>": 1871,
    "sely</w>": 2311,
    "?": 291,
    "ent</w>": 499,
    "ist": 1233,
    "hou": 710,
    "was": 1382,
    "head.</w>": 2226,
    "Hor": 1696,
    "<0xE1>": 229,
    "ide</w>": 1370,
    "s.</w>": 501,
    "clock</w>": 1733,
    "Pe": 2319,
    "and": 519,
    "<0xF0>": 244,
    "sho": 1319,
    "venti": 2154,
    "hat,</w>": 1851,
    "cloth": 1965,
    "mi": 547,
    "lost</w>": 2073,
    "tab": 1852,
    "pic": 1824,
    "<pad>": 0,
    "4": 280,
    "in": 356,
    "hing</w>": 1708,
    "yet</w>": 1117,
    "imag": 1671,
    "ness.</w>": 2253,
    "affa": 1895,
    "i": 333,
    "obser": 1137,
    "ank</w>": 903,
    "ro": 381,
    "think,</w>": 1632,
    "ve": 833,
    "esti": 875,
    "der</w>": 756,
    "“Wh": 1186,
    "bring</w>": 1961,
    "tel": 2345,
    "window,</w>": 2005,
    "ick</w>": 1608,
    "behind</w>": 1334,
    "<0xBC>": 192,
    "went</w>": 1097,
    "k": 335,
    "money</w>": 1873,
    "roo": 583,
    "before</w>": 709,
    "<0x57>": 91,
    "ch,</w>": 1389,
    "ary</w>": 885,
    "<0xD9>": 221,
    "ous": 1150,
    "bac": 1566,
    "inno": 1774,
    "less</w>": 957,
    "cor": 738,
    "sion</w>": 991,
    "<0xC2>": 198,
    "<0x6D>": 113,
    "On</w>": 1444,
    "<0x7A>": 126,
    "“What</w>": 1195,
    "knowle": 2244,
    "ow</w>": 1049,
    "He</w>": 528,
    "en,</w>": 639,
    "on.”</w>": 1271,
    "fu": 846,
    "cut</w>": 2098,
    "furn": 2146,
    "ani": 1187,
    "<0x3C>": 64,
    "<0x5A>": 94,
    "her": 590,
    "sa": 412,
    "fort": 1146,
    "hun": 1304,
    "within</w>": 1235,
    "In</w>": 1123,
    "oning</w>": 1769,
    "succ": 1791,
    "face.</w>": 1973,
    "Street,</w>": 1991,
    "ble": 1111,
    "Z": 318,
    "you,</w>": 1044,
    "cold</w>": 2198,
    "qui": 1077,
    "ran": 1279,
    "evid": 1461,
    "<0x6C>": 112,
    "ried</w>": 901,
    "les</w>": 1320,
    "anything</w>": 1326,
    "ce": 616,
    "ban": 1477,
    "photograp": 1583,
    "reme": 1638,
    "Lestrade</w>": 1820,
    "To</w>": 2336,
    "letter": 1396,
    "hed</w>": 711,
    "boo": 1417,
    "<0xCD>": 209,
    "av": 840,
    "new": 1263,
    "Mc": 1170,
    "<0x0C>": 16,
    "sh</w>": 2137,
    "L": 304,
    "I": 301,
    "ged</w>": 1511,
    "<0x6B>": 111,
    "<0xED>": 241,
    "fol": 955,
    "front</w>": 1347,
    "Here</w>": 2114,
    "at</w>": 371,
    "<0x3E>": 66,
    "<0x54>": 88,
    "r": 342,
    "ing</w>": 376,
    "hand": 727,
    "ness</w>": 1589,
    "difficul": 1812,
    "shar": 1825,
    "pain": 2113,
    "coat</w>": 2119,
    "day,</w>": 1322,
    "entirely</w>": 2350,
    "tru": 1143,
    "el</w>": 1764,
    "Americ": 2218,
    "j": 334,
    "aw": 1693,
    "contin": 1666,
    "cried</w>": 1674,
    "ated</w>": 1042,
    "der": 573,
    "Holm": 562,
    "ad</w>": 658,
    "ts</w>": 703,
    "ound</w>": 605,
    "already</w>": 1236,
    "compani": 1273,
    "disappear": 2206,
    "ush</w>": 2076,
    "surpri": 1551,
    "HE</w>": 2121,
    "ance,</w>": 1808,
    "ange</w>": 1020,
    "McCar": 1237,
    "leg": 1953,
    "<0xF4>": 248,
    "him": 563,
    "like</w>": 811,
    "formed</w>": 2186,
    "kno": 579,
    "O": 307,
    "sted</w>": 1618,
    "up": 443,
    "ned</w>": 773,
    "cer": 1931,
    "assist": 1498,
    "descri": 2068,
    "hand</w>": 988,
    "al,</w>": 1974,
    "foot": 2343,
    "aj": 1728,
    "o": 339,
    "absol": 1288,
    "hands</w>": 1316,
    "<0x42>": 70,
    "our": 571,
    "She</w>": 849,
    "ished</w>": 2030,
    "re": 366,
    "carri": 1643,
    "<0x1B>": 31,
    "<0xB5>": 185,
    "charac": 1669,
    "stor": 1189,
    "<0x26>": 42,
    "ti": 415,
    "rest</w>": 1853,
    "ed.”</w>": 1619,
    "adv": 1309,
    "London</w>": 2034,
    ".”</w>": 395,
    "ag": 457,
    "For</w>": 1581,
    "“Very</w>": 2111,
    "fear</w>": 2223,
    "comes</w>": 2248,
    "head": 1045,
    "glanc": 1191,
    "<0x22>": 38,
    "<0xA1>": 165,
    "our</w>": 525,
    "ked.</w>": 1167,
    "<0x73>": 119,
    "vol": 2216,
    "<0x1C>": 32,
    "secre": 1524,
    "life</w>": 1545,
    "Mrs.</w>": 1670,
    "last</w>": 948,
    "err": 1807,
    "ar,</w>": 1847,
    "<0x48>": 76,
    "practi": 2256,
    "I,</w>": 1503,
    "ving</w>": 740,
    "ather</w>": 1894,
    "age.</w>": 1978,
    "ne": 464,
    "<0x2B>": 47,
    "ose</w>": 817,
    "ly.</w>": 1068,
    "read</w>": 1605,
    "spoke</w>": 2063,
    "“No,</w>": 1318,
    "il": 507,
    "ous</w>": 680,
    "reac": 1584,
    "sible</w>": 2307,
    "sal": 2101,
    "gr": 766,
    "only</w>": 679,
    "on,</w>": 598,
    "chair</w>": 1209,
    "<0x5C>": 96,
    "ver": 424,
    "adverti": 1700,
    "br": 717,
    "small</w>": 936,
    "position</w>": 2067,
    "ad": 432,
    "step": 990,
    "happ": 1203,
    "char": 1747,
    "closed</w>": 2018,
    "<0x35>": 57,
    "self": 993,
    "<0x66>": 106,
    "<0x1D>": 33,
    "<0x29>": 45,
    "ke": 592,
    "ess": 1039,
    "men</w>": 1404,
    "se,</w>": 761,
    "matter": 1003,
    "ef": 1160,
    "countr": 1434,
    "ked,</w>": 1364,
    "long": 1445,
    "another</w>": 1500,
    "rose</w>": 2170,
    "dist": 1234,
    "~": 354,
    "ation,</w>": 1734,
    "sight</w>": 1793,
    "ary,</w>": 2325,
    "away</w>": 895,
    "<0xCA>": 206,
    "cla": 1381,
    "save</w>": 1387,
    "m.</w>": 2237,
    "<0xC0>": 196,
    "<0xB2>": 182,
    "ful</w>": 1024,
    "eye</w>": 2003,
    "years</w>": 1110,
    "gh": 411,
    "S": 311,
    "je": 983,
    "le": 400,
    "passed</w>": 1494,
    "ally,</w>": 2354,
    "pos": 633,
    "’t</w>": 843,
    "now": 902,
    "ener": 1507,
    "“E": 2263,
    "ess,</w>": 1428,
    "stone</w>": 1841,
    "us": 421,
    "appear": 1091,
    "behin": 1226,
    "ets</w>": 2193,
    "mar": 584,
    "cted</w>": 1476,
    "ding": 2175,
    "x": 348,
    "side": 1061,
    "<0xC9>": 205,
    "fri": 770,
    "bu": 1046,
    "sk": 2139,
    "ker": 2255,
    "hus": 1620,
    "you": 440,
    "mon": 1172,
    "<0x1F>": 35,
    "ts,</w>": 1704,
    "quar": 1720,
    "che": 1115,
    "been</w>": 497,
    "tly</w>": 1641,
    "<0x3D>": 65,
    "<0xEA>": 238,
    "clear": 1325,
    "inspect": 1724,
    "quiet": 1765,
    "har": 786,
    "answered.</w>": 2115,
    "ei": 1088,
    "ner</w>": 987,
    "light</w>": 985,
    "twent": 1845,
    "di": 498,
    "<0x02>": 6,
    "right</w>": 1010,
    "matter</w>": 972,
    "also</w>": 1327,
    "going</w>": 1723,
    "<0x8A>": 142,
    "<0x8D>": 145,
    "body</w>": 1829,
    "go": 732,
    "of": 654,
    "sh": 461,
    "ic": 514,
    "again</w>": 1866,
    "comm": 1013,
    "inted</w>": 2171,
    "<0x01>": 5,
    "Ro": 1249,
    "underst": 1135,
    "ched</w>": 1219,
    "other</w>": 649,
    "thr": 814,
    "<0x1A>": 30,
    "will</w>": 578,
    "single</w>": 2072,
    "“When</w>": 2184,
    "<0x07>": 11,
    "<0x31>": 53,
    "covered</w>": 1822,
    "susp": 2327,
    "ce</w>": 456,
    "id</w>": 435,
    "ps,</w>": 1857,
    "through</w>": 916,
    "Bo": 1542,
    "ath</w>": 1465,
    "yourself</w>": 1537,
    "res": 512,
    "round</w>": 1054,
    "Did</w>": 2078,
    "ese</w>": 894,
    "stri": 1432,
    "thir": 1661,
    "ha": 361,
    "was</w>": 391,
    "ch": 555,
    "vo": 1344,
    "tur": 628,
    "bow": 2096,
    "machin": 2104,
    "ten</w>": 1462,
    "<0xAE>": 178,
    "sur": 1043,
    "Sherlock</w>": 801,
    "En": 1287,
    "written</w>": 1952,
    "and</w>": 363,
    "them.</w>": 2019,
    "remar": 783,
    "back</w>": 791,
    "reas": 1107,
    "busin": 930,
    "thin": 622,
    "im": 752,
    "ep</w>": 925,
    "father</w>": 1047,
    "ps</w>": 966,
    "son</w>": 1131,
    "certainly</w>": 1703,
    "Dr.</w>": 1484,
    "me</w>": 392,
    "ure</w>": 708,
    "into</w>": 556,
    "t": 344,
    "oub": 749,
    "note</w>": 2205,
    "ment.</w>": 1920,
    "cas": 755,
    "war": 970,
    "sp": 780,
    "again": 858,
    "sti": 863,
    "ta": 1067,
    "ave</w>": 779,
    "proble": 1736,
    "bar": 1568,
    "“That</w>": 1439,
    "this": 2095,
    "str": 644,
    "writt": 1707,
    "<0xE3>": 231,
    ".’</w>": 659,
    "him</w>": 577,
    "glance</w>": 2314,
    "lar</w>": 1106,
    "ver</w>": 494,
    "true</w>": 2150,
    "<0x98>": 156,
    "might</w>": 767,
    "<0xB9>": 189,
    "ven</w>": 973,
    "an": 357,
    "ily</w>": 1485,
    "ement</w>": 1713,
    "vent": 2062,
    "The</w>": 510,
    "window</w>": 1521,
    "else</w>": 1837,
    "started</w>": 1858,
    ",’</w>": 806,
    "<0xE2>": 230,
    "ctly</w>": 1936,
    "sett": 2147,
    "bell": 2275,
    "y,</w>": 486,
    "<": 288,
    "af": 613,
    "Fr": 1548,
    "considerable</w>": 1923,
    "led,</w>": 2120,
    "ant": 913,
    "ben": 2231,
    "<0x50>": 84,
    "<0x9D>": 161,
    "win": 735,
    "pow": 1854,
    "Turn": 2267,
    "something</w>": 1082,
    "<0x11>": 21,
    "fe</w>": 934,
    "Sim": 1252,
    "there</w>": 550,
    "large</w>": 1433,
    "<0xDF>": 227,
    "e-": 1436,
    "near</w>": 1639,
    "obvious</w>": 1823,
    "house": 1865,
    "recei": 2049,
    "seeing</w>": 2279,
    "st,</w>": 1119,
    "began</w>": 1937,
    "mes</w>": 553,
    "They</w>": 1525,
    "way.</w>": 2070,
    "shoulder": 1523,
    "coron": 2239,
    "gave</w>": 1223,
    "word</w>": 1680,
    "mur": 1393,
    "<0xA7>": 171,
    "viol": 1770,
    "w,</w>": 2107,
    "deal</w>": 2334,
    "follow": 1300,
    "hy": 2000,
    "rais": 1510,
    "experi": 2079,
    "Cla": 1400,
    "arly</w>": 1989,
    "where</w>": 795,
    "ice</w>": 1301,
    "cau": 1554,
    "<0xA6>": 170,
    "ne</w>": 1087,
    "gone</w>": 1839,
    "troub": 2066,
    "<0xEC>": 240,
    "p": 340,
    "throw": 2162,
    "rather</w>": 1133,
    "age</w>": 1015,
    "<0x60>": 100,
    "ide": 1562,
    "goose</w>": 2259,
    "fore</w>": 694,
    "k,</w>": 713,
    "conv": 1466,
    "ment,</w>": 2031,
    "his</w>": 396,
    "de": 437,
    "<0xEB>": 239,
    "ally</w>": 745,
    "out,</w>": 1667,
    "advertise": 1859,
    "far": 2288,
    "asked.</w>": 1616,
    "struck</w>": 2015,
    "<0x70>": 116,
    "after</w>": 878,
    "come</w>": 715,
    "or,</w>": 888,
    "<0x85>": 137,
    "sin": 1056,
    "help</w>": 1478,
    "co": 436,
    "drove</w>": 1663,
    "ty": 1880,
    "pas": 851,
    "Br": 1869,
    "oc": 960,
    "<0x47>": 75,
    "ings</w>": 1031,
    "Ang": 2201,
    "half-": 2027,
    "com": 675,
    "<0x06>": 10,
    "mis": 865,
    "take</w>": 942,
    "en</w>": 386,
    "daugh": 1870,
    "thor": 2304,
    "pen": 1098,
    "</s>": 2,
    "em": 629,
    "<0xD1>": 213,
    "my": 784,
    "e,”</w>": 2004,
    "can</w>": 647,
    "dar": 1060,
    "or.</w>": 1152,
    "Angel": 2203,
    "“H": 864,
    "us</w>": 693,
    "[": 319,
    "F": 298,
    "draw": 1284,
    "train</w>": 2245,
    "<0x37>": 59,
    "se": 384,
    "hat</w>": 467,
    "mer</w>": 1408,
    "can": 967,
    "This</w>": 1155,
    "over": 1353,
    "my</w>": 418,
    "“C": 1690,
    "ff": 830,
    "velo": 2191,
    "which</w>": 433,
    "entered</w>": 1999,
    "<0x1E>": 34,
    "op": 610,
    "ken</w>": 1556,
    "corner</w>": 1846,
    "suc": 1515,
    "thou": 2254,
    "sup": 1184,
    "lor": 1717,
    "gh</w>": 594,
    "<0x30>": 52,
    "Watson,”</w>": 2141,
    "sign</w>": 2322,
    "<0x9B>": 159,
    "<0x7D>": 129,
    "lock</w>": 698,
    "Holmes’</w>": 2177,
    "ing.”</w>": 1390,
    "strang": 2299,
    "him.</w>": 887,
    "est</w>": 690,
    "mu": 712,
    "soon</w>": 1600,
    "better</w>": 1378,
    "father,</w>": 1926,
    "ashed</w>": 2173,
    "whether</w>": 1471,
    "<0xD4>": 216,
    "<0x0A>": 14,
    "Lor": 1246,
    "Holmes</w>": 609,
    "“We</w>": 1731,
    "There</w>": 666,
    "table</w>": 1827,
    "ve,</w>": 1312,
    "p,</w>": 1679,
    "cannot</w>": 1313,
    "bre": 886,
    "two</w>": 726,
    "dres": 856,
    "indi": 1227,
    "ine</w>": 999,
    "ards</w>": 1678,
    "man’s</w>": 1664,
    "ke</w>": 626,
    "bl": 739,
    "brought</w>": 1205,
    "zed</w>": 1942,
    "Ger": 2225,
    "ju": 1529,
    "P": 308,
    "sugg": 1658,
    "<0x80>": 132,
    "quite</w>": 933,
    "me.”</w>": 1431,
    "stand": 1483,
    "X": 316,
    "understand</w>": 1892,
    "tt": 1174,
    "want</w>": 1760,
    "e": 329,
    "as</w>": 375,
    "“I</w>": 517,
    "would</w>": 532,
    "w": 347,
    "I’ll</w>": 2200,
    "ou": 360,
    "<0x3F>": 67,
    "<0x6F>": 115,
    "fore,</w>": 1886,
    "you.</w>": 1156,
    "plac": 844,
    "ine": 2213,
    "twi": 1996,
    "inter": 839,
    "ob": 684,
    "dro": 1062,
    "him,</w>": 1063,
    "Wh": 1059,
    "pulled</w>": 2061,
    "pla": 989,
    "break": 1442,
    "than</w>": 669,
    "followed</w>": 1803,
    "<0x2D>": 49,
    "night": 1443,
    "adver": 1695,
    "Well,</w>": 1814,
    "wife</w>": 1625,
    "one.</w>": 1560,
    "perha": 1302,
    "letters</w>": 2157,
    "ort</w>": 1801,
    "der,</w>": 2262,
    "glanced</w>": 1874,
    "instant": 1919,
    "shoul": 1415,
    "<0xE5>": 233,
    "van": 1836,
    "00": 2318,
    "see</w>": 632,
    "sir": 1185,
    "get</w>": 1040,
    "reached</w>": 2199,
    "<0x87>": 139,
    "frien": 1200,
    "great</w>": 1127,
    "ling</w>": 1609,
    "hab": 1971,
    "tr": 538,
    "mat": 636,
    "called</w>": 1569,
    "re</w>": 1351,
    "When</w>": 1412,
    "d,</w>": 426,
    "y,”</w>": 1416,
    "murder": 1856,
    "order</w>": 2295,
    "et</w>": 526,
    "ser": 704,
    "wee": 1173,
    "cre": 842,
    "forward</w>": 2100,
    "Engl": 2122,
    "that,</w>": 1528,
    "<0x52>": 86,
    "<0xB0>": 180,
    "ation": 1795,
    "deep</w>": 1922,
    "suddenly</w>": 1482,
    "part</w>": 1794,
    "<0xFF>": 259,
    "saw</w>": 926,
    "ill": 1081,
    "pu": 1299,
    "pho": 1552,
    "wat": 1171,
    "course,</w>": 1740,
    "vie": 1893,
    "both</w>": 1392,
    "Roylo": 1761,
    "up</w>": 572,
    "father": 1574,
    "course</w>": 1553,
    "<0xCF>": 211,
    "Go": 1474,
    "N": 306,
    "<0x79>": 125,
    "look</w>": 1247,
    "What</w>": 1070,
    "man.</w>": 1245,
    "remember</w>": 2209,
    "me,”</w>": 2140,
    "cab": 1935,
    "<0x69>": 109,
    "E": 297,
    "offic": 1925,
    "<0xF8>": 252,
    "fr": 1034,
    "then</w>": 867,
    "Q": 309,
    "inv": 1386,
    "Then</w>": 768,
    "dg": 1228,
    "9": 285,
    "mac": 2022,
    "<0x0F>": 19,
    "pe</w>": 1026,
    "gar": 1296,
    "end</w>": 725,
    "Lond": 1250,
    "<0x7B>": 127,
    "attemp": 2051,
    "heard</w>": 793,
    "ost</w>": 794,
    "ved.</w>": 2287,
    "open</w>": 1449,
    "ting</w>": 1105,
    "ound,</w>": 1384,
    "secon": 1596,
    "chi": 1276,
    "ut</w>": 434,
    "examin": 1337,
    "ch.</w>": 2089,
    "in,</w>": 1543,
    "low,</w>": 1746,
    "Qu": 2075,
    "fortunate</w>": 2315,
    "really</w>": 1352,
    "fron": 1215,
    "facts</w>": 1722,
    "sat</w>": 1149,
    "pit": 1911,
    "Jo": 1508,
    "1": 277,
    "pie": 2174,
    "J": 302,
    "ca": 462,
    "sto": 1385,
    "pur": 1488,
    "polic": 1460,
    "se.”</w>": 2316,
    "<0xBB>": 191,
    "ough": 1103,
    "McCarth": 1242,
    "sign": 1699,
    "<0x25>": 41,
    "answer": 1380,
    "ve.</w>": 1702,
    "s-": 2036,
    "obje": 1887,
    "it?”</w>": 1949,
    "sy": 2080,
    "<0x24>": 40,
    "s,</w>": 476,
    "myself</w>": 1144,
    "times</w>": 1984,
    "kne": 1992,
    "sul": 1254,
    "possib": 1966,
    "unti": 963,
    "<0x3A>": 62,
    "believe</w>": 1683,
    "<0x91>": 149,
    "dis": 823,
    "hor": 1221,
    "<0x99>": 157,
    "“I": 876,
    "6": 282,
    "f": 330,
    "wo": 899,
    "cu": 880,
    "dr": 2236,
    "d.”</w>": 1283,
    "<0xB7>": 187,
    "Windi": 1753,
    "t,</w>": 503,
    "th,</w>": 1420,
    "fully</w>": 1738,
    "some": 804,
    "story</w>": 1939,
    "And</w>": 614,
    "cli": 1332,
    "way,</w>": 1653,
    "<0x6E>": 114,
    "evil": 1889,
    "We</w>": 869,
    "young</w>": 1036,
    "her,</w>": 1879,
    "Doct": 1629,
    "reason</w>": 2128,
    "$": 264,
    "fas": 1878,
    "=": 289,
    "coun": 910,
    "see": 1116,
    "ther</w>": 483,
    "five</w>": 1567,
    "pped</w>": 1280,
    "lan": 1607,
    "stra": 1891,
    "cir": 1987,
    "spect": 1355,
    "does</w>": 1544,
    "your</w>": 520,
    "<0x41>": 69,
    "given</w>": 1651,
    "ses</w>": 1084,
    "ici": 1159,
    "qu": 492,
    "second</w>": 1899,
    "her</w>": 508,
    "make</w>": 981,
    "fin": 663,
    "it.”</w>": 1446,
    "<0xD7>": 219,
    "<0xC7>": 203,
    "peop": 1912,
    "p.</w>": 2024,
    "ner": 1593,
    "<0x4E>": 82,
    "ved</w>": 821,
    "“This</w>": 1526,
    "su": 484,
    "fing": 1342,
    "tal": 1085,
    "woman</w>": 1534,
    "tely</w>": 1505,
    "against</w>": 1164,
    "buil": 1948,
    "bor": 1766,
    "R": 310,
    "Re": 1783,
    "ther,</w>": 1001,
    "ath": 1154,
    "er’s</w>": 1781,
    "side,</w>": 1915,
    "poin": 798,
    "ordinary</w>": 2040,
    "en.</w>": 1401,
    "pocke": 1872,
    "sitting</w>": 2353,
    "fel": 953,
    "nei": 1437,
    "rac": 1078,
    "ass</w>": 1585,
    "any</w>": 692,
    "Simon</w>": 1798,
    "best</w>": 1918,
    "ence.</w>": 1969,
    "enc": 1007,
    "<0xD5>": 217,
    "knew</w>": 1214,
    "remark": 1686,
    "ld</w>": 1983,
    "about</w>": 673,
    "da": 665,
    "Very</w>": 1626,
    "high</w>": 2235,
    "four</w>": 1603,
    "night</w>": 1395,
    "dark</w>": 1850,
    "<0x8E>": 146,
    "um": 686,
    "e,</w>": 447,
    "ks</w>": 949,
    "seven</w>": 1811,
    "don’t</w>": 1771,
    "cked</w>": 1481,
    "+": 271,
    "stat": 1802,
    "be</w>": 448,
    "son": 883,
    "id,</w>": 1365,
    "icul": 1788,
    "ry</w>": 835,
    "clu": 1232,
    "lay</w>": 1243,
    "whis": 1610,
    "<0x19>": 29,
    "avi": 2349,
    "“You</w>": 781,
    "Holmes.</w>": 889,
    "off": 1019,
    "sel": 534,
    "in</w>": 378,
    "house,</w>": 1905,
    "I.</w>": 1359,
    "police</w>": 1672,
    "ood</w>": 1121,
    "an</w>": 404,
    "form": 2007,
    "person</w>": 2337,
    "ear": 661,
    "star": 995,
    "Miss</w>": 1141,
    "you,”</w>": 2211,
    "casi": 2166,
    "<0x74>": 120,
    "go</w>": 952,
    "e.”</w>": 1193,
    "ted</w>": 599,
    "ade</w>": 705,
    "sing</w>": 1198,
    "other": 1308,
    "thre": 788,
    "ber": 1947,
    "“In</w>": 1972,
    "day": 2108,
    "ingly</w>": 2346,
    "<0x59>": 93,
    "heavy</w>": 1786,
    "to</w>": 364,
    "<0x0E>": 18,
    "stu": 2229,
    "gir": 1590,
    "/": 275,
    "the": 491,
    "well": 1175,
    "Su": 1644,
    "grey</w>": 2094,
    "for": 490,
    "but</w>": 479,
    "wed": 1790,
    "st</w>": 648,
    "find</w>": 968,
    "ri": 397,
    "With</w>": 2152,
    "pi": 873,
    "<0xA3>": 167,
    "inten": 2317,
    "\\": 320,
    "ir.</w>": 1573,
    "bed</w>": 1875,
    "heav": 1357,
    "re.</w>": 1142,
    "singular</w>": 1450,
    "na": 905,
    "detail": 1913,
    "lu": 1958,
    "ain": 554,
    "sent</w>": 1907,
    "sum": 2043,
    "li": 419,
    "<0xC1>": 197,
    "spo": 1176,
    "dra": 932,
    "feet</w>": 2093,
    "a.</w>": 2305,
    "cent": 1324,
    "gri": 1592,
    " ": 260,
    "5": 281,
    "}": 353,
    "pl": 617,
    "ci": 627,
    "marri": 1360,
    "making</w>": 2155,
    "ful": 1008,
    "THE</w>": 2164,
    "comple": 1963,
    "fast": 1745,
    "nothing</w>": 919,
    "oo": 454,
    "d.</w>": 624,
    "and,</w>": 737,
    "now</w>": 847,
    "d-": 958,
    "ertain": 1030,
    "ue</w>": 870,
    "let</w>": 1222,
    "account</w>": 2065,
    "s": 343,
    "18": 2333,
    "use</w>": 859,
    "without</w>": 1055,
    "broke</w>": 2347,
    "Bak": 1244,
    "call": 1282,
    "toge": 1407,
    "“And</w>": 792,
    "laugh": 1251,
    "felt</w>": 1522,
    "myster": 2320,
    "being</w>": 1202,
    "val": 1900,
    "%": 265,
    "interest": 1113,
    "man</w>": 529,
    "sleep": 2232,
    "inci": 1614,
    "exc": 1220,
    "y-": 1255,
    "<0x49>": 77,
    "Stre": 1012,
    "all": 602,
    "expe": 1688,
    "<0x46>": 74,
    "<0xCE>": 210,
    "down</w>": 620,
    "Roylot": 2276,
    "hour": 1557,
    "how</w>": 829,
    "id": 986,
    "visit": 1310,
    "dire": 1335,
    "so,</w>": 1535,
    "ble</w>": 812,
    "door.</w>": 2181,
    "<0xA0>": 164,
    "er,</w>": 760,
    "<0x09>": 13,
    "a": 325,
    "ation</w>": 787,
    "say</w>": 962,
    "umb": 1340,
    "ague</w>": 2086,
    "returned</w>": 1601,
    "hi": 367,
    "<0x20>": 36,
    "ance</w>": 764,
    "one,</w>": 1199,
    "Watson,</w>": 1399,
    "one</w>": 469,
    "ant</w>": 765,
    "gra": 1071,
    "Lord</w>": 1285,
    "client</w>": 2291,
    "<0xFD>": 257,
    "W": 315,
    "profession": 2281,
    "here,</w>": 2296,
    "coming</w>": 1735,
    "too,</w>": 2324,
    "him.”</w>": 2326,
    "night,</w>": 1697,
    "sor": 1281,
    "gli": 1784,
    "gentleman</w>": 1458,
    "each</w>": 1654,
    "mind</w>": 1293,
    "ask</w>": 1547,
    "allow": 2238,
    "morning,</w>": 1623,
    "cent</w>": 2037,
    "*": 270,
    "them,</w>": 2009,
    "hair</w>": 2105,
    "fami": 1406,
    "’ll</w>": 1451,
    "ain</w>": 1371,
    "wha": 2260,
    "have</w>": 416,
    "ery</w>": 1104,
    "fa": 515,
    "while</w>": 1021,
    "Hos": 1750,
    "<0x16>": 26,
    "satis": 2081,
    "aver": 2283,
    "drawn</w>": 1843,
    "gi": 702,
    "ray</w>": 1258,
    "ular</w>": 1426,
    "ant,</w>": 1988,
    "ty</w>": 938,
    "neigh": 1990,
    "ere</w>": 409,
    "on</w>": 388,
    "dow</w>": 1383,
    "ent": 452,
    "sing": 937,
    "termin": 1842,
    "seen</w>": 965,
    "however,</w>": 874,
    "ning</w>": 730,
    "<0x77>": 123,
    "ess</w>": 588,
    "four": 2277,
    "iss</w>": 1126,
    "afra": 2021,
    "acqu": 2339,
    "import": 1377,
    "pt</w>": 1719,
    "]": 321,
    "<0xA4>": 168,
    "You</w>": 561,
    "got</w>": 1145,
    "ady</w>": 775,
    "ward</w>": 1341,
    "<0x4A>": 78,
    "one.”</w>": 1928,
    "fer": 1533,
    "hur": 1112,
    "continu": 2124,
    "anc": 672,
    "either</w>": 1493,
    "ell,</w>": 796,
    "doubt": 2286,
    "simp": 1577,
    "ack": 1009,
    "tion</w>": 681,
    "<s>": 1,
    "time,</w>": 1561,
    "At</w>": 1715,
    "towards</w>": 2048,
    "nex": 1981,
    "hal": 1051,
    "mil": 1694,
    "waiting</w>": 1840,
    "Oh,</w>": 1906,
    "sta": 1321,
    "y.”</w>": 923,
    "left</w>": 918,
    "ad,</w>": 1349,
    "<0x4D>": 81,
    "<0x34>": 56,
    "pose</w>": 1752,
    "what</w>": 568,
    "off</w>": 1108,
    "looked</w>": 1188,
    "became</w>": 1637,
    "t-": 1721,
    "all.</w>": 1743,
    "d": 328,
    "self</w>": 657,
    "gl": 733,
    "Joh": 1611,
    "absolutely</w>": 1748,
    "gent": 974,
    "th</w>": 758,
    "ious</w>": 1588,
    "likely</w>": 1778,
    "“Th": 1411,
    "sun": 1780,
    "ently</w>": 1867,
    "Mon": 2029,
    "Opensha": 2187,
    "dropped</w>": 2251,
    "minutes</w>": 1655,
    "theor": 2192,
    "are</w>": 506,
    "<0xAA>": 174,
    "h,</w>": 747,
    "Hather": 1977,
    "gu": 1023,
    "sister</w>": 1828,
    "ward,</w>": 1997,
    "ct</w>": 850,
    "set</w>": 1333,
    "writ": 1499,
    "sion,</w>": 2151,
    "none</w>": 2306,
    "ordin": 2038,
    "<0x7C>": 128,
    "tri": 1350,
    "wro": 2340,
    "ster</w>": 1883,
    "did</w>": 697,
    "No": 701,
    "ought</w>": 746,
    "exa": 1134,
    "onel</w>": 1835,
    "tw": 621,
    ":": 286,
    "Bri": 1514,
    "seem": 881,
    "tion.</w>": 1985,
    "showed</w>": 2168,
    "<0xF2>": 246,
    "own</w>": 523,
    "ir,</w>": 1230,
    "<0x4C>": 80,
    "en": 369,
    "shall</w>": 652,
    "room.</w>": 1369,
    "laid</w>": 1532,
    "arri": 1944,
    "know</w>": 707,
    "lar": 1129,
    "<0x51>": 85,
    "by</w>": 518,
    "rown</w>": 1470,
    "fi": 595,
    "bloo": 1917,
    "ts.</w>": 2014,
    "pecu": 2050,
    "<0x75>": 121,
    "fes": 1329,
    "obvi": 1531,
    "ght.</w>": 1256,
    "vi": 631,
    "met</w>": 1487,
    "year": 890,
    "ru": 862,
    "t.”</w>": 1916,
    "appro": 2149,
    "stood</w>": 1549,
    "idea</w>": 2134,
    "James</w>": 2125,
    "who</w>": 582,
    "these</w>": 1052,
    "<0x21>": 37,
    "ust</w>": 524,
    "Do": 1413,
    "appeared</w>": 1860,
    "said</w>": 485,
    "present</w>": 1945,
    "day</w>": 900,
    "Adl": 2271,
    "n,</w>": 1241,
    "<0xB1>": 181,
    "us,</w>": 1941,
    "pa": 635,
    "son.</w>": 2016,
    "ity</w>": 982,
    "arm": 1157,
    "tched</w>": 2247,
    "ol": 393,
    "pri": 860,
    "ds.</w>": 1848,
    "show": 1673,
    "<0xA8>": 172,
    "dang": 1612,
    "Lestrad": 2135,
    "deep": 1797,
    "ert": 861,
    "ake</w>": 655,
    "Car": 1192,
    "ity.</w>": 1993,
    "lad</w>": 2179,
    "king</w>": 724,
    "<0xA9>": 173,
    "U": 313,
    "<0xB4>": 184,
    "th": 355,
    "list": 1751,
    "(": 268,
    "inde": 1109,
    "sound</w>": 2085,
    "?”</w>": 453,
    "squ": 2302,
    "case</w>": 892,
    "stair": 1830,
    "me.</w>": 744,
    "<0x17>": 27,
    "give</w>": 1153,
    "next</w>": 2138,
    ">": 290,
    "“W": 557,
    "iti": 832,
    "ross</w>": 1346,
    "eville</w>": 2001,
    "sir.</w>": 2344,
    "time</w>": 776,
    "<0x81>": 133,
    "pol": 947,
    "walked</w>": 1767,
    "that.</w>": 2159,
    "were</w>": 516,
    "<0x58>": 92,
    "hes</w>": 1896,
    "s?”</w>": 1714,
    "ach</w>": 1239,
    "ly,</w>": 906,
    "she": 1951,
    "care": 2077,
    "hurried</w>": 1868,
    "V": 314,
    "dd": 803,
    "leave</w>": 1291,
    "rati": 2204,
    "<0xCC>": 208,
    "<0xE8>": 236,
    "er": 359,
    "cur": 1016,
    "‘I</w>": 1976,
    "Majest": 2017,
    "beside</w>": 1763,
    "ing-": 1130,
    "Al": 2196,
    "<0x72>": 118,
    "medi": 2301,
    "black</w>": 1231,
    "<0xD6>": 218,
    "<0xE6>": 234,
    "<0xD2>": 214,
    "Th": 504,
    "sist": 893,
    "between</w>": 1166,
    "up,</w>": 1502,
    "instant</w>": 2090,
    "te": 559,
    "ay</w>": 451,
    "<0x32>": 54,
    "abo": 1550,
    "letter</w>": 1890,
    "resul": 1635,
    "among</w>": 1489,
    "“O": 789,
    "te</w>": 920,
    "it": 372,
    "b": 326,
    "ite</w>": 728,
    "sitting-": 2185,
    "present": 1959,
    "ab": 445,
    "vis": 1037,
    "ained</w>": 1323,
    "aper</w>": 1423,
    "t’s</w>": 1469,
    "plan": 1815,
    "ra": 477,
    "Le": 1425,
    "<0xDC>": 224,
    "ur</w>": 1536,
    "ll</w>": 430,
    "sm": 771,
    "inqu": 1862,
    "let": 1000,
    "photo": 1564,
    "th.</w>": 1759,
    "M": 305,
    "<0x55>": 89,
    "My</w>": 837,
    "ll": 921,
    "ear</w>": 2097,
    "<0xE4>": 232,
    "k.</w>": 1348,
    "ap": 600,
    "ween</w>": 1114,
    "ve</w>": 389,
    "even</w>": 1032,
    "wait": 1168,
    "pear": 931,
    "whom</w>": 1440,
    ".": 274,
    "cei": 1495,
    "such</w>": 777,
    "tow": 1575,
    "red-": 2167,
    "ard,</w>": 1980,
    "el": 450,
    "2": 278,
    "then": 924,
    "<0x5B>": 95,
    "att": 1555,
    "ent.</w>": 1475,
    "jo": 1701,
    "question</w>": 1768,
    "ing": 438,
    "so.</w>": 1338,
    "<0x40>": 68,
    "answered</w>": 1789,
    "<0x61>": 101,
    "A": 293,
    "with</w>": 427,
    "those</w>": 1028,
    "tic": 1207,
    "doing</w>": 1849,
    "blue</w>": 2161,
    "afterwar": 2189,
    "grap": 1414,
    "above</w>": 2042,
    "air</w>": 2278,
    "litt": 565,
    "urn": 1366,
    "much</w>": 810,
    "incid": 2341,
    "enough</w>": 1363,
    "then?”</w>": 1261,
    "cry</w>": 1634,
    "<0x65>": 105,
    "By</w>": 2246,
    "mber</w>": 1418,
    "remarkable</w>": 2165,
    "sat": 1933,
    "ered</w>": 929,
    "<0xFE>": 258,
    "8": 284,
    "His</w>": 1180,
    "work</w>": 1504,
    "ort": 1017,
    "“The</w>": 927,
    "ute</w>": 1657,
    "<0x8B>": 143,
    "fro": 458,
    "this</w>": 502,
    "du": 836,
    "we</w>": 488,
    "ard</w>": 643,
    "me,</w>": 660,
    "fe": 521,
    "you</w>": 410,
    "new</w>": 943,
    "youn": 951,
    "land": 1558,
    "thing": 2183,
    "Squ": 2272,
    "tic</w>": 2300,
    "bra": 2047,
    "family</w>": 2013,
    "disap": 1597,
    "fashi": 2109,
    "very</w>": 480,
    "vil": 2268,
    "inging</w>": 2323,
    "gn</w>": 1648,
    "shown</w>": 2292,
    "-": 273,
    "That</w>": 1169,
    "oscombe</w>": 2294,
    "“But</w>": 980,
    "ys</w>": 772,
    "<0xA2>": 166,
    "evening</w>": 2297,
    "sudd": 1136,
    "n.</w>": 1275,
    "Roy": 1744,
    "slow": 1986,
    "<0x27>": 43,
    "<0xAF>": 179,
    "has</w>": 551,
    "business</w>": 1181,
    "far</w>": 1201,
    "ster": 1272,
    "you?”</w>": 2282,
    "!”</w>": 729,
    "door": 1968,
    "y": 349,
    "any": 911,
    "just</w>": 774,
    "et,</w>": 1206,
    "cl": 699,
    "friend</w>": 1212,
    "<0x83>": 135,
    "er.</w>": 866,
    "ess.</w>": 1402,
    "<0x18>": 28,
    "<0xBD>": 193,
    "`": 324,
    "sion": 1457,
    "“A": 1101,
    "car": 742,
    "side.</w>": 2285,
    "conne": 2102,
    "under</w>": 1372,
    "to": 549,
    "bes": 1718,
    "mo": 606,
    "All</w>": 2126,
    "he.</w>": 998,
    "oured</w>": 1645,
    "late</w>": 2172,
    "{": 351,
    "paper</w>": 1604,
    "dedu": 1598,
    "slowly</w>": 2243,
    "so</w>": 513,
    "ds</w>": 667,
    "know": 809,
    "occur": 1964,
    "sc": 1035,
    "ook</w>": 1779,
    "utter": 2002,
    "<0x5F>": 99,
    "il</w>": 1675,
    "or</w>": 402,
    "place</w>": 1429,
    "!’</w>": 1427,
    "con": 487,
    "As</w>": 975,
    "ked</w>": 569,
    "<0x86>": 138,
    "several</w>": 1519,
    "e.</w>": 500,
    "es,</w>": 496,
    "after": 1297,
    "groun": 2329,
    "the</w>": 358,
    "too</w>": 1139,
    "<0x12>": 22,
    "bur": 1305,
    "So</w>": 1943,
    "o’": 1578,
    "headed</w>": 2143,
    "xed</w>": 2328,
    "u": 345,
    "Open": 2099,
    "indeed</w>": 2012,
    "promis": 2265,
    "diff": 1330,
    "expla": 1622,
    "oursel": 2133,
    "came</w>": 642,
    "@": 292,
    "es": 380,
    "<0xC6>": 202,
    "ter": 474,
    "told</w>": 1306,
    "cha": 615,
    "point</w>": 1705,
    "<0x2A>": 46,
    "<0xD8>": 220,
    "“No": 855,
    "ough</w>": 619,
    "he": 413,
    "pal": 1741,
    "their</w>": 853,
    "“A</w>": 1904,
    "is</w>": 387,
    "<0x9A>": 158,
    "<0x97>": 155,
    "par": 723,
    "Ha": 1248,
    "he</w>": 379,
    "rang</w>": 1640,
    "ago": 2011,
    "sha": 541,
    "he,</w>": 940,
    "mak": 1636,
    "oner</w>": 1732,
    "<0x76>": 122,
    "held</w>": 1692,
    "gged</w>": 2257,
    "one": 769,
    "It</w>": 489,
    "“Your</w>": 1967,
    "most</w>": 816,
    "chair,</w>": 2310,
    "lef": 824,
    "rep": 1757,
    "do</w>": 618,
    "re,</w>": 750,
    "eng": 1128,
    "same</w>": 1162,
    "least</w>": 1729,
    "dark": 1816,
    "afterno": 2112,
    "hand.</w>": 2289,
    "au": 1517,
    "Amer": 1954,
    "effect</w>": 2273,
    "col": 834,
    "dn": 1266,
    "turn</w>": 1358,
    "enly</w>": 1217,
    "ding</w>": 909,
    "ner,</w>": 2169,
    "attention</w>": 2250,
    "bet": 790,
    "eas": 1289,
    "prac": 1929,
    "row": 762,
    "comp": 683,
    "ith</w>": 425,
    "taken</w>": 1630,
    "<0x38>": 60,
    "tion": 2158,
    "<0x6A>": 110,
    "girl": 2091,
    "<0xE9>": 237,
    "consider": 1336,
    "known</w>": 1497,
    "<0xDE>": 226,
    "six</w>": 1897,
    "from</w>": 466,
    "imp": 736,
    "it</w>": 403,
    "cause</w>": 1345,
    "<0x45>": 73,
    "at": 382,
    "<0xD3>": 215,
    "ds,</w>": 1903,
    "feature": 2195,
    "custo": 2303,
    "pe,</w>": 2290,
    "ously</w>": 1910,
    "ac": 401,
    "oul": 423,
    "quiet</w>": 2270,
    "Do</w>": 1710,
    "den</w>": 1290,
    "vice</w>": 2252,
    "ran</w>": 1792,
    "—a</w>": 2351,
    "ow": 439,
    "“that</w>": 1888,
    "steps</w>": 2057,
    "<0x82>": 134,
    "ur": 420,
    "<0x96>": 154,
    "side</w>": 961,
    "son,</w>": 992,
    "placed</w>": 2144,
    "investig": 2280,
    "doubt</w>": 1225,
    "lic</w>": 1572,
    "clo": 785,
    "ef</w>": 2293,
    "cle": 721,
    "window": 1100,
    "“B": 1676,
    "?’</w>": 954,
    "then,</w>": 1014,
    "<unk>": 3,
    "white</w>": 1921,
    "ventilat": 2215,
    "fo": 808,
    "too": 754,
    "think</w>": 719,
    "death": 2033,
    "z": 350,
    "ole</w>": 1190,
    "McCarthy</w>": 1834,
    "row</w>": 1496,
    "ded</w>": 939,
    "bri": 897,
    "accoun": 1727,
    "un": 444,
    "<0xF1>": 245,
    "ves</w>": 1120,
    "may</w>": 634,
    "shi": 1376,
    "fac": 591,
    "ast": 1421,
    "tered</w>": 1479,
    "ther": 539,
    "ang": 612,
    "every</w>": 915,
    "ced</w>": 1424,
    "are": 1541,
    "“How</w>": 1864,
    "hard</w>": 1994,
    "id.</w>": 2116,
    "on.</w>": 670,
    "sub": 1613,
    "ast</w>": 674,
    "mean": 1441,
    "er</w>": 373,
    "int": 1513,
    "stru": 1311,
    "“T": 741,
    "ction</w>": 1140,
    "sle": 1216,
    "ep": 668,
    "<0x44>": 72,
    "cour": 891,
    "past</w>": 2214,
    "tail": 1582,
    "us.</w>": 1595,
    "ways</w>": 1074,
    "lin": 1398,
    "whisper": 2129,
    "remarked.</w>": 2298,
    "<0xC5>": 201,
    "here</w>": 969,
    "<0xF6>": 250,
    "ul": 567,
    "ght": 748,
    "Holmes,</w>": 753,
    "“Well,</w>": 1002,
    "in.</w>": 2176,
    "“Pray</w>": 2190,
    "enough": 2197,
    "whole</w>": 1295,
    "<0x95>": 153,
    "ell": 587,
    "<0x2C>": 48,
    "ever": 696,
    "|": 352,
    "An": 585,
    "rushed</w>": 1628,
    "so": 449,
    "able</w>": 623,
    "hardly</w>": 1211,
    "whe": 1163,
    "good</w>": 879,
    "s.”</w>": 871,
    "red</w>": 872,
    "ex": 505,
    "beg": 1435,
    "are,</w>": 1563,
    "though</w>": 984,
    "din": 1615,
    "hope</w>": 1633,
    "Now,</w>": 1646,
    "high": 1777,
    "Star": 2020,
    "marriage</w>": 2182,
    "should</w>": 625,
    "King</w>": 1885,
    "mp": 471,
    "dly</w>": 868,
    "lear": 1927,
    "ies</w>": 1787,
    "<0xCB>": 207,
    "half": 1819,
    "hin": 898,
    "la": 468,
    "lat": 956,
    "“Yes,</w>": 1072,
    "on": 365,
    "gg": 944,
    "cal</w>": 1278,
    "conclu": 1908,
    "Street</w>": 1930,
    "having</w>": 1086,
    "ushed</w>": 1132,
    "er.”</w>": 2240,
    "Arth": 2145,
    "#": 263,
    "_": 323,
    "tre": 1177,
    "opini": 2207,
    "G": 299,
    "of</w>": 368,
    "dow": 845,
    "ely</w>": 1373,
    "emp": 1749,
    "<0x9F>": 163,
    "“It</w>": 734,
    "carried</w>": 2035,
    "<0xE0>": 228,
    "out</w>": 460,
    "ed,</w>": 638,
    "sn": 2352,
    "ined</w>": 1656,
    "<0x28>": 44,
    "estr": 1262,
    "all,</w>": 1328,
    "Hosmer</w>": 1826,
    "wri": 1938,
    "Hol": 470,
    "since</w>": 1570,
    "<0x8F>": 147,
    "hear</w>": 1540,
    "bed": 1586,
    "“S": 1213,
    "“If</w>": 2210,
    "stre": 854,
    "gn": 1076,
    "sol": 827,
    "ond": 1165,
    "Mor": 1687,
    "rs.</w>": 1665,
    "Ar": 1539,
    "standing</w>": 1884,
    "ton</w>": 2044,
    "contr": 2045,
    "<0x00>": 4,
    "ir": 473,
    "ght,</w>": 908,
    "tor": 1882,
    "they</w>": 695,
    "<0x39>": 61,
    ",": 272,
    "during</w>": 1518,
    "door,</w>": 1818,
    "itu": 2058,
    "ever</w>": 945,
    "always</w>": 1125,
    "From</w>": 1957,
    "lad": 1379,
    "ther.</w>": 2309,
    "es</w>": 475,
    "a,</w>": 2087,
    "If</w>": 1182,
    "ating</w>": 1861,
    "done</w>": 1196,
    "“In": 2202,
    "<0x71>": 117,
    "sitt": 1422,
    "night.</w>": 1914,
    "ak</w>": 1267,
    "rel": 1711,
    "cover": 1405,
    "upon</w>": 472,
    "nar": 1409,
    "<0x7E>": 130,
    "mone": 1362,
    "<0xC3>": 199,
    "tra": 914,
    "lady</w>": 1375,
    "<0xF9>": 253,
    "<0x5E>": 98,
    "am": 691,
    "uring</w>": 1368,
    "pe": 493,
    "be": 398,
    "kin": 1343,
    "ga": 1057,
    "ly</w>": 399,
    "se.</w>": 1025,
    "talk</w>": 2188,
    "law": 1742,
    "Frank</w>": 2332,
    "remarked,</w>": 2224,
    "<0x67>": 107,
    "bi": 1754,
    "land</w>": 1782,
    "foo": 1468,
    "impres": 1877,
    "K": 303,
    "ma": 877,
    "pres": 751,
    "usu": 1591,
    "<0x8C>": 144,
    "coat": 1691,
    "peculiar</w>": 2153,
    "whi": 414,
    "keep</w>": 1716,
    "ni": 650,
    "until</w>": 976,
    "thin</w>": 2233,
    "Our</w>": 2335,
    "0": 276,
    "est": 535,
    "—”</w>": 2227,
    "<0xC4>": 200,
    "Maj": 1796,
    "St.</w>": 848,
    "pac": 1831,
    "photograph": 2249,
    "goo": 676,
    "whist": 2348,
    "ig": 2284,
    "room,</w>": 1229,
    "suff": 2180,
    "ke,</w>": 2220,
    "pro": 560,
    "words</w>": 1631,
    "inquir": 2221,
    "oscom": 2242,
    "home</w>": 1361,
    "determin": 1932,
    "ans": 807,
    "wif": 1901,
    "glancing</w>": 2032,
    "well-": 2342,
    "hear": 1058,
    "ack</w>": 645,
    "<0xFA>": 254,
    "cab</w>": 2084,
    "anyone</w>": 1832,
    "once</w>": 1096,
    "occasi": 2217,
    "<0x9E>": 162,
    "positi": 1339,
    "Wat": 852,
    "do": 509,
    "loo": 601,
    "sed</w>": 700,
    "cr": 1456,
    "ten": 882,
    "“There</w>": 1512,
    "<0xB6>": 186,
    "sear": 2055,
    "de</w>": 662,
    "ish": 2092,
    "morn": 1197,
    "st": 374,
    "impression</w>": 2234,
    "<0xFC>": 256,
    "that": 946,
    "<0xDA>": 222,
    "himself</w>": 1075,
    "seems</w>": 2083,
    "paper": 977,
    "sli": 1419,
    "<0xE7>": 235,
    "soci": 1649,
    "ll,</w>": 1509,
    "ony</w>": 1924,
    "ar": 370,
    "<0x62>": 102,
    "pp": 778,
    "<0x03>": 7,
    "<0xDB>": 223,
    "q": 341,
    "y.</w>": 536,
    "ight</w>": 1855,
    "led</w>": 651,
    "right": 2219,
    "for</w>": 442,
    "strong</w>": 1599,
    "more</w>": 685,
    "now,</w>": 1331,
    "v": 346,
    "<0xAD>": 177,
    "gener": 1979,
    "per": 531,
    "T": 312,
    "disa": 1455,
    "ce.</w>": 1970,
    "ate</w>": 688,
    "found</w>": 826,
    "seemed</w>": 1064,
    "used</w>": 1099,
    "sed,</w>": 1799,
    "<0x23>": 39,
    "es.</w>": 596,
    "des": 1006,
    "dear</w>": 1394,
    "possible</w>": 1571,
    "inst": 964,
    "bus": 828,
    "hol": 1501,
    "<0x05>": 9,
    "gentle": 1118,
    "strange</w>": 1367,
    "doct": 2064,
    "or": 377,
    "le,</w>": 928,
    "she</w>": 543,
    "wish</w>": 1270,
    "ome</w>": 1606,
    "thing</w>": 575,
    "bo": 637,
    "way</w>": 640,
    "clear</w>": 1467,
    "ents</w>": 1659,
    "Neville</w>": 2010,
    "Hatherle": 2059,
    "Mr.</w>": 576,
    "3": 279,
    "nat": 1148,
    "“Then</w>": 1294,
    "sudden</w>": 2163,
    "men": 1805,
    "whose</w>": 1962,
    "suspici": 2331,
    "addres": 1580,
    "opened</w>": 1762,
    "ow,</w>": 1317,
    "Ja": 1668,
    "“My</w>": 1354,
    "<0xF3>": 247,
    "le</w>": 422,
    ",”</w>": 465,
    "One</w>": 1755,
    "C": 295,
    "me": 406,
    "ably</w>": 1492,
    "feat": 2071,
    "minut": 1124,
    "liar</w>": 1617,
    "character": 1946,
    "there,</w>": 1809,
    "Let</w>": 2046,
    "fect</w>": 1726,
    "“Not</w>": 2136,
    "al": 385,
    "lic": 1194,
    "St": 718,
    "little</w>": 581,
    "o’clock</w>": 1881,
    "cat": 2132,
    "remained</w>": 2228,
    "remarked</w>": 1579,
    "country</w>": 2156,
    "Wil": 1491,
    "rem": 1520,
    "ure": 912,
    "ance.</w>": 1800,
    ")": 269,
    "looking</w>": 1257,
    "ence,</w>": 1602,
    "wi": 455,
    "your": 1048,
    "se</w>": 558,
    "under": 1041,
    "mb": 978,
    "investi": 2258,
    "ct": 641,
    "across</w>": 1486,
    "gre": 706,
    "aring</w>": 2222,
    "tell</w>": 941,
    "perhaps</w>": 1689,
    "easy</w>": 2142,
    "who": 1240,
    "ped</w>": 1259,
    "run": 1576,
    "ge</w>": 716,
    "caught</w>": 2060,
    "<0x78>": 124,
    "cou": 2117,
    "<0x3B>": 63,
    "them": 1065,
    "not</w>": 446,
    "<0xAB>": 175,
    "ght</w>": 459,
    "must</w>": 671,
    "spe": 819,
    "never</w>": 838,
    "man,</w>": 904,
    "<0xD0>": 212,
    "sil": 1083,
    "<0x9C>": 160,
    "ho": 546,
    "bb": 1447,
    "rible</w>": 1785,
    "out": 1038,
    "si": 417,
    "them</w>": 922,
    "moment</w>": 1772,
    "d,”</w>": 2321,
    "Fro": 1955,
    "ence</w>": 714,
    "days</w>": 1739,
    "<0x68>": 108,
    "ely.</w>": 2025,
    "cket</w>": 2274,
    "cri": 678,
    "<0xFB>": 255,
    "cont": 1147,
    "“He</w>": 1269,
    "Sher": 800,
    "ge": 831,
    "thought</w>": 1079,
    "le.</w>": 1315,
    "<0x63>": 103,
    "sprang</w>": 1844,
    "<0xA5>": 169,
    "made</w>": 799,
    "wal": 1066,
    "could</w>": 566,
    "room</w>": 841,
    "es.”</w>": 1253,
    "ple": 1265
  },
  "id_to_token": [
    "<pad>",
    "<s>",
    "</s>",
    "<unk>",
    "<0x00>",
    "<0x01>",
    "<0x02>",
    "<0x03>",
    "<0x04>",
    "<0x05>",
    "<0x06>",
    "<0x07>",
    "<0x08>",
    "<0x09>",
    "<0x0A>",
    "<0x0B>",
    "<0x0C>",
    "<0x0D>",
    "<0x0E>",
    "<0x0F>",
    "<0x10>",
    "<0x11>",
    "<0x12>",
    "<0x13>",
    "<0x14>",
    "<0x15>",
    "<0x16>",
    "<0x17>",
    "<0x18>",
    "<0x19>",
    "<0x1A>",
    "<0x1B>",
    "<0x1C>",
    "<0x1D>",
    "<0x1E>",
    "<0x1F>",
    "<0x20>",
    "<0x21>",
    "<0x22>",
    "<0x23>",
    "<0x24>",
    "<0x25>",
    "<0x26>",
    "<0x27>",
    "<0x28>",
    "<0x29>",
    "<0x2A>",
    "<0x2B>",
    "<0x2C>",
    "<0x2D>",
    "<0x2E>",
    "<0x2F>",
    "<0x30>",
    "<0x31>",
    "<0x32>",
    "<0x33>",
    "<0x34>",
    "<0x35>",
    "<0x36>",
    "<0x37>",
    "<0x38>",
    "<0x39>",
    "<0x3A>",
    "<0x3B>",
    "<0x3C>",
    "<0x3D>",
    "<0x3E>",
    "<0x3F>",
    "<0x40>",
    "<0x41>",
    "<0x42>",
    "<0x43>",
    "<0x44>",
    "<0x45>",
    "<0x46>",
    "<0x47>",
    "<0x48>",
    "<0x49>",
    "<0x4A>",
    "<0x4B>",
    "<0x4C>",
    "<0x4D>",
    "<0x4E>",
    "<0x4F>",
    "<0x50>",
    "<0x51>",
    "<0x52>",
    "<0x53>",
    "<0x54>",
    "<0x55>",
    "<0x56>",
    "<0x57>",
    "<0x58>",
    "<0x59>",
    "<0x5A>",
    "<0x5B>",
    "<0x5C>",
    "<0x5D>",
    "<0x5E>",
    "<0x5F>",
    "<0x60>",
    "<0x61>",
    "<0x62>",
    "<0x63>",
    "<0x64>",
    "<0x65>",
    "<0x66>",
    "<0x67>",
    "<0x68>",
    "<0x69>",
    "<0x6A>",
    "<0x6B>",
    "<0x6C>",
    "<0x6D>",
    "<0x6E>",
    "<0x6F>",
    "<0x70>",
    "<0x71>",
    "<0x72>",
    "<0x73>",
    "<0x74>",
    "<0x75>",
    "<0x76>",
    "<0x77>",
    "<0x78>",
    "<0x79>",
    "<0x7A>",
    "<0x7B>",
    "<0x7C>",
    "<0x7D>",
    "<0x7E>",
    "<0x7F>",
    "<0x80>",
    "<0x81>",
    "<0x82>",
    "<0x83>",
    "<0x84>",
    "<0x85>",
    "<0x86>",
    "<0x87>",
    "<0x88>",
    "<0x89>",
    "<0x8A>",
    "<0x8B>",
    "<0x8C>",
    "<0x8D>",
    "<0x8E>",
    "<0x8F>",
    "<0x90>",
    "<0x91>",
    "<0x92>",
    "<0x93>",
    "<0x94>",
    "<0x95>",
    "<0x96>",
    "<0x97>",
    "<0x98>",
    "<0x99>",
    "<0x9A>",
    "<0x9B>",
    "<0x9C>",
    "<0x9D>",
    "<0x9E>",
    "<0x9F>",
    "<0xA0>",
    "<0xA1>",
    "<0xA2>",
    "<0xA3>",
    "<0xA4>",
    "<0xA5>",
    "<0xA6>",
    "<0xA7>",
    "<0xA8>",
    "<0xA9>",
    "<0xAA>",
    "<0xAB>",
    "<0xAC>",
    "<0xAD>",
    "<0xAE>",
    "<0xAF>",
    "<0xB0>",
    "<0xB1>",
    "<0xB2>",
    "<0xB3>",
    "<0xB4>",
    "<0xB5>",
    "<0xB6>",
    "<0xB7>",
    "<0xB8>",
    "<0xB9>",
    "<0xBA>",
    "<0xBB>",
    "<0xBC>",
    "<0xBD>",
    "<0xBE>",
    "<0xBF>",
    "<0xC0>",
    "<0xC1>",
    "<0xC2>",
    "<0xC3>",
    "<0xC4>",
    "<0xC5>",
    "<0xC6>",
    "<0xC7>",
    "<0xC8>",
    "<0xC9>",
    "<0xCA>",
    "<0xCB>",
    "<0xCC>",
    "<0xCD>",
    "<0xCE>",
    "<0xCF>",
    "<0xD0>",
    "<0xD1>",
    "<0xD2>",
    "<0xD3>",
    "<0xD4>",
    "<0xD5>",
    "<0xD6>",
    "<0xD7>",
    "<0xD8>",
    "<0xD9>",
    "<0xDA>",
    "<0xDB>",
    "<0xDC>",
    "<0xDD>",
    "<0xDE>",
    "<0xDF>",
    "<0xE0>",
    "<0xE1>",
    "<0xE2>",
    "<0xE3>",
    "<0xE4>",
    "<0xE5>",
    "<0xE6>",
    "<0xE7>",
    "<0xE8>",
    "<0xE9>",
    "<0xEA>",
    "<0xEB>",
    "<0xEC>",
    "<0xED>",
    "<0xEE>",
    "<0xEF>",
    "<0xF0>",
    "<0xF1>",
    "<0xF2>",
    "<0xF3>",
    "<0xF4>",
    "<0xF5>",
    "<0xF6>",
    "<0xF7>",
    "<0xF8>",
    "<0xF9>",
    "<0xFA>",
    "<0xFB>",
    "<0xFC>",
    "<0xFD>",
    "<0xFE>",
    "<0xFF>",
    " ",
    "!",
    "\"",
    "#",
    "$",
    "%",
    "&",
    "'",
    "(",
    ")",
    "*",
    "+",
    ",",
    "-",
    ".",
    "/",
    "0",
    "1",
    "2",
    "3",
    "4",
    "5",
    "6",
    "7",
    "8",
    "9",
    ":",
    ";",
    "<",
    "=",
    ">",
    "?",
    "@",
    "A",
    "B",
    "C",
    "D",
    "E",
    "F",
    "G",
    "H",
    "I",
    "J",
    "K",
    "L",
    "M",
    "N",
    "O",
    "P",
    "Q",
    "R",
    "S",
    "T",
    "U",
    "V",
    "W",
    "X",
    "Y",
    "Z",
    "[",
    "\\",
    "]",
    "^",
    "_",
    "`",
    "a",
    "b",
    "c",
    "d",
    "e",
    "f",
    "g",
    "h",
    "i",
    "j",
    "k",
    "l",
    "m",
    "n",
    "o",
    "p",
    "q",
    "r",
    "s",
    "t",
    "u",
    "v",
    "w",
    "x",
    "y",
    "z",
    "{",
    "|",
    "}",
    "~",
    "th",
    "in",
    "an",
    "the</w>",
    "er",
    "ou",
    "ha",
    "ed</w>",
    "and</w>",
    "to</w>",
    "on",
    "re",
    "hi",
    "of</w>",
    "en",
    "ar",
    "at</w>",
    "it",
    "er</w>",
    "st",
    "as</w>",
    "ing</w>",
    "or",
    "in</w>",
    "he</w>",
    "es",
    "ro",
    "at",
    "that</w>",
    "se",
    "al",
    "en</w>",
    "is</w>",
    "on</w>",
    "ve</w>",
    "no",
    "was</w>",
    "me</w>",
    "ol",
    "ou</w>",
    ".”</w>",
    "his</w>",
    "ri",
    "be",
    "ly</w>",
    "le",
    "ac",
    "or</w>",
    "it</w>",
    "an</w>",
    "ch</w>",
    "me",
    "lo",
    "as",
    "ere</w>",
    "you</w>",
    "gh",
    "sa",
    "he",
    "whi",
    "ti",
    "have</w>",
    "si",
    "my</w>",
    "li",
    "ur",
    "us",
    "le</w>",
    "oul",
    "ver",
    "ith</w>",
    "d,</w>",
    "with</w>",
    "wh",
    "had</w>",
    "ll</w>",
    "ould</w>",
    "ad",
    "which</w>",
    "ut</w>",
    "id</w>",
    "co",
    "de",
    "ing",
    "ow",
    "you",
    "is",
    "for</w>",
    "up",
    "un",
    "ab",
    "not</w>",
    "e,</w>",
    "be</w>",
    "so",
    "el",
    "ay</w>",
    "ent",
    "?”</w>",
    "oo",
    "wi",
    "ce</w>",
    "ag",
    "fro",
    "ght</w>",
    "out</w>",
    "sh",
    "ca",
    "os",
    "ne",
    ",”</w>",
    "from</w>",
    "hat</w>",
    "la",
    "one</w>",
    "Hol",
    "mp",
    "upon</w>",
    "ir",
    "ter",
    "es</w>",
    "s,</w>",
    "ra",
    "ed",
    "but</w>",
    "very</w>",
    "all</w>",
    "oun",
    "ther</w>",
    "su",
    "said</w>",
    "y,</w>",
    "con",
    "we</w>",
    "It</w>",
    "for",
    "the",
    "qu",
    "pe",
    "ver</w>",
    "ak",
    "es,</w>",
    "been</w>",
    "di",
    "ent</w>",
    "e.</w>",
    "s.</w>",
    "this</w>",
    "t,</w>",
    "Th",
    "ex",
    "are</w>",
    "il",
    "her</w>",
    "do",
    "The</w>",
    "itt",
    "res",
    "so</w>",
    "ic",
    "fa",
    "were</w>",
    "“I</w>",
    "by</w>",
    "and",
    "your</w>",
    "fe",
    "’s</w>",
    "own</w>",
    "ust</w>",
    "our</w>",
    "et</w>",
    "r.</w>",
    "He</w>",
    "man</w>",
    "t.</w>",
    "per",
    "would</w>",
    "al</w>",
    "sel",
    "est",
    "y.</w>",
    "man",
    "tr",
    "ther",
    "mor",
    "sha",
    "we",
    "she</w>",
    "ter</w>",
    "ati",
    "ho",
    "mi",
    "no</w>",
    "to",
    "there</w>",
    "has</w>",
    "po",
    "mes</w>",
    "ain",
    "ch",
    "into</w>",
    "“W",
    "se</w>",
    "te",
    "pro",
    "You</w>",
    "Holm",
    "him",
    "ar</w>",
    "litt",
    "could</w>",
    "ul",
    "what</w>",
    "ked</w>",
    "when</w>",
    "our",
    "up</w>",
    "der",
    "min",
    "thing</w>",
    "Mr.</w>",
    "him</w>",
    "will</w>",
    "kno",
    "some</w>",
    "little</w>",
    "who</w>",
    "roo",
    "mar",
    "An",
    "wa",
    "ell",
    "ess</w>",
    "“‘",
    "her",
    "fac",
    "ke",
    "ir</w>",
    "gh</w>",
    "fi",
    "es.</w>",
    "ev",
    "on,</w>",
    "ted</w>",
    "ap",
    "loo",
    "all",
    "wor",
    "ut",
    "ound</w>",
    "mo",
    "ed.</w>",
    "am</w>",
    "Holmes</w>",
    "op",
    "ck</w>",
    "ang",
    "af",
    "And</w>",
    "cha",
    "ce",
    "pl",
    "do</w>",
    "ough</w>",
    "down</w>",
    "tw",
    "thin",
    "able</w>",
    "d.</w>",
    "should</w>",
    "ke</w>",
    "ci",
    "tur",
    "em",
    "if</w>",
    "vi",
    "see</w>",
    "pos",
    "may</w>",
    "pa",
    "mat",
    "bo",
    "ed,</w>",
    "en,</w>",
    "way</w>",
    "ct",
    "came</w>",
    "ard</w>",
    "str",
    "ack</w>",
    "But</w>",
    "can</w>",
    "st</w>",
    "other</w>",
    "ni",
    "led</w>",
    "shall</w>",
    "over</w>",
    "of",
    "ake</w>",
    "ong</w>",
    "self</w>",
    "ad</w>",
    ".’</w>",
    "me,</w>",
    "ear",
    "de</w>",
    "fin",
    "et",
    "da",
    "There</w>",
    "ds</w>",
    "ep",
    "than</w>",
    "on.</w>",
    "must</w>",
    "anc",
    "about</w>",
    "ast</w>",
    "com",
    "goo",
    "ing,</w>",
    "cri",
    "only</w>",
    "ous</w>",
    "tion</w>",
    "low",
    "comp",
    "ob",
    "more</w>",
    "um",
    "old</w>",
    "ate</w>",
    "ey",
    "est</w>",
    "am",
    "any</w>",
    "us</w>",
    "fore</w>",
    "they</w>",
    "ever",
    "did</w>",
    "lock</w>",
    "cl",
    "sed</w>",
    "No",
    "gi",
    "ts</w>",
    "ser",
    "ade</w>",
    "gre",
    "know</w>",
    "ure</w>",
    "before</w>",
    "hou",
    "hed</w>",
    "mu",
    "k,</w>",
    "ence</w>",
    "come</w>",
    "ge</w>",
    "br",
    "St",
    "think</w>",
    "room",
    "cle",
    "pre",
    "par",
    "king</w>",
    "end</w>",
    "two</w>",
    "hand",
    "ite</w>",
    "!”</w>",
    "ning</w>",
    "“Y",
    "go",
    "gl",
    "“It</w>",
    "win",
    "imp",
    "and,</w>",
    "cor",
    "bl",
    "ving</w>",
    "“T",
    "car",
    "ing.</w>",
    "me.</w>",
    "ally</w>",
    "ought</w>",
    "h,</w>",
    "ght",
    "oub",
    "re,</w>",
    "pres",
    "im",
    "Holmes,</w>",
    "too",
    "cas",
    "der</w>",
    "with",
    "th</w>",
    "fir",
    "er,</w>",
    "se,</w>",
    "row",
    "it.</w>",
    "ance</w>",
    "ant</w>",
    "gr",
    "might</w>",
    "Then</w>",
    "one",
    "fri",
    "sm",
    "ys</w>",
    "ned</w>",
    "just</w>",
    "ady</w>",
    "time</w>",
    "such</w>",
    "pp",
    "ave</w>",
    "sp",
    "“You</w>",
    "ck",
    "remar",
    "my",
    "clo",
    "har",
    "ation</w>",
    "thre",
    "“O",
    "bet",
    "back</w>",
    "“And</w>",
    "heard</w>",
    "ost</w>",
    "where</w>",
    "ell,</w>",
    "how",
    "poin",
    "made</w>",
    "Sher",
    "Sherlock</w>",
    "hel",
    "dd",
    "some",
    "doub",
    ",’</w>",
    "ans",
    "fo",
    "know",
    "much</w>",
    "like</w>",
    "ble</w>",
    "it,</w>",
    "thr",
    "ened</w>",
    "most</w>",
    "ose</w>",
    "ying</w>",
    "spe",
    "wr",
    "ved</w>",
    "ever,</w>",
    "dis",
    "lef",
    "its</w>",
    "found</w>",
    "sol",
    "bus",
    "how</w>",
    "ff",
    "ge",
    "iti",
    "ve",
    "col",
    "ry</w>",
    "du",
    "My</w>",
    "never</w>",
    "inter",
    "av",
    "room</w>",
    "cre",
    "’t</w>",
    "plac",
    "dow",
    "fu",
    "now</w>",
    "St.</w>",
    "She</w>",
    "ct</w>",
    "pas",
    "Wat",
    "their</w>",
    "stre",
    "“No",
    "dres",
    "low</w>",
    "again",
    "use</w>",
    "pri",
    "ert",
    "ru",
    "sti",
    "“H",
    "mis",
    "er.</w>",
    "then</w>",
    "dly</w>",
    "We</w>",
    "ue</w>",
    "s.”</w>",
    "red</w>",
    "pi",
    "however,</w>",
    "esti",
    "“I",
    "ma",
    "after</w>",
    "good</w>",
    "cu",
    "seem",
    "ten",
    "son",
    "took</w>",
    "ary</w>",
    "bre",
    "him.</w>",
    "or,</w>",
    "Holmes.</w>",
    "year",
    "cour",
    "case</w>",
    "sist",
    "ese</w>",
    "away</w>",
    "ment",
    "bri",
    "hin",
    "wo",
    "day</w>",
    "ried</w>",
    "now",
    "ank</w>",
    "man,</w>",
    "na",
    "ly,</w>",
    "answ",
    "ght,</w>",
    "ding</w>",
    "coun",
    "any",
    "ure",
    "ant",
    "tra",
    "every</w>",
    "through</w>",
    "face</w>",
    "left</w>",
    "nothing</w>",
    "te</w>",
    "ll",
    "them</w>",
    "y.”</w>",
    "then",
    "ep</w>",
    "saw</w>",
    "“The</w>",
    "le,</w>",
    "ered</w>",
    "busin",
    "pear",
    "dra",
    "quite</w>",
    "fe</w>",
    "few</w>",
    "small</w>",
    "sing",
    "ty</w>",
    "ded</w>",
    "he,</w>",
    "tell</w>",
    "take</w>",
    "new</w>",
    "gg",
    "ever</w>",
    "that",
    "pol",
    "last</w>",
    "ks</w>",
    "turned</w>",
    "youn",
    "go</w>",
    "fel",
    "?’</w>",
    "fol",
    "lat",
    "less</w>",
    "d-",
    "wis",
    "oc",
    "side</w>",
    "say</w>",
    "unti",
    "inst",
    "seen</w>",
    "ps</w>",
    "can",
    "find</w>",
    "here</w>",
    "war",
    "door</w>",
    "matter</w>",
    "ven</w>",
    "gent",
    "As</w>",
    "until</w>",
    "paper",
    "mb",
    "long</w>",
    "“But</w>",
    "make</w>",
    "ity</w>",
    "je",
    "though</w>",
    "light</w>",
    "id",
    "ner</w>",
    "hand</w>",
    "pla",
    "step",
    "sion</w>",
    "son,</w>",
    "self",
    "bro",
    "star",
    "ons</w>",
    "ugh",
    "he.</w>",
    "ine</w>",
    "let",
    "ther,</w>",
    "“Well,</w>",
    "matter",
    "fl",
    "ong",
    "des",
    "enc",
    "ful",
    "ack",
    "right</w>",
    "put</w>",
    "Stre",
    "comm",
    "then,</w>",
    "age</w>",
    "cur",
    "ort",
    "ment</w>",
    "off",
    "ange</w>",
    "while</w>",
    "fore",
    "gu",
    "ful</w>",
    "se.</w>",
    "pe</w>",
    "first</w>",
    "those</w>",
    "dre",
    "ertain",
    "ings</w>",
    "even</w>",
    "ready</w>",
    "fr",
    "sc",
    "young</w>",
    "vis",
    "out",
    "ess",
    "get</w>",
    "under",
    "ated</w>",
    "sur",
    "you,</w>",
    "head",
    "bu",
    "father</w>",
    "your",
    "ow</w>",
    "tak",
    "hal",
    "these</w>",
    "“Oh,</w>",
    "round</w>",
    "without</w>",
    "sin",
    "ga",
    "hear",
    "Wh",
    "dar",
    "side",
    "dro",
    "him,</w>",
    "seemed</w>",
    "them",
    "wal",
    "ta",
    "ly.</w>",
    "possi",
    "What</w>",
    "gra",
    "“Yes,</w>",
    "enti",
    "ways</w>",
    "himself</w>",
    "gn",
    "qui",
    "rac",
    "thought</w>",
    "three</w>",
    "ill",
    "something</w>",
    "sil",
    "ses</w>",
    "tal",
    "having</w>",
    "ne</w>",
    "ei",
    "Holmes",
    "to-",
    "appear",
    "ers</w>",
    "eyes</w>",
    "ros",
    "still</w>",
    "once</w>",
    "went</w>",
    "pen",
    "used</w>",
    "window",
    "“A",
    "mer",
    "ough",
    "ery</w>",
    "ting</w>",
    "lar</w>",
    "reas",
    "off</w>",
    "inde",
    "years</w>",
    "ble",
    "hur",
    "interest",
    "ween</w>",
    "che",
    "see",
    "yet</w>",
    "gentle",
    "st,</w>",
    "ves</w>",
    "ood</w>",
    "questi",
    "In</w>",
    "minut",
    "always</w>",
    "iss</w>",
    "great</w>",
    "eng",
    "lar",
    "ing-",
    "son</w>",
    "ushed</w>",
    "rather</w>",
    "exa",
    "underst",
    "sudd",
    "obser",
    "med</w>",
    "too</w>",
    "ction</w>",
    "Miss</w>",
    "re.</w>",
    "tru",
    "myself</w>",
    "got</w>",
    "fort",
    "cont",
    "nat",
    "sat</w>",
    "ous",
    "hey</w>",
    "or.</w>",
    "give</w>",
    "ath",
    "This</w>",
    "you.</w>",
    "arm",
    "house</w>",
    "ici",
    "ef",
    "well</w>",
    "same</w>",
    "whe",
    "against</w>",
    "ond",
    "between</w>",
    "ked.</w>",
    "wait",
    "That</w>",
    "Mc",
    "wat",
    "mon",
    "wee",
    "tt",
    "well",
    "spo",
    "tre",
    "dri",
    "ent,</w>",
    "His</w>",
    "business</w>",
    "If</w>",
    "cti",
    "sup",
    "sir",
    "“Wh",
    "ani",
    "looked</w>",
    "stor",
    "ole</w>",
    "glanc",
    "Car",
    "e.”</w>",
    "lic",
    "“What</w>",
    "done</w>",
    "morn",
    "sing</w>",
    "one,</w>",
    "frien",
    "far</w>",
    "being</w>",
    "happ",
    "asked</w>",
    "brought</w>",
    "et,</w>",
    "tic",
    "morning</w>",
    "chair</w>",
    "consi",
    "hardly</w>",
    "friend</w>",
    "“S",
    "knew</w>",
    "fron",
    "sle",
    "enly</w>",
    "certain",
    "ched</w>",
    "exc",
    "hor",
    "let</w>",
    "gave</w>",
    "is,</w>",
    "doubt</w>",
    "behin",
    "indi",
    "dg",
    "room,</w>",
    "ir,</w>",
    "black</w>",
    "clu",
    "ist",
    "dist",
    "within</w>",
    "already</w>",
    "McCar",
    "head</w>",
    "ach</w>",
    "who",
    "n,</w>",
    "McCarth",
    "lay</w>",
    "Bak",
    "man.</w>",
    "Lor",
    "look</w>",
    "Ha",
    "Ro",
    "Lond",
    "laugh",
    "Sim",
    "es.”</w>",
    "sul",
    "y-",
    "ght.</w>",
    "looking</w>",
    "ray</w>",
    "ped</w>",
    "beli",
    "then?”</w>",
    "estr",
    "new",
    "name</w>",
    "ple",
    "dn",
    "ak</w>",
    "“N",
    "“He</w>",
    "wish</w>",
    "on.”</w>",
    "ster",
    "compani",
    "on’t</w>",
    "n.</w>",
    "chi",
    "Lestr",
    "cal</w>",
    "ran",
    "pped</w>",
    "sor",
    "call",
    "d.”</w>",
    "draw",
    "Lord</w>",
    "call</w>",
    "En",
    "absol",
    "eas",
    "den</w>",
    "leave</w>",
    "fortun",
    "mind</w>",
    "“Then</w>",
    "whole</w>",
    "gar",
    "after",
    "fre",
    "pu",
    "follow",
    "ice</w>",
    "perha",
    "“P",
    "hun",
    "bur",
    "told</w>",
    "ening</w>",
    "other",
    "adv",
    "visit",
    "stru",
    "ve,</w>",
    "cannot</w>",
    "trac",
    "le.</w>",
    "hands</w>",
    "ow,</w>",
    "“No,</w>",
    "sho",
    "les</w>",
    "sta",
    "day,</w>",
    "ained</w>",
    "cent",
    "clear",
    "anything</w>",
    "also</w>",
    "all,</w>",
    "fes",
    "diff",
    "now,</w>",
    "cli",
    "set</w>",
    "behind</w>",
    "dire",
    "consider",
    "examin",
    "so.</w>",
    "positi",
    "umb",
    "ward</w>",
    "fing",
    "kin",
    "vo",
    "cause</w>",
    "ross</w>",
    "front</w>",
    "k.</w>",
    "ad,</w>",
    "tri",
    "re</w>",
    "really</w>",
    "over",
    "“My</w>",
    "spect",
    "temp",
    "heav",
    "turn</w>",
    "I.</w>",
    "marri",
    "home</w>",
    "mone",
    "enough</w>",
    "ked,</w>",
    "id,</w>",
    "urn",
    "strange</w>",
    "uring</w>",
    "room.</w>",
    "ide</w>",
    "ain</w>",
    "under</w>",
    "ely</w>",
    "many</w>",
    "lady</w>",
    "shi",
    "import",
    "better</w>",
    "lad",
    "answer",
    "cla",
    "was",
    "dow</w>",
    "ound,</w>",
    "sto",
    "inv",
    "save</w>",
    "half</w>",
    "ch,</w>",
    "ing.”</w>",
    "flo",
    "both</w>",
    "mur",
    "dear</w>",
    "night</w>",
    "letter",
    "dy</w>",
    "lin",
    "Watson,</w>",
    "Cla",
    "en.</w>",
    "ess.</w>",
    "dge</w>",
    "men</w>",
    "cover",
    "fami",
    "toge",
    "mer</w>",
    "nar",
    "woo",
    "“Th",
    "When</w>",
    "Do",
    "grap",
    "shoul",
    "y,”</w>",
    "boo",
    "mber</w>",
    "sli",
    "th,</w>",
    "ast",
    "sitt",
    "aper</w>",
    "ced</w>",
    "Le",
    "ular</w>",
    "!’</w>",
    "ess,</w>",
    "place</w>",
    "et.</w>",
    "me.”</w>",
    "stri",
    "large</w>",
    "countr",
    "beg",
    "e-",
    "nei",
    "why</w>",
    "“That</w>",
    "whom</w>",
    "mean",
    "break",
    "night",
    "On</w>",
    "long",
    "it.”</w>",
    "bb",
    "pul",
    "open</w>",
    "singular</w>",
    "’ll</w>",
    "ere",
    "sure</w>",
    "ation.</w>",
    "disa",
    "cr",
    "sion",
    "gentleman</w>",
    "you.”</w>",
    "polic",
    "evid",
    "ten</w>",
    "hand,</w>",
    "there",
    "ath</w>",
    "conv",
    "clear</w>",
    "foo",
    "t’s</w>",
    "rown</w>",
    "whether</w>",
    "sever",
    "atten",
    "Go",
    "ent.</w>",
    "cted</w>",
    "ban",
    "help</w>",
    "tered</w>",
    "ali",
    "cked</w>",
    "suddenly</w>",
    "stand",
    "Dr.</w>",
    "ily</w>",
    "across</w>",
    "met</w>",
    "pur",
    "among</w>",
    "hu",
    "Wil",
    "ably</w>",
    "either</w>",
    "passed</w>",
    "cei",
    "row</w>",
    "known</w>",
    "assist",
    "writ",
    "another</w>",
    "hol",
    "up,</w>",
    "I,</w>",
    "work</w>",
    "tely</w>",
    "Baker</w>",
    "ener",
    "Jo",
    "ll,</w>",
    "rais",
    "ged</w>",
    "“There</w>",
    "int",
    "Bri",
    "suc",
    "utely</w>",
    "au",
    "during</w>",
    "several</w>",
    "rem",
    "window</w>",
    "felt</w>",
    "shoulder",
    "secre",
    "They</w>",
    "“This</w>",
    "m,</w>",
    "that,</w>",
    "ju",
    "back",
    "obvi",
    "laid</w>",
    "fer",
    "woman</w>",
    "so,</w>",
    "ur</w>",
    "yourself</w>",
    "bir",
    "Ar",
    "hear</w>",
    "are",
    "Bo",
    "in,</w>",
    "does</w>",
    "life</w>",
    "lam",
    "ask</w>",
    "Fr",
    "stood</w>",
    "abo",
    "surpri",
    "pho",
    "course</w>",
    "cau",
    "att",
    "ken</w>",
    "hour",
    "land",
    "belie",
    "one.</w>",
    "time,</w>",
    "ide",
    "are,</w>",
    "photo",
    "ste",
    "bac",
    "five</w>",
    "bar",
    "called</w>",
    "since</w>",
    "possible</w>",
    "lic</w>",
    "ir.</w>",
    "father",
    "tow",
    "run",
    "simp",
    "o’",
    "remarked</w>",
    "addres",
    "For</w>",
    "tail",
    "photograp",
    "reac",
    "ass</w>",
    "bed",
    "not",
    "ious</w>",
    "ness</w>",
    "gir",
    "usu",
    "gri",
    "ner",
    "threw</w>",
    "us.</w>",
    "secon",
    "disap",
    "dedu",
    "strong</w>",
    "soon</w>",
    "returned</w>",
    "ence,</w>",
    "four</w>",
    "paper</w>",
    "read</w>",
    "ome</w>",
    "lan",
    "ick</w>",
    "ling</w>",
    "whis",
    "Joh",
    "dang",
    "sub",
    "inci",
    "din",
    "asked.</w>",
    "liar</w>",
    "sted</w>",
    "ed.”</w>",
    "hus",
    "prob",
    "expla",
    "morning,</w>",
    "ren",
    "wife</w>",
    "Very</w>",
    "papers</w>",
    "rushed</w>",
    "Doct",
    "taken</w>",
    "words</w>",
    "think,</w>",
    "hope</w>",
    "cry</w>",
    "resul",
    "mak",
    "became</w>",
    "reme",
    "near</w>",
    "rang</w>",
    "tly</w>",
    "smo",
    "carri",
    "Su",
    "oured</w>",
    "Now,</w>",
    "y’s</w>",
    "gn</w>",
    "soci",
    "mad",
    "given</w>",
    "ish</w>",
    "way,</w>",
    "each</w>",
    "minutes</w>",
    "ined</w>",
    "ute</w>",
    "sugg",
    "ents</w>",
    "In",
    "thir",
    "profes",
    "drove</w>",
    "man’s</w>",
    "rs.</w>",
    "contin",
    "out,</w>",
    "Ja",
    "charac",
    "Mrs.</w>",
    "imag",
    "police</w>",
    "show",
    "cried</w>",
    "il</w>",
    "“B",
    "ate,</w>",
    "ards</w>",
    "p,</w>",
    "word</w>",
    "sen",
    "age,</w>",
    "believe</w>",
    "won",
    "Watson",
    "remark",
    "Mor",
    "expe",
    "perhaps</w>",
    "“C",
    "coat",
    "held</w>",
    "aw",
    "mil",
    "adver",
    "Hor",
    "night,</w>",
    "sive</w>",
    "sign",
    "adverti",
    "jo",
    "ve.</w>",
    "certainly</w>",
    "ts,</w>",
    "point</w>",
    "dn’t</w>",
    "writt",
    "hing</w>",
    "exce",
    "Do</w>",
    "rel",
    "y?”</w>",
    "ement</w>",
    "s?”</w>",
    "At</w>",
    "keep</w>",
    "lor",
    "bes",
    "pt</w>",
    "quar",
    "t-",
    "facts</w>",
    "going</w>",
    "inspect",
    "band",
    "fect</w>",
    "accoun",
    "aj",
    "least</w>",
    "read",
    "“We</w>",
    "oner</w>",
    "clock</w>",
    "ation,</w>",
    "coming</w>",
    "proble",
    "every",
    "fully</w>",
    "days</w>",
    "course,</w>",
    "pal",
    "law",
    "all.</w>",
    "Roy",
    "fast",
    "low,</w>",
    "char",
    "absolutely</w>",
    "emp",
    "Hos",
    "list",
    "pose</w>",
    "Windi",
    "bi",
    "One</w>",
    "cke",
    "rep",
    "like",
    "th.</w>",
    "want</w>",
    "Roylo",
    "opened</w>",
    "beside</w>",
    "el</w>",
    "quiet",
    "bor",
    "walked</w>",
    "question</w>",
    "oning</w>",
    "viol",
    "don’t</w>",
    "moment</w>",
    "tu",
    "inno",
    "myself",
    "Ad",
    "high",
    "likely</w>",
    "ook</w>",
    "sun",
    "er’s</w>",
    "land</w>",
    "Re",
    "gli",
    "rible</w>",
    "heavy</w>",
    "ies</w>",
    "icul",
    "answered</w>",
    "wed",
    "succ",
    "ran</w>",
    "sight</w>",
    "part</w>",
    "ation",
    "Maj",
    "deep",
    "Simon</w>",
    "sed,</w>",
    "ance.</w>",
    "ort</w>",
    "stat",
    "followed</w>",
    "things</w>",
    "men",
    "aged</w>",
    "err",
    "ance,</w>",
    "there,</w>",
    "face,</w>",
    "seven</w>",
    "difficul",
    "sus",
    "Well,</w>",
    "plan",
    "dark",
    "see,</w>",
    "door,</w>",
    "half",
    "Lestrade</w>",
    "rely</w>",
    "covered</w>",
    "obvious</w>",
    "pic",
    "shar",
    "Hosmer</w>",
    "table</w>",
    "sister</w>",
    "body</w>",
    "stair",
    "pac",
    "anyone</w>",
    "ping</w>",
    "McCarthy</w>",
    "onel</w>",
    "van",
    "else</w>",
    "pr",
    "gone</w>",
    "waiting</w>",
    "stone</w>",
    "termin",
    "drawn</w>",
    "sprang</w>",
    "twent",
    "corner</w>",
    "ar,</w>",
    "ds.</w>",
    "doing</w>",
    "dark</w>",
    "hat,</w>",
    "tab",
    "rest</w>",
    "pow",
    "ight</w>",
    "murder",
    "ps,</w>",
    "started</w>",
    "advertise",
    "appeared</w>",
    "ating</w>",
    "inqu",
    "sir,</w>",
    "“How</w>",
    "house",
    "again</w>",
    "ently</w>",
    "hurried</w>",
    "Br",
    "daugh",
    "turning</w>",
    "pocke",
    "money</w>",
    "glanced</w>",
    "bed</w>",
    "st.</w>",
    "impres",
    "fas",
    "her,</w>",
    "ty",
    "o’clock</w>",
    "tor",
    "ster</w>",
    "standing</w>",
    "King</w>",
    "fore,</w>",
    "obje",
    "“that</w>",
    "evil",
    "letter</w>",
    "stra",
    "understand</w>",
    "vie",
    "ather</w>",
    "affa",
    "hes</w>",
    "six</w>",
    "fig",
    "second</w>",
    "val",
    "wif",
    "John</w>",
    "ds,</w>",
    "“A</w>",
    "house,</w>",
    "Oh,</w>",
    "sent</w>",
    "conclu",
    "swe",
    "ously</w>",
    "pit",
    "peop",
    "detail",
    "night.</w>",
    "side,</w>",
    "t.”</w>",
    "bloo",
    "best</w>",
    "instant",
    "ment.</w>",
    "white</w>",
    "deep</w>",
    "considerable</w>",
    "ony</w>",
    "offic",
    "father,</w>",
    "lear",
    "one.”</w>",
    "prac",
    "Street</w>",
    "cer",
    "determin",
    "sat",
    "interest</w>",
    "cab",
    "ctly</w>",
    "began</w>",
    "wri",
    "story</w>",
    "hon",
    "us,</w>",
    "zed</w>",
    "So</w>",
    "arri",
    "present</w>",
    "character",
    "ber",
    "buil",
    "it?”</w>",
    "“G",
    "she",
    "written</w>",
    "leg",
    "Amer",
    "Fro",
    "said,</w>",
    "From</w>",
    "lu",
    "present",
    "yed</w>",
    "bring</w>",
    "whose</w>",
    "comple",
    "occur",
    "cloth",
    "possib",
    "“Your</w>",
    "door",
    "ence.</w>",
    "ce.</w>",
    "hab",
    "“In</w>",
    "face.</w>",
    "al,</w>",
    "pleas",
    "‘I</w>",
    "Hather",
    "age.</w>",
    "gener",
    "ard,</w>",
    "nex",
    "lamp</w>",
    "ld</w>",
    "times</w>",
    "tion.</w>",
    "slow",
    "cir",
    "ant,</w>",
    "arly</w>",
    "neigh",
    "Street,</w>",
    "kne",
    "ity.</w>",
    "hard</w>",
    "le-",
    "twi",
    "ward,</w>",
    "passa",
    "entered</w>",
    "hy",
    "eville</w>",
    "utter",
    "eye</w>",
    "e,”</w>",
    "window,</w>",
    "wand",
    "form",
    "pub",
    "them,</w>",
    "Neville</w>",
    "ago",
    "indeed</w>",
    "family</w>",
    "ts.</w>",
    "struck</w>",
    "son.</w>",
    "Majest",
    "closed</w>",
    "them.</w>",
    "Star",
    "afra",
    "mac",
    "rooms</w>",
    "p.</w>",
    "ely.</w>",
    "speak</w>",
    "half-",
    "bour",
    "Mon",
    "ished</w>",
    "ment,</w>",
    "glancing</w>",
    "death",
    "London</w>",
    "carried</w>",
    "s-",
    "cent</w>",
    "ordin",
    "“They</w>",
    "ordinary</w>",
    "How</w>",
    "above</w>",
    "sum",
    "ton</w>",
    "contr",
    "Let</w>",
    "bra",
    "towards</w>",
    "recei",
    "pecu",
    "attemp",
    "use",
    "hour</w>",
    "house.</w>",
    "sear",
    "peri",
    "steps</w>",
    "itu",
    "Hatherle",
    "caught</w>",
    "pulled</w>",
    "vent",
    "spoke</w>",
    "doct",
    "account</w>",
    "troub",
    "position</w>",
    "descri",
    "bank</w>",
    "way.</w>",
    "feat",
    "single</w>",
    "lost</w>",
    "ering</w>",
    "Qu",
    "ush</w>",
    "care",
    "Did</w>",
    "experi",
    "sy",
    "satis",
    "dead",
    "seems</w>",
    "cab</w>",
    "sound</w>",
    "ague</w>",
    "a,</w>",
    "step</w>",
    "ch.</w>",
    "instant</w>",
    "girl",
    "ish",
    "feet</w>",
    "grey</w>",
    "this",
    "bow",
    "ear</w>",
    "cut</w>",
    "Open",
    "forward</w>",
    "sal",
    "conne",
    "natur",
    "machin",
    "hair</w>",
    "but",
    "w,</w>",
    "day",
    "fashi",
    "Now</w>",
    "“Very</w>",
    "afterno",
    "pain",
    "Here</w>",
    "answered.</w>",
    "id.</w>",
    "cou",
    "tho",
    "coat</w>",
    "led,</w>",
    "HE</w>",
    "Engl",
    "ven",
    "continu",
    "James</w>",
    "All</w>",
    "short</w>",
    "reason</w>",
    "whisper",
    "neighbour",
    "love</w>",
    "cat",
    "oursel",
    "idea</w>",
    "Lestrad",
    "“Not</w>",
    "sh</w>",
    "next</w>",
    "sk",
    "me,”</w>",
    "Watson,”</w>",
    "easy</w>",
    "headed</w>",
    "placed</w>",
    "Arth",
    "furn",
    "sett",
    "opin",
    "appro",
    "true</w>",
    "sion,</w>",
    "With</w>",
    "peculiar</w>",
    "venti",
    "making</w>",
    "country</w>",
    "letters</w>",
    "tion",
    "that.</w>",
    "matter,</w>",
    "blue</w>",
    "throw",
    "sudden</w>",
    "THE</w>",
    "remarkable</w>",
    "casi",
    "red-",
    "showed</w>",
    "ner,</w>",
    "rose</w>",
    "inted</w>",
    "late</w>",
    "ashed</w>",
    "pie",
    "ding",
    "in.</w>",
    "Holmes’</w>",
    "understand,</w>",
    "lad</w>",
    "suff",
    "door.</w>",
    "marriage</w>",
    "thing",
    "“When</w>",
    "sitting-",
    "formed</w>",
    "Opensha",
    "talk</w>",
    "afterwar",
    "“Pray</w>",
    "velo",
    "theor",
    "ets</w>",
    "poor</w>",
    "feature",
    "Al",
    "enough",
    "cold</w>",
    "reached</w>",
    "I’ll</w>",
    "Ang",
    "“In",
    "Angel",
    "rati",
    "note</w>",
    "disappear",
    "opini",
    "cle</w>",
    "remember</w>",
    "“If</w>",
    "you,”</w>",
    "daughter</w>",
    "ine",
    "past</w>",
    "ventilat",
    "vol",
    "occasi",
    "Americ",
    "right",
    "ke,</w>",
    "inquir",
    "aring</w>",
    "fear</w>",
    "remarked,</w>",
    "Ger",
    "head.</w>",
    "—”</w>",
    "remained</w>",
    "stu",
    "extre",
    "ben",
    "sleep",
    "thin</w>",
    "impression</w>",
    "high</w>",
    "dr",
    "m.</w>",
    "allow",
    "coron",
    "er.”</w>",
    "oned</w>",
    "oscom",
    "slowly</w>",
    "knowle",
    "train</w>",
    "By</w>",
    "tched</w>",
    "comes</w>",
    "photograph",
    "attention</w>",
    "dropped</w>",
    "vice</w>",
    "ness.</w>",
    "thou",
    "ker",
    "practi",
    "gged</w>",
    "investi",
    "goose</w>",
    "wha",
    "afraid</w>",
    "der,</w>",
    "“E",
    "“‘I</w>",
    "promis",
    "bride",
    "Turn",
    "vil",
    "fif",
    "quiet</w>",
    "Adl",
    "Squ",
    "effect</w>",
    "cket</w>",
    "bell",
    "Roylot",
    "four",
    "air</w>",
    "seeing</w>",
    "investig",
    "profession",
    "you?”</w>",
    "aver",
    "ig",
    "side.</w>",
    "doubt",
    "ved.</w>",
    "far",
    "hand.</w>",
    "pe,</w>",
    "client</w>",
    "shown</w>",
    "ef</w>",
    "oscombe</w>",
    "order</w>",
    "here,</w>",
    "evening</w>",
    "remarked.</w>",
    "strang",
    "tic</w>",
    "medi",
    "squ",
    "custo",
    "thor",
    "a.</w>",
    "none</w>",
    "sible</w>",
    "type",
    "ther.</w>",
    "chair,</w>",
    "sely</w>",
    "Quite</w>",
    "case,</w>",
    "glance</w>",
    "fortunate</w>",
    "se.”</w>",
    "inten",
    "00",
    "Pe",
    "myster",
    "d,”</w>",
    "sign</w>",
    "inging</w>",
    "too,</w>",
    "ary,</w>",
    "him.”</w>",
    "susp",
    "xed</w>",
    "groun",
    "fact</w>",
    "suspici",
    "Frank</w>",
    "18",
    "deal</w>",
    "Our</w>",
    "To</w>",
    "person</w>",
    "adm",
    "acqu",
    "wro",
    "incid",
    "well-",
    "foot",
    "sir.</w>",
    "tel",
    "ingly</w>",
    "broke</w>",
    "whist",
    "avi",
    "entirely</w>",
    "—a</w>",
    "sn",
    "sitting</w>",
    "ally,</w>"
  ],
  "merges": [
    [
      "t",
      "h"
    ],
    [
      "i",
      "n"
    ],
    [
      "a",
      "n"
    ],
    [
      "th",
      "e</w>"
    ],
    [
      "e",
      "r"
    ],
    [
      "o",
      "u"
    ],
    [
      "h",
      "a"
    ],
    [
      "e",
      "d</w>"
    ],
    [
      "an",
      "d</w>"
    ],
    [
      "t",
      "o</w>"
    ],
    [
      "o",
      "n"
    ],
    [
      "r",
      "e"
    ],
    [
      "h",
      "i"
    ],
    [
      "o",
      "f</w>"
    ],
    [
      "e",
      "n"
    ],
    [
      "a",
      "r"
    ],
    [
      "a",
      "t</w>"
    ],
    [
      "i",
      "t"
    ],
    [
      "e",
      "r</w>"
    ],
    [
      "s",
      "t"
    ],
    [
      "a",
      "s</w>"
    ],
    [
      "in",
      "g</w>"
    ],
    [
      "o",
      "r"
    ],
    [
      "i",
      "n</w>"
    ],
    [
      "h",
      "e</w>"
    ],
    [
      "e",
      "s"
    ],
    [
      "r",
      "o"
    ],
    [
      "a",
      "t"
    ],
    [
      "th",
      "at</w>"
    ],
    [
      "s",
      "e"
    ],
    [
      "a",
      "l"
    ],
    [
      "e",
      "n</w>"
    ],
    [
      "i",
      "s</w>"
    ],
    [
      "o",
      "n</w>"
    ],
    [
      "v",
      "e</w>"
    ],
    [
      "n",
      "o"
    ],
    [
      "w",
      "as</w>"
    ],
    [
      "m",
      "e</w>"
    ],
    [
      "o",
      "l"
    ],
    [
      "o",
      "u</w>"
    ],
    [
      ".",
      "”</w>"
    ],
    [
      "hi",
      "s</w>"
    ],
    [
      "r",
      "i"
    ],
    [
      "b",
      "e"
    ],
    [
      "l",
      "y</w>"
    ],
    [
      "l",
      "e"
    ],
    [
      "a",
      "c"
    ],
    [
      "o",
      "r</w>"
    ],
    [
      "i",
      "t</w>"
    ],
    [
      "a",
      "n</w>"
    ],
    [
      "c",
      "h</w>"
    ],
    [
      "m",
      "e"
    ],
    [
      "l",
      "o"
    ],
    [
      "a",
      "s"
    ],
    [
      "er",
      "e</w>"
    ],
    [
      "y",
      "ou</w>"
    ],
    [
      "g",
      "h"
    ],
    [
      "s",
      "a"
    ],
    [
      "h",
      "e"
    ],
    [
      "w",
      "hi"
    ],
    [
      "t",
      "i"
    ],
    [
      "ha",
      "ve</w>"
    ],
    [
      "s",
      "i"
    ],
    [
      "m",
      "y</w>"
    ],
    [
      "l",
      "i"
    ],
    [
      "u",
      "r"
    ],
    [
      "u",
      "s"
    ],
    [
      "l",
      "e</w>"
    ],
    [
      "ou",
      "l"
    ],
    [
      "v",
      "er"
    ],
    [
      "it",
      "h</w>"
    ],
    [
      "d",
      ",</w>"
    ],
    [
      "w",
      "ith</w>"
    ],
    [
      "w",
      "h"
    ],
    [
      "ha",
      "d</w>"
    ],
    [
      "l",
      "l</w>"
    ],
    [
      "oul",
      "d</w>"
    ],
    [
      "a",
      "d"
    ],
    [
      "whi",
      "ch</w>"
    ],
    [
      "u",
      "t</w>"
    ],
    [
      "i",
      "d</w>"
    ],
    [
      "c",
      "o"
    ],
    [
      "d",
      "e"
    ],
    [
      "in",
      "g"
    ],
    [
      "o",
      "w"
    ],
    [
      "y",
      "ou"
    ],
    [
      "i",
      "s"
    ],
    [
      "f",
      "or</w>"
    ],
    [
      "u",
      "p"
    ],
    [
      "u",
      "n"
    ],
    [
      "a",
      "b"
    ],
    [
      "no",
      "t</w>"
    ],
    [
      "e",
      ",</w>"
    ],
    [
      "b",
      "e</w>"
    ],
    [
      "s",
      "o"
    ],
    [
      "e",
      "l"
    ],
    [
      "a",
      "y</w>"
    ],
    [
      "en",
      "t"
    ],
    [
      "?",
      "”</w>"
    ],
    [
      "o",
      "o"
    ],
    [
      "w",
      "i"
    ],
    [
      "c",
      "e</w>"
    ],
    [
      "a",
      "g"
    ],
    [
      "f",
      "ro"
    ],
    [
      "gh",
      "t</w>"
    ],
    [
      "ou",
      "t</w>"
    ],
    [
      "s",
      "h"
    ],
    [
      "c",
      "a"
    ],
    [
      "o",
      "s"
    ],
    [
      "n",
      "e"
    ],
    [
      ",",
      "”</w>"
    ],
    [
      "fro",
      "m</w>"
    ],
    [
      "ha",
      "t</w>"
    ],
    [
      "l",
      "a"
    ],
    [
      "on",
      "e</w>"
    ],
    [
      "H",
      "ol"
    ],
    [
      "m",
      "p"
    ],
    [
      "up",
      "on</w>"
    ],
    [
      "i",
      "r"
    ],
    [
      "t",
      "er"
    ],
    [
      "e",
      "s</w>"
    ],
    [
      "s",
      ",</w>"
    ],
    [
      "r",
      "a"
    ],
    [
      "e",
      "d"
    ],
    [
      "b",
      "ut</w>"
    ],
    [
      "ver",
      "y</w>"
    ],
    [
      "al",
      "l</w>"
    ],
    [
      "ou",
      "n"
    ],
    [
      "th",
      "er</w>"
    ],
    [
      "s",
      "u"
    ],
    [
      "sa",
      "id</w>"
    ],
    [
      "y",
      ",</w>"
    ],
    [
      "c",
      "on"
    ],
    [
      "w",
      "e</w>"
    ],
    [
      "I",
      "t</w>"
    ],
    [
      "f",
      "or"
    ],
    [
      "th",
      "e"
    ],
    [
      "q",
      "u"
    ],
    [
      "p",
      "e"
    ],
    [
      "v",
      "er</w>"
    ],
    [
      "a",
      "k"
    ],
    [
      "es",
      ",</w>"
    ],
    [
      "be",
      "en</w>"
    ],
    [
      "d",
      "i"
    ],
    [
      "en",
      "t</w>"
    ],
    [
      "e",
      ".</w>"
    ],
    [
      "s",
      ".</w>"
    ],
    [
      "th",
      "is</w>"
    ],
    [
      "t",
      ",</w>"
    ],
    [
      "T",
      "h"
    ],
    [
      "e",
      "x"
    ],
    [
      "ar",
      "e</w>"
    ],
    [
      "i",
      "l"
    ],
    [
      "h",
      "er</w>"
    ],
    [
      "d",
      "o"
    ],
    [
      "T",
      "he</w>"
    ],
    [
      "it",
      "t"
    ],
    [
      "re",
      "s"
    ],
    [
      "s",
      "o</w>"
    ],
    [
      "i",
      "c"
    ],
    [
      "f",
      "a"
    ],
    [
      "w",
      "ere</w>"
    ],
    [
      "“",
      "I</w>"
    ],
    [
      "b",
      "y</w>"
    ],
    [
      "an",
      "d"
    ],
    [
      "you",
      "r</w>"
    ],
    [
      "f",
      "e"
    ],
    [
      "’",
      "s</w>"
    ],
    [
      "ow",
      "n</w>"
    ],
    [
      "us",
      "t</w>"
    ],
    [
      "ou",
      "r</w>"
    ],
    [
      "e",
      "t</w>"
    ],
    [
      "r",
      ".</w>"
    ],
    [
      "H",
      "e</w>"
    ],
    [
      "m",
      "an</w>"
    ],
    [
      "t",
      ".</w>"
    ],
    [
      "p",
      "er"
    ],
    [
      "w",
      "ould</w>"
    ],
    [
      "a",
      "l</w>"
    ],
    [
      "se",
      "l"
    ],
    [
      "e",
      "st"
    ],
    [
      "y",
      ".</w>"
    ],
    [
      "m",
      "an"
    ],
    [
      "t",
      "r"
    ],
    [
      "th",
      "er"
    ],
    [
      "m",
      "or"
    ],
    [
      "s",
      "ha"
    ],
    [
      "w",
      "e"
    ],
    [
      "s",
      "he</w>"
    ],
    [
      "t",
      "er</w>"
    ],
    [
      "at",
      "i"
    ],
    [
      "h",
      "o"
    ],
    [
      "m",
      "i"
    ],
    [
      "n",
      "o</w>"
    ],
    [
      "t",
      "o"
    ],
    [
      "th",
      "ere</w>"
    ],
    [
      "ha",
      "s</w>"
    ],
    [
      "p",
      "o"
    ],
    [
      "me",
      "s</w>"
    ],
    [
      "a",
      "in"
    ],
    [
      "c",
      "h"
    ],
    [
      "in",
      "to</w>"
    ],
    [
      "“",
      "W"
    ],
    [
      "s",
      "e</w>"
    ],
    [
      "t",
      "e"
    ],
    [
      "p",
      "ro"
    ],
    [
      "Y",
      "ou</w>"
    ],
    [
      "Hol",
      "m"
    ],
    [
      "hi",
      "m"
    ],
    [
      "a",
      "r</w>"
    ],
    [
      "l",
      "itt"
    ],
    [
      "c",
      "ould</w>"
    ],
    [
      "u",
      "l"
    ],
    [
      "w",
      "hat</w>"
    ],
    [
      "k",
      "ed</w>"
    ],
    [
      "wh",
      "en</w>"
    ],
    [
      "ou",
      "r"
    ],
    [
      "u",
      "p</w>"
    ],
    [
      "d",
      "er"
    ],
    [
      "m",
      "in"
    ],
    [
      "th",
      "ing</w>"
    ],
    [
      "M",
      "r.</w>"
    ],
    [
      "hi",
      "m</w>"
    ],
    [
      "wi",
      "ll</w>"
    ],
    [
      "k",
      "no"
    ],
    [
      "so",
      "me</w>"
    ],
    [
      "litt",
      "le</w>"
    ],
    [
      "wh",
      "o</w>"
    ],
    [
      "ro",
      "o"
    ],
    [
      "m",
      "ar"
    ],
    [
      "A",
      "n"
    ],
    [
      "w",
      "a"
    ],
    [
      "el",
      "l"
    ],
    [
      "es",
      "s</w>"
    ],
    [
      "“",
      "‘"
    ],
    [
      "h",
      "er"
    ],
    [
      "f",
      "ac"
    ],
    [
      "k",
      "e"
    ],
    [
      "i",
      "r</w>"
    ],
    [
      "g",
      "h</w>"
    ],
    [
      "f",
      "i"
    ],
    [
      "es",
      ".</w>"
    ],
    [
      "e",
      "v"
    ],
    [
      "on",
      ",</w>"
    ],
    [
      "t",
      "ed</w>"
    ],
    [
      "a",
      "p"
    ],
    [
      "lo",
      "o"
    ],
    [
      "al",
      "l"
    ],
    [
      "w",
      "or"
    ],
    [
      "u",
      "t"
    ],
    [
      "oun",
      "d</w>"
    ],
    [
      "m",
      "o"
    ],
    [
      "ed",
      ".</w>"
    ],
    [
      "a",
      "m</w>"
    ],
    [
      "Hol",
      "mes</w>"
    ],
    [
      "o",
      "p"
    ],
    [
      "c",
      "k</w>"
    ],
    [
      "an",
      "g"
    ],
    [
      "a",
      "f"
    ],
    [
      "An",
      "d</w>"
    ],
    [
      "c",
      "ha"
    ],
    [
      "c",
      "e"
    ],
    [
      "p",
      "l"
    ],
    [
      "d",
      "o</w>"
    ],
    [
      "ou",
      "gh</w>"
    ],
    [
      "d",
      "own</w>"
    ],
    [
      "t",
      "w"
    ],
    [
      "th",
      "in"
    ],
    [
      "ab",
      "le</w>"
    ],
    [
      "d",
      ".</w>"
    ],
    [
      "sh",
      "ould</w>"
    ],
    [
      "k",
      "e</w>"
    ],
    [
      "c",
      "i"
    ],
    [
      "t",
      "ur"
    ],
    [
      "e",
      "m"
    ],
    [
      "i",
      "f</w>"
    ],
    [
      "v",
      "i"
    ],
    [
      "se",
      "e</w>"
    ],
    [
      "p",
      "os"
    ],
    [
      "m",
      "ay</w>"
    ],
    [
      "p",
      "a"
    ],
    [
      "m",
      "at"
    ],
    [
      "b",
      "o"
    ],
    [
      "e",
      "d,</w>"
    ],
    [
      "en",
      ",</w>"
    ],
    [
      "w",
      "ay</w>"
    ],
    [
      "c",
      "t"
    ],
    [
      "ca",
      "me</w>"
    ],
    [
      "ar",
      "d</w>"
    ],
    [
      "st",
      "r"
    ],
    [
      "ac",
      "k</w>"
    ],
    [
      "B",
      "ut</w>"
    ],
    [
      "c",
      "an</w>"
    ],
    [
      "s",
      "t</w>"
    ],
    [
      "o",
      "ther</w>"
    ],
    [
      "n",
      "i"
    ],
    [
      "l",
      "ed</w>"
    ],
    [
      "sha",
      "ll</w>"
    ],
    [
      "o",
      "ver</w>"
    ],
    [
      "o",
      "f"
    ],
    [
      "ak",
      "e</w>"
    ],
    [
      "on",
      "g</w>"
    ],
    [
      "sel",
      "f</w>"
    ],
    [
      "a",
      "d</w>"
    ],
    [
      ".",
      "’</w>"
    ],
    [
      "me",
      ",</w>"
    ],
    [
      "e",
      "ar"
    ],
    [
      "d",
      "e</w>"
    ],
    [
      "f",
      "in"
    ],
    [
      "e",
      "t"
    ],
    [
      "d",
      "a"
    ],
    [
      "Th",
      "ere</w>"
    ],
    [
      "d",
      "s</w>"
    ],
    [
      "e",
      "p"
    ],
    [
      "th",
      "an</w>"
    ],
    [
      "on",
      ".</w>"
    ],
    [
      "m",
      "ust</w>"
    ],
    [
      "an",
      "c"
    ],
    [
      "ab",
      "out</w>"
    ],
    [
      "as",
      "t</w>"
    ],
    [
      "co",
      "m"
    ],
    [
      "g",
      "oo"
    ],
    [
      "ing",
      ",</w>"
    ],
    [
      "c",
      "ri"
    ],
    [
      "on",
      "ly</w>"
    ],
    [
      "ou",
      "s</w>"
    ],
    [
      "ti",
      "on</w>"
    ],
    [
      "lo",
      "w"
    ],
    [
      "co",
      "mp"
    ],
    [
      "o",
      "b"
    ],
    [
      "mor",
      "e</w>"
    ],
    [
      "u",
      "m"
    ],
    [
      "ol",
      "d</w>"
    ],
    [
      "at",
      "e</w>"
    ],
    [
      "e",
      "y"
    ],
    [
      "es",
      "t</w>"
    ],
    [
      "a",
      "m"
    ],
    [
      "an",
      "y</w>"
    ],
    [
      "u",
      "s</w>"
    ],
    [
      "for",
      "e</w>"
    ],
    [
      "the",
      "y</w>"
    ],
    [
      "e",
      "ver"
    ],
    [
      "d",
      "id</w>"
    ],
    [
      "lo",
      "ck</w>"
    ],
    [
      "c",
      "l"
    ],
    [
      "s",
      "ed</w>"
    ],
    [
      "N",
      "o"
    ],
    [
      "g",
      "i"
    ],
    [
      "t",
      "s</w>"
    ],
    [
      "s",
      "er"
    ],
    [
      "ad",
      "e</w>"
    ],
    [
      "g",
      "re"
    ],
    [
      "kno",
      "w</w>"
    ],
    [
      "ur",
      "e</w>"
    ],
    [
      "be",
      "fore</w>"
    ],
    [
      "h",
      "ou"
    ],
    [
      "h",
      "ed</w>"
    ],
    [
      "m",
      "u"
    ],
    [
      "k",
      ",</w>"
    ],
    [
      "en",
      "ce</w>"
    ],
    [
      "co",
      "me</w>"
    ],
    [
      "g",
      "e</w>"
    ],
    [
      "b",
      "r"
    ],
    [
      "S",
      "t"
    ],
    [
      "thin",
      "k</w>"
    ],
    [
      "roo",
      "m"
    ],
    [
      "c",
      "le"
    ],
    [
      "p",
      "re"
    ],
    [
      "p",
      "ar"
    ],
    [
      "k",
      "ing</w>"
    ],
    [
      "en",
      "d</w>"
    ],
    [
      "tw",
      "o</w>"
    ],
    [
      "h",
      "and"
    ],
    [
      "it",
      "e</w>"
    ],
    [
      "!",
      "”</w>"
    ],
    [
      "n",
      "ing</w>"
    ],
    [
      "“",
      "Y"
    ],
    [
      "g",
      "o"
    ],
    [
      "g",
      "l"
    ],
    [
      "“",
      "It</w>"
    ],
    [
      "w",
      "in"
    ],
    [
      "i",
      "mp"
    ],
    [
      "an",
      "d,</w>"
    ],
    [
      "c",
      "or"
    ],
    [
      "b",
      "l"
    ],
    [
      "v",
      "ing</w>"
    ],
    [
      "“",
      "T"
    ],
    [
      "c",
      "ar"
    ],
    [
      "ing",
      ".</w>"
    ],
    [
      "me",
      ".</w>"
    ],
    [
      "al",
      "ly</w>"
    ],
    [
      "ou",
      "ght</w>"
    ],
    [
      "h",
      ",</w>"
    ],
    [
      "gh",
      "t"
    ],
    [
      "ou",
      "b"
    ],
    [
      "re",
      ",</w>"
    ],
    [
      "p",
      "res"
    ],
    [
      "i",
      "m"
    ],
    [
      "Holm",
      "es,</w>"
    ],
    [
      "t",
      "oo"
    ],
    [
      "c",
      "as"
    ],
    [
      "d",
      "er</w>"
    ],
    [
      "wi",
      "th"
    ],
    [
      "t",
      "h</w>"
    ],
    [
      "f",
      "ir"
    ],
    [
      "er",
      ",</w>"
    ],
    [
      "se",
      ",</w>"
    ],
    [
      "ro",
      "w"
    ],
    [
      "it",
      ".</w>"
    ],
    [
      "an",
      "ce</w>"
    ],
    [
      "an",
      "t</w>"
    ],
    [
      "g",
      "r"
    ],
    [
      "mi",
      "ght</w>"
    ],
    [
      "Th",
      "en</w>"
    ],
    [
      "on",
      "e"
    ],
    [
      "f",
      "ri"
    ],
    [
      "s",
      "m"
    ],
    [
      "y",
      "s</w>"
    ],
    [
      "n",
      "ed</w>"
    ],
    [
      "j",
      "ust</w>"
    ],
    [
      "ad",
      "y</w>"
    ],
    [
      "ti",
      "me</w>"
    ],
    [
      "su",
      "ch</w>"
    ],
    [
      "p",
      "p"
    ],
    [
      "a",
      "ve</w>"
    ],
    [
      "s",
      "p"
    ],
    [
      "“",
      "You</w>"
    ],
    [
      "c",
      "k"
    ],
    [
      "re",
      "mar"
    ],
    [
      "m",
      "y"
    ],
    [
      "c",
      "lo"
    ],
    [
      "ha",
      "r"
    ],
    [
      "ati",
      "on</w>"
    ],
    [
      "th",
      "re"
    ],
    [
      "“",
      "O"
    ],
    [
      "be",
      "t"
    ],
    [
      "b",
      "ack</w>"
    ],
    [
      "“",
      "And</w>"
    ],
    [
      "he",
      "ard</w>"
    ],
    [
      "os",
      "t</w>"
    ],
    [
      "wh",
      "ere</w>"
    ],
    [
      "ell",
      ",</w>"
    ],
    [
      "h",
      "ow"
    ],
    [
      "po",
      "in"
    ],
    [
      "m",
      "ade</w>"
    ],
    [
      "S",
      "her"
    ],
    [
      "Sher",
      "lock</w>"
    ],
    [
      "he",
      "l"
    ],
    [
      "d",
      "d"
    ],
    [
      "so",
      "me"
    ],
    [
      "d",
      "oub"
    ],
    [
      ",",
      "’</w>"
    ],
    [
      "an",
      "s"
    ],
    [
      "f",
      "o"
    ],
    [
      "kno",
      "w"
    ],
    [
      "mu",
      "ch</w>"
    ],
    [
      "li",
      "ke</w>"
    ],
    [
      "b",
      "le</w>"
    ],
    [
      "it",
      ",</w>"
    ],
    [
      "th",
      "r"
    ],
    [
      "en",
      "ed</w>"
    ],
    [
      "m",
      "ost</w>"
    ],
    [
      "os",
      "e</w>"
    ],
    [
      "y",
      "ing</w>"
    ],
    [
      "s",
      "pe"
    ],
    [
      "w",
      "r"
    ],
    [
      "v",
      "ed</w>"
    ],
    [
      "ever",
      ",</w>"
    ],
    [
      "d",
      "is"
    ],
    [
      "le",
      "f"
    ],
    [
      "it",
      "s</w>"
    ],
    [
      "f",
      "ound</w>"
    ],
    [
      "s",
      "ol"
    ],
    [
      "b",
      "us"
    ],
    [
      "ho",
      "w</w>"
    ],
    [
      "f",
      "f"
    ],
    [
      "g",
      "e"
    ],
    [
      "it",
      "i"
    ],
    [
      "v",
      "e"
    ],
    [
      "c",
      "ol"
    ],
    [
      "r",
      "y</w>"
    ],
    [
      "d",
      "u"
    ],
    [
      "M",
      "y</w>"
    ],
    [
      "ne",
      "ver</w>"
    ],
    [
      "in",
      "ter"
    ],
    [
      "a",
      "v"
    ],
    [
      "roo",
      "m</w>"
    ],
    [
      "c",
      "re"
    ],
    [
      "’",
      "t</w>"
    ],
    [
      "pl",
      "ac"
    ],
    [
      "d",
      "ow"
    ],
    [
      "f",
      "u"
    ],
    [
      "no",
      "w</w>"
    ],
    [
      "S",
      "t.</w>"
    ],
    [
      "S",
      "he</w>"
    ],
    [
      "c",
      "t</w>"
    ],
    [
      "p",
      "as"
    ],
    [
      "W",
      "at"
    ],
    [
      "the",
      "ir</w>"
    ],
    [
      "st",
      "re"
    ],
    [
      "“",
      "No"
    ],
    [
      "d",
      "res"
    ],
    [
      "lo",
      "w</w>"
    ],
    [
      "ag",
      "ain"
    ],
    [
      "us",
      "e</w>"
    ],
    [
      "p",
      "ri"
    ],
    [
      "er",
      "t"
    ],
    [
      "r",
      "u"
    ],
    [
      "st",
      "i"
    ],
    [
      "“",
      "H"
    ],
    [
      "m",
      "is"
    ],
    [
      "er",
      ".</w>"
    ],
    [
      "th",
      "en</w>"
    ],
    [
      "d",
      "ly</w>"
    ],
    [
      "W",
      "e</w>"
    ],
    [
      "u",
      "e</w>"
    ],
    [
      "s",
      ".”</w>"
    ],
    [
      "r",
      "ed</w>"
    ],
    [
      "p",
      "i"
    ],
    [
      "how",
      "ever,</w>"
    ],
    [
      "est",
      "i"
    ],
    [
      "“",
      "I"
    ],
    [
      "m",
      "a"
    ],
    [
      "af",
      "ter</w>"
    ],
    [
      "goo",
      "d</w>"
    ],
    [
      "c",
      "u"
    ],
    [
      "se",
      "em"
    ],
    [
      "t",
      "en"
    ],
    [
      "s",
      "on"
    ],
    [
      "too",
      "k</w>"
    ],
    [
      "ar",
      "y</w>"
    ],
    [
      "b",
      "re"
    ],
    [
      "him",
      ".</w>"
    ],
    [
      "or",
      ",</w>"
    ],
    [
      "Holm",
      "es.</w>"
    ],
    [
      "y",
      "ear"
    ],
    [
      "c",
      "our"
    ],
    [
      "cas",
      "e</w>"
    ],
    [
      "si",
      "st"
    ],
    [
      "es",
      "e</w>"
    ],
    [
      "a",
      "way</w>"
    ],
    [
      "m",
      "ent"
    ],
    [
      "b",
      "ri"
    ],
    [
      "h",
      "in"
    ],
    [
      "w",
      "o"
    ],
    [
      "d",
      "ay</w>"
    ],
    [
      "ri",
      "ed</w>"
    ],
    [
      "no",
      "w"
    ],
    [
      "an",
      "k</w>"
    ],
    [
      "man",
      ",</w>"
    ],
    [
      "n",
      "a"
    ],
    [
      "l",
      "y,</w>"
    ],
    [
      "ans",
      "w"
    ],
    [
      "gh",
      "t,</w>"
    ],
    [
      "d",
      "ing</w>"
    ],
    [
      "c",
      "oun"
    ],
    [
      "an",
      "y"
    ],
    [
      "u",
      "re"
    ],
    [
      "an",
      "t"
    ],
    [
      "t",
      "ra"
    ],
    [
      "e",
      "very</w>"
    ],
    [
      "thr",
      "ough</w>"
    ],
    [
      "fac",
      "e</w>"
    ],
    [
      "lef",
      "t</w>"
    ],
    [
      "no",
      "thing</w>"
    ],
    [
      "t",
      "e</w>"
    ],
    [
      "l",
      "l"
    ],
    [
      "the",
      "m</w>"
    ],
    [
      "y",
      ".”</w>"
    ],
    [
      "th",
      "en"
    ],
    [
      "e",
      "p</w>"
    ],
    [
      "sa",
      "w</w>"
    ],
    [
      "“",
      "The</w>"
    ],
    [
      "le",
      ",</w>"
    ],
    [
      "er",
      "ed</w>"
    ],
    [
      "bus",
      "in"
    ],
    [
      "pe",
      "ar"
    ],
    [
      "d",
      "ra"
    ],
    [
      "qu",
      "ite</w>"
    ],
    [
      "f",
      "e</w>"
    ],
    [
      "fe",
      "w</w>"
    ],
    [
      "sm",
      "all</w>"
    ],
    [
      "s",
      "ing"
    ],
    [
      "t",
      "y</w>"
    ],
    [
      "d",
      "ed</w>"
    ],
    [
      "he",
      ",</w>"
    ],
    [
      "te",
      "ll</w>"
    ],
    [
      "t",
      "ake</w>"
    ],
    [
      "ne",
      "w</w>"
    ],
    [
      "g",
      "g"
    ],
    [
      "e",
      "ver</w>"
    ],
    [
      "th",
      "at"
    ],
    [
      "p",
      "ol"
    ],
    [
      "l",
      "ast</w>"
    ],
    [
      "k",
      "s</w>"
    ],
    [
      "tur",
      "ned</w>"
    ],
    [
      "you",
      "n"
    ],
    [
      "g",
      "o</w>"
    ],
    [
      "f",
      "el"
    ],
    [
      "?",
      "’</w>"
    ],
    [
      "f",
      "ol"
    ],
    [
      "l",
      "at"
    ],
    [
      "l",
      "ess</w>"
    ],
    [
      "d",
      "-"
    ],
    [
      "w",
      "is"
    ],
    [
      "o",
      "c"
    ],
    [
      "si",
      "de</w>"
    ],
    [
      "sa",
      "y</w>"
    ],
    [
      "un",
      "ti"
    ],
    [
      "in",
      "st"
    ],
    [
      "se",
      "en</w>"
    ],
    [
      "p",
      "s</w>"
    ],
    [
      "c",
      "an"
    ],
    [
      "fin",
      "d</w>"
    ],
    [
      "h",
      "ere</w>"
    ],
    [
      "w",
      "ar"
    ],
    [
      "do",
      "or</w>"
    ],
    [
      "mat",
      "ter</w>"
    ],
    [
      "v",
      "en</w>"
    ],
    [
      "g",
      "ent"
    ],
    [
      "A",
      "s</w>"
    ],
    [
      "unti",
      "l</w>"
    ],
    [
      "pa",
      "per"
    ],
    [
      "m",
      "b"
    ],
    [
      "l",
      "ong</w>"
    ],
    [
      "“",
      "But</w>"
    ],
    [
      "m",
      "ake</w>"
    ],
    [
      "it",
      "y</w>"
    ],
    [
      "j",
      "e"
    ],
    [
      "th",
      "ough</w>"
    ],
    [
      "li",
      "ght</w>"
    ],
    [
      "i",
      "d"
    ],
    [
      "n",
      "er</w>"
    ],
    [
      "h",
      "and</w>"
    ],
    [
      "p",
      "la"
    ],
    [
      "st",
      "ep"
    ],
    [
      "si",
      "on</w>"
    ],
    [
      "s",
      "on,</w>"
    ],
    [
      "sel",
      "f"
    ],
    [
      "b",
      "ro"
    ],
    [
      "st",
      "ar"
    ],
    [
      "on",
      "s</w>"
    ],
    [
      "u",
      "gh"
    ],
    [
      "he",
      ".</w>"
    ],
    [
      "in",
      "e</w>"
    ],
    [
      "le",
      "t"
    ],
    [
      "ther",
      ",</w>"
    ],
    [
      "“W",
      "ell,</w>"
    ],
    [
      "mat",
      "ter"
    ],
    [
      "f",
      "l"
    ],
    [
      "on",
      "g"
    ],
    [
      "d",
      "es"
    ],
    [
      "en",
      "c"
    ],
    [
      "f",
      "ul"
    ],
    [
      "ac",
      "k"
    ],
    [
      "ri",
      "ght</w>"
    ],
    [
      "p",
      "ut</w>"
    ],
    [
      "St",
      "re"
    ],
    [
      "com",
      "m"
    ],
    [
      "th",
      "en,</w>"
    ],
    [
      "ag",
      "e</w>"
    ],
    [
      "c",
      "ur"
    ],
    [
      "or",
      "t"
    ],
    [
      "m",
      "ent</w>"
    ],
    [
      "of",
      "f"
    ],
    [
      "ang",
      "e</w>"
    ],
    [
      "whi",
      "le</w>"
    ],
    [
      "fo",
      "re"
    ],
    [
      "g",
      "u"
    ],
    [
      "fu",
      "l</w>"
    ],
    [
      "se",
      ".</w>"
    ],
    [
      "p",
      "e</w>"
    ],
    [
      "fir",
      "st</w>"
    ],
    [
      "th",
      "ose</w>"
    ],
    [
      "d",
      "re"
    ],
    [
      "ert",
      "ain"
    ],
    [
      "ing",
      "s</w>"
    ],
    [
      "ev",
      "en</w>"
    ],
    [
      "re",
      "ady</w>"
    ],
    [
      "f",
      "r"
    ],
    [
      "s",
      "c"
    ],
    [
      "youn",
      "g</w>"
    ],
    [
      "v",
      "is"
    ],
    [
      "ou",
      "t"
    ],
    [
      "es",
      "s"
    ],
    [
      "g",
      "et</w>"
    ],
    [
      "un",
      "der"
    ],
    [
      "at",
      "ed</w>"
    ],
    [
      "s",
      "ur"
    ],
    [
      "you",
      ",</w>"
    ],
    [
      "he",
      "ad"
    ],
    [
      "b",
      "u"
    ],
    [
      "fa",
      "ther</w>"
    ],
    [
      "you",
      "r"
    ],
    [
      "o",
      "w</w>"
    ],
    [
      "t",
      "ak"
    ],
    [
      "ha",
      "l"
    ],
    [
      "th",
      "ese</w>"
    ],
    [
      "“O",
      "h,</w>"
    ],
    [
      "r",
      "ound</w>"
    ],
    [
      "with",
      "out</w>"
    ],
    [
      "s",
      "in"
    ],
    [
      "g",
      "a"
    ],
    [
      "he",
      "ar"
    ],
    [
      "W",
      "h"
    ],
    [
      "d",
      "ar"
    ],
    [
      "si",
      "de"
    ],
    [
      "d",
      "ro"
    ],
    [
      "him",
      ",</w>"
    ],
    [
      "seem",
      "ed</w>"
    ],
    [
      "the",
      "m"
    ],
    [
      "w",
      "al"
    ],
    [
      "t",
      "a"
    ],
    [
      "l",
      "y.</w>"
    ],
    [
      "pos",
      "si"
    ],
    [
      "W",
      "hat</w>"
    ],
    [
      "g",
      "ra"
    ],
    [
      "“Y",
      "es,</w>"
    ],
    [
      "en",
      "ti"
    ],
    [
      "wa",
      "ys</w>"
    ],
    [
      "him",
      "self</w>"
    ],
    [
      "g",
      "n"
    ],
    [
      "qu",
      "i"
    ],
    [
      "r",
      "ac"
    ],
    [
      "th",
      "ought</w>"
    ],
    [
      "thre",
      "e</w>"
    ],
    [
      "il",
      "l"
    ],
    [
      "some",
      "thing</w>"
    ],
    [
      "si",
      "l"
    ],
    [
      "se",
      "s</w>"
    ],
    [
      "t",
      "al"
    ],
    [
      "ha",
      "ving</w>"
    ],
    [
      "n",
      "e</w>"
    ],
    [
      "e",
      "i"
    ],
    [
      "Holm",
      "es"
    ],
    [
      "to",
      "-"
    ],
    [
      "ap",
      "pear"
    ],
    [
      "er",
      "s</w>"
    ],
    [
      "ey",
      "es</w>"
    ],
    [
      "ro",
      "s"
    ],
    [
      "sti",
      "ll</w>"
    ],
    [
      "on",
      "ce</w>"
    ],
    [
      "w",
      "ent</w>"
    ],
    [
      "p",
      "en"
    ],
    [
      "us",
      "ed</w>"
    ],
    [
      "win",
      "dow"
    ],
    [
      "“",
      "A"
    ],
    [
      "m",
      "er"
    ],
    [
      "ou",
      "gh"
    ],
    [
      "er",
      "y</w>"
    ],
    [
      "t",
      "ing</w>"
    ],
    [
      "la",
      "r</w>"
    ],
    [
      "re",
      "as"
    ],
    [
      "of",
      "f</w>"
    ],
    [
      "in",
      "de"
    ],
    [
      "year",
      "s</w>"
    ],
    [
      "b",
      "le"
    ],
    [
      "h",
      "ur"
    ],
    [
      "inter",
      "est"
    ],
    [
      "we",
      "en</w>"
    ],
    [
      "c",
      "he"
    ],
    [
      "se",
      "e"
    ],
    [
      "y",
      "et</w>"
    ],
    [
      "gent",
      "le"
    ],
    [
      "st",
      ",</w>"
    ],
    [
      "v",
      "es</w>"
    ],
    [
      "oo",
      "d</w>"
    ],
    [
      "qu",
      "esti"
    ],
    [
      "I",
      "n</w>"
    ],
    [
      "min",
      "ut"
    ],
    [
      "al",
      "ways</w>"
    ],
    [
      "is",
      "s</w>"
    ],
    [
      "gre",
      "at</w>"
    ],
    [
      "en",
      "g"
    ],
    [
      "l",
      "ar"
    ],
    [
      "ing",
      "-"
    ],
    [
      "s",
      "on</w>"
    ],
    [
      "us",
      "hed</w>"
    ],
    [
      "ra",
      "ther</w>"
    ],
    [
      "ex",
      "a"
    ],
    [
      "under",
      "st"
    ],
    [
      "su",
      "dd"
    ],
    [
      "ob",
      "ser"
    ],
    [
      "m",
      "ed</w>"
    ],
    [
      "to",
      "o</w>"
    ],
    [
      "c",
      "tion</w>"
    ],
    [
      "M",
      "iss</w>"
    ],
    [
      "re",
      ".</w>"
    ],
    [
      "tr",
      "u"
    ],
    [
      "my",
      "self</w>"
    ],
    [
      "go",
      "t</w>"
    ],
    [
      "for",
      "t"
    ],
    [
      "con",
      "t"
    ],
    [
      "n",
      "at"
    ],
    [
      "s",
      "at</w>"
    ],
    [
      "ou",
      "s"
    ],
    [
      "he",
      "y</w>"
    ],
    [
      "or",
      ".</w>"
    ],
    [
      "gi",
      "ve</w>"
    ],
    [
      "a",
      "th"
    ],
    [
      "T",
      "his</w>"
    ],
    [
      "you",
      ".</w>"
    ],
    [
      "ar",
      "m"
    ],
    [
      "hou",
      "se</w>"
    ],
    [
      "ic",
      "i"
    ],
    [
      "e",
      "f"
    ],
    [
      "we",
      "ll</w>"
    ],
    [
      "sa",
      "me</w>"
    ],
    [
      "w",
      "he"
    ],
    [
      "again",
      "st</w>"
    ],
    [
      "on",
      "d"
    ],
    [
      "bet",
      "ween</w>"
    ],
    [
      "k",
      "ed.</w>"
    ],
    [
      "wa",
      "it"
    ],
    [
      "T",
      "hat</w>"
    ],
    [
      "M",
      "c"
    ],
    [
      "w",
      "at"
    ],
    [
      "m",
      "on"
    ],
    [
      "we",
      "e"
    ],
    [
      "t",
      "t"
    ],
    [
      "w",
      "ell"
    ],
    [
      "s",
      "po"
    ],
    [
      "t",
      "re"
    ],
    [
      "d",
      "ri"
    ],
    [
      "ent",
      ",</w>"
    ],
    [
      "H",
      "is</w>"
    ],
    [
      "busin",
      "ess</w>"
    ],
    [
      "I",
      "f</w>"
    ],
    [
      "c",
      "ti"
    ],
    [
      "s",
      "up"
    ],
    [
      "si",
      "r"
    ],
    [
      "“W",
      "h"
    ],
    [
      "an",
      "i"
    ],
    [
      "loo",
      "ked</w>"
    ],
    [
      "st",
      "or"
    ],
    [
      "ol",
      "e</w>"
    ],
    [
      "gl",
      "anc"
    ],
    [
      "C",
      "ar"
    ],
    [
      "e",
      ".”</w>"
    ],
    [
      "li",
      "c"
    ],
    [
      "“W",
      "hat</w>"
    ],
    [
      "d",
      "one</w>"
    ],
    [
      "mor",
      "n"
    ],
    [
      "s",
      "ing</w>"
    ],
    [
      "on",
      "e,</w>"
    ],
    [
      "fri",
      "en"
    ],
    [
      "fa",
      "r</w>"
    ],
    [
      "be",
      "ing</w>"
    ],
    [
      "ha",
      "pp"
    ],
    [
      "as",
      "ked</w>"
    ],
    [
      "br",
      "ought</w>"
    ],
    [
      "e",
      "t,</w>"
    ],
    [
      "ti",
      "c"
    ],
    [
      "mor",
      "ning</w>"
    ],
    [
      "cha",
      "ir</w>"
    ],
    [
      "con",
      "si"
    ],
    [
      "har",
      "dly</w>"
    ],
    [
      "fri",
      "end</w>"
    ],
    [
      "“",
      "S"
    ],
    [
      "k",
      "new</w>"
    ],
    [
      "fr",
      "on"
    ],
    [
      "s",
      "le"
    ],
    [
      "en",
      "ly</w>"
    ],
    [
      "c",
      "ertain"
    ],
    [
      "ch",
      "ed</w>"
    ],
    [
      "ex",
      "c"
    ],
    [
      "h",
      "or"
    ],
    [
      "le",
      "t</w>"
    ],
    [
      "g",
      "ave</w>"
    ],
    [
      "is",
      ",</w>"
    ],
    [
      "doub",
      "t</w>"
    ],
    [
      "be",
      "hin"
    ],
    [
      "in",
      "di"
    ],
    [
      "d",
      "g"
    ],
    [
      "room",
      ",</w>"
    ],
    [
      "ir",
      ",</w>"
    ],
    [
      "bl",
      "ack</w>"
    ],
    [
      "cl",
      "u"
    ],
    [
      "i",
      "st"
    ],
    [
      "di",
      "st"
    ],
    [
      "with",
      "in</w>"
    ],
    [
      "al",
      "ready</w>"
    ],
    [
      "Mc",
      "Car"
    ],
    [
      "he",
      "ad</w>"
    ],
    [
      "ac",
      "h</w>"
    ],
    [
      "wh",
      "o"
    ],
    [
      "n",
      ",</w>"
    ],
    [
      "McCar",
      "th"
    ],
    [
      "l",
      "ay</w>"
    ],
    [
      "B",
      "ak"
    ],
    [
      "man",
      ".</w>"
    ],
    [
      "L",
      "or"
    ],
    [
      "loo",
      "k</w>"
    ],
    [
      "H",
      "a"
    ],
    [
      "R",
      "o"
    ],
    [
      "L",
      "ond"
    ],
    [
      "la",
      "ugh"
    ],
    [
      "S",
      "im"
    ],
    [
      "es",
      ".”</w>"
    ],
    [
      "su",
      "l"
    ],
    [
      "y",
      "-"
    ],
    [
      "gh",
      "t.</w>"
    ],
    [
      "loo",
      "king</w>"
    ],
    [
      "r",
      "ay</w>"
    ],
    [
      "p",
      "ed</w>"
    ],
    [
      "be",
      "li"
    ],
    [
      "then",
      "?”</w>"
    ],
    [
      "est",
      "r"
    ],
    [
      "ne",
      "w"
    ],
    [
      "na",
      "me</w>"
    ],
    [
      "p",
      "le"
    ],
    [
      "d",
      "n"
    ],
    [
      "a",
      "k</w>"
    ],
    [
      "“",
      "N"
    ],
    [
      "“",
      "He</w>"
    ],
    [
      "wis",
      "h</w>"
    ],
    [
      "on",
      ".”</w>"
    ],
    [
      "st",
      "er"
    ],
    [
      "comp",
      "ani"
    ],
    [
      "on",
      "’t</w>"
    ],
    [
      "n",
      ".</w>"
    ],
    [
      "c",
      "hi"
    ],
    [
      "L",
      "estr"
    ],
    [
      "ca",
      "l</w>"
    ],
    [
      "r",
      "an"
    ],
    [
      "pp",
      "ed</w>"
    ],
    [
      "s",
      "or"
    ],
    [
      "c",
      "all"
    ],
    [
      "d",
      ".”</w>"
    ],
    [
      "dra",
      "w"
    ],
    [
      "Lor",
      "d</w>"
    ],
    [
      "c",
      "all</w>"
    ],
    [
      "E",
      "n"
    ],
    [
      "ab",
      "sol"
    ],
    [
      "e",
      "as"
    ],
    [
      "d",
      "en</w>"
    ],
    [
      "le",
      "ave</w>"
    ],
    [
      "fort",
      "un"
    ],
    [
      "min",
      "d</w>"
    ],
    [
      "“",
      "Then</w>"
    ],
    [
      "wh",
      "ole</w>"
    ],
    [
      "g",
      "ar"
    ],
    [
      "af",
      "ter"
    ],
    [
      "f",
      "re"
    ],
    [
      "p",
      "u"
    ],
    [
      "fol",
      "low"
    ],
    [
      "i",
      "ce</w>"
    ],
    [
      "per",
      "ha"
    ],
    [
      "“",
      "P"
    ],
    [
      "h",
      "un"
    ],
    [
      "b",
      "ur"
    ],
    [
      "t",
      "old</w>"
    ],
    [
      "en",
      "ing</w>"
    ],
    [
      "o",
      "ther"
    ],
    [
      "ad",
      "v"
    ],
    [
      "vis",
      "it"
    ],
    [
      "str",
      "u"
    ],
    [
      "v",
      "e,</w>"
    ],
    [
      "can",
      "not</w>"
    ],
    [
      "tr",
      "ac"
    ],
    [
      "le",
      ".</w>"
    ],
    [
      "hand",
      "s</w>"
    ],
    [
      "ow",
      ",</w>"
    ],
    [
      "“No",
      ",</w>"
    ],
    [
      "sh",
      "o"
    ],
    [
      "le",
      "s</w>"
    ],
    [
      "st",
      "a"
    ],
    [
      "da",
      "y,</w>"
    ],
    [
      "ain",
      "ed</w>"
    ],
    [
      "c",
      "ent"
    ],
    [
      "cle",
      "ar"
    ],
    [
      "any",
      "thing</w>"
    ],
    [
      "al",
      "so</w>"
    ],
    [
      "all",
      ",</w>"
    ],
    [
      "f",
      "es"
    ],
    [
      "di",
      "ff"
    ],
    [
      "now",
      ",</w>"
    ],
    [
      "c",
      "li"
    ],
    [
      "se",
      "t</w>"
    ],
    [
      "behin",
      "d</w>"
    ],
    [
      "di",
      "re"
    ],
    [
      "consi",
      "der"
    ],
    [
      "exa",
      "min"
    ],
    [
      "so",
      ".</w>"
    ],
    [
      "pos",
      "iti"
    ],
    [
      "um",
      "b"
    ],
    [
      "w",
      "ard</w>"
    ],
    [
      "f",
      "ing"
    ],
    [
      "k",
      "in"
    ],
    [
      "v",
      "o"
    ],
    [
      "ca",
      "use</w>"
    ],
    [
      "ros",
      "s</w>"
    ],
    [
      "fron",
      "t</w>"
    ],
    [
      "k",
      ".</w>"
    ],
    [
      "a",
      "d,</w>"
    ],
    [
      "t",
      "ri"
    ],
    [
      "r",
      "e</w>"
    ],
    [
      "re",
      "ally</w>"
    ],
    [
      "o",
      "ver"
    ],
    [
      "“",
      "My</w>"
    ],
    [
      "spe",
      "ct"
    ],
    [
      "te",
      "mp"
    ],
    [
      "he",
      "av"
    ],
    [
      "tur",
      "n</w>"
    ],
    [
      "I",
      ".</w>"
    ],
    [
      "mar",
      "ri"
    ],
    [
      "ho",
      "me</w>"
    ],
    [
      "m",
      "one"
    ],
    [
      "en",
      "ough</w>"
    ],
    [
      "ke",
      "d,</w>"
    ],
    [
      "i",
      "d,</w>"
    ],
    [
      "ur",
      "n"
    ],
    [
      "str",
      "ange</w>"
    ],
    [
      "ur",
      "ing</w>"
    ],
    [
      "room",
      ".</w>"
    ],
    [
      "i",
      "de</w>"
    ],
    [
      "a",
      "in</w>"
    ],
    [
      "un",
      "der</w>"
    ],
    [
      "e",
      "ly</w>"
    ],
    [
      "man",
      "y</w>"
    ],
    [
      "l",
      "ady</w>"
    ],
    [
      "s",
      "hi"
    ],
    [
      "imp",
      "ort"
    ],
    [
      "bet",
      "ter</w>"
    ],
    [
      "l",
      "ad"
    ],
    [
      "answ",
      "er"
    ],
    [
      "c",
      "la"
    ],
    [
      "w",
      "as"
    ],
    [
      "do",
      "w</w>"
    ],
    [
      "oun",
      "d,</w>"
    ],
    [
      "st",
      "o"
    ],
    [
      "in",
      "v"
    ],
    [
      "sa",
      "ve</w>"
    ],
    [
      "hal",
      "f</w>"
    ],
    [
      "ch",
      ",</w>"
    ],
    [
      "ing",
      ".”</w>"
    ],
    [
      "f",
      "lo"
    ],
    [
      "bo",
      "th</w>"
    ],
    [
      "m",
      "ur"
    ],
    [
      "de",
      "ar</w>"
    ],
    [
      "ni",
      "ght</w>"
    ],
    [
      "let",
      "ter"
    ],
    [
      "d",
      "y</w>"
    ],
    [
      "l",
      "in"
    ],
    [
      "Wat",
      "son,</w>"
    ],
    [
      "C",
      "la"
    ],
    [
      "en",
      ".</w>"
    ],
    [
      "es",
      "s.</w>"
    ],
    [
      "d",
      "ge</w>"
    ],
    [
      "m",
      "en</w>"
    ],
    [
      "co",
      "ver"
    ],
    [
      "fa",
      "mi"
    ],
    [
      "to",
      "ge"
    ],
    [
      "m",
      "er</w>"
    ],
    [
      "n",
      "ar"
    ],
    [
      "w",
      "oo"
    ],
    [
      "“",
      "Th"
    ],
    [
      "Wh",
      "en</w>"
    ],
    [
      "D",
      "o"
    ],
    [
      "gra",
      "p"
    ],
    [
      "sh",
      "oul"
    ],
    [
      "y",
      ",”</w>"
    ],
    [
      "b",
      "oo"
    ],
    [
      "mb",
      "er</w>"
    ],
    [
      "s",
      "li"
    ],
    [
      "th",
      ",</w>"
    ],
    [
      "a",
      "st"
    ],
    [
      "s",
      "itt"
    ],
    [
      "ap",
      "er</w>"
    ],
    [
      "c",
      "ed</w>"
    ],
    [
      "L",
      "e"
    ],
    [
      "u",
      "lar</w>"
    ],
    [
      "!",
      "’</w>"
    ],
    [
      "es",
      "s,</w>"
    ],
    [
      "plac",
      "e</w>"
    ],
    [
      "e",
      "t.</w>"
    ],
    [
      "me",
      ".”</w>"
    ],
    [
      "st",
      "ri"
    ],
    [
      "lar",
      "ge</w>"
    ],
    [
      "coun",
      "tr"
    ],
    [
      "be",
      "g"
    ],
    [
      "e",
      "-"
    ],
    [
      "ne",
      "i"
    ],
    [
      "wh",
      "y</w>"
    ],
    [
      "“T",
      "hat</w>"
    ],
    [
      "who",
      "m</w>"
    ],
    [
      "me",
      "an"
    ],
    [
      "bre",
      "ak"
    ],
    [
      "ni",
      "ght"
    ],
    [
      "O",
      "n</w>"
    ],
    [
      "l",
      "ong"
    ],
    [
      "it",
      ".”</w>"
    ],
    [
      "b",
      "b"
    ],
    [
      "p",
      "ul"
    ],
    [
      "op",
      "en</w>"
    ],
    [
      "sing",
      "ular</w>"
    ],
    [
      "’",
      "ll</w>"
    ],
    [
      "er",
      "e"
    ],
    [
      "s",
      "ure</w>"
    ],
    [
      "ati",
      "on.</w>"
    ],
    [
      "di",
      "sa"
    ],
    [
      "c",
      "r"
    ],
    [
      "si",
      "on"
    ],
    [
      "gentle",
      "man</w>"
    ],
    [
      "you",
      ".”</w>"
    ],
    [
      "pol",
      "ic"
    ],
    [
      "ev",
      "id"
    ],
    [
      "t",
      "en</w>"
    ],
    [
      "h",
      "and,</w>"
    ],
    [
      "ther",
      "e"
    ],
    [
      "at",
      "h</w>"
    ],
    [
      "con",
      "v"
    ],
    [
      "cle",
      "ar</w>"
    ],
    [
      "f",
      "oo"
    ],
    [
      "t",
      "’s</w>"
    ],
    [
      "row",
      "n</w>"
    ],
    [
      "whe",
      "ther</w>"
    ],
    [
      "se",
      "ver"
    ],
    [
      "at",
      "ten"
    ],
    [
      "G",
      "o"
    ],
    [
      "ent",
      ".</w>"
    ],
    [
      "c",
      "ted</w>"
    ],
    [
      "b",
      "an"
    ],
    [
      "hel",
      "p</w>"
    ],
    [
      "ter",
      "ed</w>"
    ],
    [
      "al",
      "i"
    ],
    [
      "c",
      "ked</w>"
    ],
    [
      "sudd",
      "enly</w>"
    ],
    [
      "st",
      "and"
    ],
    [
      "D",
      "r.</w>"
    ],
    [
      "i",
      "ly</w>"
    ],
    [
      "ac",
      "ross</w>"
    ],
    [
      "me",
      "t</w>"
    ],
    [
      "p",
      "ur"
    ],
    [
      "am",
      "ong</w>"
    ],
    [
      "h",
      "u"
    ],
    [
      "W",
      "il"
    ],
    [
      "ab",
      "ly</w>"
    ],
    [
      "ei",
      "ther</w>"
    ],
    [
      "pas",
      "sed</w>"
    ],
    [
      "ce",
      "i"
    ],
    [
      "ro",
      "w</w>"
    ],
    [
      "know",
      "n</w>"
    ],
    [
      "as",
      "sist"
    ],
    [
      "wr",
      "it"
    ],
    [
      "an",
      "other</w>"
    ],
    [
      "h",
      "ol"
    ],
    [
      "up",
      ",</w>"
    ],
    [
      "I",
      ",</w>"
    ],
    [
      "wor",
      "k</w>"
    ],
    [
      "te",
      "ly</w>"
    ],
    [
      "Bak",
      "er</w>"
    ],
    [
      "en",
      "er"
    ],
    [
      "J",
      "o"
    ],
    [
      "ll",
      ",</w>"
    ],
    [
      "ra",
      "is"
    ],
    [
      "g",
      "ed</w>"
    ],
    [
      "“",
      "There</w>"
    ],
    [
      "in",
      "t"
    ],
    [
      "B",
      "ri"
    ],
    [
      "su",
      "c"
    ],
    [
      "u",
      "tely</w>"
    ],
    [
      "a",
      "u"
    ],
    [
      "d",
      "uring</w>"
    ],
    [
      "sever",
      "al</w>"
    ],
    [
      "re",
      "m"
    ],
    [
      "win",
      "dow</w>"
    ],
    [
      "fel",
      "t</w>"
    ],
    [
      "shoul",
      "der"
    ],
    [
      "se",
      "cre"
    ],
    [
      "T",
      "hey</w>"
    ],
    [
      "“T",
      "his</w>"
    ],
    [
      "m",
      ",</w>"
    ],
    [
      "that",
      ",</w>"
    ],
    [
      "j",
      "u"
    ],
    [
      "b",
      "ack"
    ],
    [
      "ob",
      "vi"
    ],
    [
      "la",
      "id</w>"
    ],
    [
      "f",
      "er"
    ],
    [
      "wo",
      "man</w>"
    ],
    [
      "so",
      ",</w>"
    ],
    [
      "u",
      "r</w>"
    ],
    [
      "your",
      "self</w>"
    ],
    [
      "b",
      "ir"
    ],
    [
      "A",
      "r"
    ],
    [
      "he",
      "ar</w>"
    ],
    [
      "a",
      "re"
    ],
    [
      "B",
      "o"
    ],
    [
      "in",
      ",</w>"
    ],
    [
      "do",
      "es</w>"
    ],
    [
      "li",
      "fe</w>"
    ],
    [
      "la",
      "m"
    ],
    [
      "as",
      "k</w>"
    ],
    [
      "F",
      "r"
    ],
    [
      "st",
      "ood</w>"
    ],
    [
      "ab",
      "o"
    ],
    [
      "sur",
      "pri"
    ],
    [
      "p",
      "ho"
    ],
    [
      "cour",
      "se</w>"
    ],
    [
      "ca",
      "u"
    ],
    [
      "at",
      "t"
    ],
    [
      "k",
      "en</w>"
    ],
    [
      "h",
      "our"
    ],
    [
      "l",
      "and"
    ],
    [
      "beli",
      "e"
    ],
    [
      "on",
      "e.</w>"
    ],
    [
      "ti",
      "me,</w>"
    ],
    [
      "i",
      "de"
    ],
    [
      "a",
      "re,</w>"
    ],
    [
      "pho",
      "to"
    ],
    [
      "st",
      "e"
    ],
    [
      "b",
      "ac"
    ],
    [
      "fi",
      "ve</w>"
    ],
    [
      "b",
      "ar"
    ],
    [
      "call",
      "ed</w>"
    ],
    [
      "sin",
      "ce</w>"
    ],
    [
      "possi",
      "ble</w>"
    ],
    [
      "li",
      "c</w>"
    ],
    [
      "ir",
      ".</w>"
    ],
    [
      "fa",
      "ther"
    ],
    [
      "t",
      "ow"
    ],
    [
      "r",
      "un"
    ],
    [
      "si",
      "mp"
    ],
    [
      "o",
      "’"
    ],
    [
      "remar",
      "ked</w>"
    ],
    [
      "ad",
      "dres"
    ],
    [
      "F",
      "or</w>"
    ],
    [
      "ta",
      "il"
    ],
    [
      "photo",
      "grap"
    ],
    [
      "re",
      "ac"
    ],
    [
      "as",
      "s</w>"
    ],
    [
      "be",
      "d"
    ],
    [
      "no",
      "t"
    ],
    [
      "i",
      "ous</w>"
    ],
    [
      "n",
      "ess</w>"
    ],
    [
      "g",
      "ir"
    ],
    [
      "us",
      "u"
    ],
    [
      "g",
      "ri"
    ],
    [
      "n",
      "er"
    ],
    [
      "thre",
      "w</w>"
    ],
    [
      "us",
      ".</w>"
    ],
    [
      "se",
      "con"
    ],
    [
      "disa",
      "p"
    ],
    [
      "de",
      "du"
    ],
    [
      "str",
      "ong</w>"
    ],
    [
      "so",
      "on</w>"
    ],
    [
      "re",
      "turned</w>"
    ],
    [
      "enc",
      "e,</w>"
    ],
    [
      "f",
      "our</w>"
    ],
    [
      "p",
      "aper</w>"
    ],
    [
      "re",
      "ad</w>"
    ],
    [
      "o",
      "me</w>"
    ],
    [
      "l",
      "an"
    ],
    [
      "ic",
      "k</w>"
    ],
    [
      "l",
      "ing</w>"
    ],
    [
      "whi",
      "s"
    ],
    [
      "Jo",
      "h"
    ],
    [
      "d",
      "ang"
    ],
    [
      "su",
      "b"
    ],
    [
      "in",
      "ci"
    ],
    [
      "d",
      "in"
    ],
    [
      "as",
      "ked.</w>"
    ],
    [
      "li",
      "ar</w>"
    ],
    [
      "st",
      "ed</w>"
    ],
    [
      "ed",
      ".”</w>"
    ],
    [
      "h",
      "us"
    ],
    [
      "pro",
      "b"
    ],
    [
      "ex",
      "pla"
    ],
    [
      "morn",
      "ing,</w>"
    ],
    [
      "re",
      "n"
    ],
    [
      "wi",
      "fe</w>"
    ],
    [
      "V",
      "ery</w>"
    ],
    [
      "paper",
      "s</w>"
    ],
    [
      "r",
      "ushed</w>"
    ],
    [
      "Do",
      "ct"
    ],
    [
      "tak",
      "en</w>"
    ],
    [
      "wor",
      "ds</w>"
    ],
    [
      "thin",
      "k,</w>"
    ],
    [
      "ho",
      "pe</w>"
    ],
    [
      "c",
      "ry</w>"
    ],
    [
      "re",
      "sul"
    ],
    [
      "m",
      "ak"
    ],
    [
      "be",
      "came</w>"
    ],
    [
      "re",
      "me"
    ],
    [
      "ne",
      "ar</w>"
    ],
    [
      "ran",
      "g</w>"
    ],
    [
      "t",
      "ly</w>"
    ],
    [
      "s",
      "mo"
    ],
    [
      "car",
      "ri"
    ],
    [
      "S",
      "u"
    ],
    [
      "our",
      "ed</w>"
    ],
    [
      "N",
      "ow,</w>"
    ],
    [
      "y",
      "’s</w>"
    ],
    [
      "g",
      "n</w>"
    ],
    [
      "so",
      "ci"
    ],
    [
      "m",
      "ad"
    ],
    [
      "gi",
      "ven</w>"
    ],
    [
      "is",
      "h</w>"
    ],
    [
      "wa",
      "y,</w>"
    ],
    [
      "e",
      "ach</w>"
    ],
    [
      "minut",
      "es</w>"
    ],
    [
      "in",
      "ed</w>"
    ],
    [
      "ut",
      "e</w>"
    ],
    [
      "su",
      "gg"
    ],
    [
      "ent",
      "s</w>"
    ],
    [
      "I",
      "n"
    ],
    [
      "th",
      "ir"
    ],
    [
      "pro",
      "fes"
    ],
    [
      "dro",
      "ve</w>"
    ],
    [
      "man",
      "’s</w>"
    ],
    [
      "r",
      "s.</w>"
    ],
    [
      "cont",
      "in"
    ],
    [
      "ou",
      "t,</w>"
    ],
    [
      "J",
      "a"
    ],
    [
      "cha",
      "rac"
    ],
    [
      "M",
      "rs.</w>"
    ],
    [
      "im",
      "ag"
    ],
    [
      "pol",
      "ice</w>"
    ],
    [
      "sh",
      "ow"
    ],
    [
      "cri",
      "ed</w>"
    ],
    [
      "i",
      "l</w>"
    ],
    [
      "“",
      "B"
    ],
    [
      "at",
      "e,</w>"
    ],
    [
      "ar",
      "ds</w>"
    ],
    [
      "p",
      ",</w>"
    ],
    [
      "wor",
      "d</w>"
    ],
    [
      "s",
      "en"
    ],
    [
      "ag",
      "e,</w>"
    ],
    [
      "belie",
      "ve</w>"
    ],
    [
      "w",
      "on"
    ],
    [
      "Wat",
      "son"
    ],
    [
      "remar",
      "k"
    ],
    [
      "M",
      "or"
    ],
    [
      "ex",
      "pe"
    ],
    [
      "perha",
      "ps</w>"
    ],
    [
      "“",
      "C"
    ],
    [
      "co",
      "at"
    ],
    [
      "hel",
      "d</w>"
    ],
    [
      "a",
      "w"
    ],
    [
      "m",
      "il"
    ],
    [
      "ad",
      "ver"
    ],
    [
      "H",
      "or"
    ],
    [
      "ni",
      "ght,</w>"
    ],
    [
      "si",
      "ve</w>"
    ],
    [
      "si",
      "gn"
    ],
    [
      "adver",
      "ti"
    ],
    [
      "j",
      "o"
    ],
    [
      "v",
      "e.</w>"
    ],
    [
      "certain",
      "ly</w>"
    ],
    [
      "t",
      "s,</w>"
    ],
    [
      "poin",
      "t</w>"
    ],
    [
      "dn",
      "’t</w>"
    ],
    [
      "wr",
      "itt"
    ],
    [
      "h",
      "ing</w>"
    ],
    [
      "ex",
      "ce"
    ],
    [
      "D",
      "o</w>"
    ],
    [
      "re",
      "l"
    ],
    [
      "y",
      "?”</w>"
    ],
    [
      "em",
      "ent</w>"
    ],
    [
      "s",
      "?”</w>"
    ],
    [
      "A",
      "t</w>"
    ],
    [
      "ke",
      "ep</w>"
    ],
    [
      "l",
      "or"
    ],
    [
      "b",
      "es"
    ],
    [
      "p",
      "t</w>"
    ],
    [
      "qu",
      "ar"
    ],
    [
      "t",
      "-"
    ],
    [
      "fac",
      "ts</w>"
    ],
    [
      "go",
      "ing</w>"
    ],
    [
      "in",
      "spect"
    ],
    [
      "b",
      "and"
    ],
    [
      "fe",
      "ct</w>"
    ],
    [
      "ac",
      "coun"
    ],
    [
      "a",
      "j"
    ],
    [
      "le",
      "ast</w>"
    ],
    [
      "re",
      "ad"
    ],
    [
      "“W",
      "e</w>"
    ],
    [
      "on",
      "er</w>"
    ],
    [
      "c",
      "lock</w>"
    ],
    [
      "ati",
      "on,</w>"
    ],
    [
      "com",
      "ing</w>"
    ],
    [
      "pro",
      "ble"
    ],
    [
      "ever",
      "y"
    ],
    [
      "ful",
      "ly</w>"
    ],
    [
      "da",
      "ys</w>"
    ],
    [
      "cour",
      "se,</w>"
    ],
    [
      "p",
      "al"
    ],
    [
      "la",
      "w"
    ],
    [
      "all",
      ".</w>"
    ],
    [
      "Ro",
      "y"
    ],
    [
      "fa",
      "st"
    ],
    [
      "low",
      ",</w>"
    ],
    [
      "cha",
      "r"
    ],
    [
      "absol",
      "utely</w>"
    ],
    [
      "e",
      "mp"
    ],
    [
      "H",
      "os"
    ],
    [
      "li",
      "st"
    ],
    [
      "pos",
      "e</w>"
    ],
    [
      "W",
      "indi"
    ],
    [
      "b",
      "i"
    ],
    [
      "O",
      "ne</w>"
    ],
    [
      "c",
      "ke"
    ],
    [
      "re",
      "p"
    ],
    [
      "li",
      "ke"
    ],
    [
      "th",
      ".</w>"
    ],
    [
      "w",
      "ant</w>"
    ],
    [
      "Roy",
      "lo"
    ],
    [
      "op",
      "ened</w>"
    ],
    [
      "bes",
      "ide</w>"
    ],
    [
      "e",
      "l</w>"
    ],
    [
      "qui",
      "et"
    ],
    [
      "b",
      "or"
    ],
    [
      "wal",
      "ked</w>"
    ],
    [
      "questi",
      "on</w>"
    ],
    [
      "on",
      "ing</w>"
    ],
    [
      "vi",
      "ol"
    ],
    [
      "d",
      "on’t</w>"
    ],
    [
      "mo",
      "ment</w>"
    ],
    [
      "t",
      "u"
    ],
    [
      "in",
      "no"
    ],
    [
      "my",
      "self"
    ],
    [
      "A",
      "d"
    ],
    [
      "hi",
      "gh"
    ],
    [
      "like",
      "ly</w>"
    ],
    [
      "oo",
      "k</w>"
    ],
    [
      "s",
      "un"
    ],
    [
      "er",
      "’s</w>"
    ],
    [
      "l",
      "and</w>"
    ],
    [
      "R",
      "e"
    ],
    [
      "g",
      "li"
    ],
    [
      "ri",
      "ble</w>"
    ],
    [
      "heav",
      "y</w>"
    ],
    [
      "i",
      "es</w>"
    ],
    [
      "ic",
      "ul"
    ],
    [
      "answ",
      "ered</w>"
    ],
    [
      "w",
      "ed"
    ],
    [
      "suc",
      "c"
    ],
    [
      "r",
      "an</w>"
    ],
    [
      "si",
      "ght</w>"
    ],
    [
      "par",
      "t</w>"
    ],
    [
      "ati",
      "on"
    ],
    [
      "M",
      "aj"
    ],
    [
      "de",
      "ep"
    ],
    [
      "Sim",
      "on</w>"
    ],
    [
      "se",
      "d,</w>"
    ],
    [
      "anc",
      "e.</w>"
    ],
    [
      "or",
      "t</w>"
    ],
    [
      "st",
      "at"
    ],
    [
      "follow",
      "ed</w>"
    ],
    [
      "th",
      "ings</w>"
    ],
    [
      "m",
      "en"
    ],
    [
      "ag",
      "ed</w>"
    ],
    [
      "er",
      "r"
    ],
    [
      "anc",
      "e,</w>"
    ],
    [
      "ther",
      "e,</w>"
    ],
    [
      "fac",
      "e,</w>"
    ],
    [
      "se",
      "ven</w>"
    ],
    [
      "diff",
      "icul"
    ],
    [
      "s",
      "us"
    ],
    [
      "W",
      "ell,</w>"
    ],
    [
      "pl",
      "an"
    ],
    [
      "dar",
      "k"
    ],
    [
      "se",
      "e,</w>"
    ],
    [
      "do",
      "or,</w>"
    ],
    [
      "hal",
      "f"
    ],
    [
      "Lestr",
      "ade</w>"
    ],
    [
      "re",
      "ly</w>"
    ],
    [
      "cover",
      "ed</w>"
    ],
    [
      "obvi",
      "ous</w>"
    ],
    [
      "p",
      "ic"
    ],
    [
      "sha",
      "r"
    ],
    [
      "Hos",
      "mer</w>"
    ],
    [
      "t",
      "able</w>"
    ],
    [
      "sist",
      "er</w>"
    ],
    [
      "bo",
      "dy</w>"
    ],
    [
      "sta",
      "ir"
    ],
    [
      "p",
      "ac"
    ],
    [
      "any",
      "one</w>"
    ],
    [
      "p",
      "ing</w>"
    ],
    [
      "McCarth",
      "y</w>"
    ],
    [
      "one",
      "l</w>"
    ],
    [
      "v",
      "an"
    ],
    [
      "el",
      "se</w>"
    ],
    [
      "p",
      "r"
    ],
    [
      "g",
      "one</w>"
    ],
    [
      "wait",
      "ing</w>"
    ],
    [
      "st",
      "one</w>"
    ],
    [
      "ter",
      "min"
    ],
    [
      "draw",
      "n</w>"
    ],
    [
      "sp",
      "rang</w>"
    ],
    [
      "tw",
      "ent"
    ],
    [
      "cor",
      "ner</w>"
    ],
    [
      "ar",
      ",</w>"
    ],
    [
      "d",
      "s.</w>"
    ],
    [
      "do",
      "ing</w>"
    ],
    [
      "dar",
      "k</w>"
    ],
    [
      "ha",
      "t,</w>"
    ],
    [
      "t",
      "ab"
    ],
    [
      "res",
      "t</w>"
    ],
    [
      "p",
      "ow"
    ],
    [
      "i",
      "ght</w>"
    ],
    [
      "mur",
      "der"
    ],
    [
      "p",
      "s,</w>"
    ],
    [
      "star",
      "ted</w>"
    ],
    [
      "adverti",
      "se"
    ],
    [
      "appear",
      "ed</w>"
    ],
    [
      "at",
      "ing</w>"
    ],
    [
      "in",
      "qu"
    ],
    [
      "sir",
      ",</w>"
    ],
    [
      "“H",
      "ow</w>"
    ],
    [
      "hou",
      "se"
    ],
    [
      "ag",
      "ain</w>"
    ],
    [
      "ent",
      "ly</w>"
    ],
    [
      "hur",
      "ried</w>"
    ],
    [
      "B",
      "r"
    ],
    [
      "da",
      "ugh"
    ],
    [
      "tur",
      "ning</w>"
    ],
    [
      "po",
      "cke"
    ],
    [
      "mone",
      "y</w>"
    ],
    [
      "glanc",
      "ed</w>"
    ],
    [
      "b",
      "ed</w>"
    ],
    [
      "st",
      ".</w>"
    ],
    [
      "imp",
      "res"
    ],
    [
      "f",
      "as"
    ],
    [
      "her",
      ",</w>"
    ],
    [
      "t",
      "y"
    ],
    [
      "o’",
      "clock</w>"
    ],
    [
      "t",
      "or"
    ],
    [
      "st",
      "er</w>"
    ],
    [
      "stand",
      "ing</w>"
    ],
    [
      "K",
      "ing</w>"
    ],
    [
      "fo",
      "re,</w>"
    ],
    [
      "ob",
      "je"
    ],
    [
      "“",
      "that</w>"
    ],
    [
      "ev",
      "il"
    ],
    [
      "let",
      "ter</w>"
    ],
    [
      "st",
      "ra"
    ],
    [
      "underst",
      "and</w>"
    ],
    [
      "vi",
      "e"
    ],
    [
      "a",
      "ther</w>"
    ],
    [
      "af",
      "fa"
    ],
    [
      "he",
      "s</w>"
    ],
    [
      "si",
      "x</w>"
    ],
    [
      "fi",
      "g"
    ],
    [
      "secon",
      "d</w>"
    ],
    [
      "v",
      "al"
    ],
    [
      "wi",
      "f"
    ],
    [
      "Joh",
      "n</w>"
    ],
    [
      "d",
      "s,</w>"
    ],
    [
      "“",
      "A</w>"
    ],
    [
      "hou",
      "se,</w>"
    ],
    [
      "O",
      "h,</w>"
    ],
    [
      "s",
      "ent</w>"
    ],
    [
      "con",
      "clu"
    ],
    [
      "s",
      "we"
    ],
    [
      "ous",
      "ly</w>"
    ],
    [
      "p",
      "it"
    ],
    [
      "pe",
      "op"
    ],
    [
      "de",
      "tail"
    ],
    [
      "ni",
      "ght.</w>"
    ],
    [
      "side",
      ",</w>"
    ],
    [
      "t",
      ".”</w>"
    ],
    [
      "b",
      "loo"
    ],
    [
      "b",
      "est</w>"
    ],
    [
      "inst",
      "ant"
    ],
    [
      "ment",
      ".</w>"
    ],
    [
      "whi",
      "te</w>"
    ],
    [
      "de",
      "ep</w>"
    ],
    [
      "consider",
      "able</w>"
    ],
    [
      "on",
      "y</w>"
    ],
    [
      "off",
      "ic"
    ],
    [
      "fa",
      "ther,</w>"
    ],
    [
      "le",
      "ar"
    ],
    [
      "one",
      ".”</w>"
    ],
    [
      "p",
      "rac"
    ],
    [
      "Stre",
      "et</w>"
    ],
    [
      "c",
      "er"
    ],
    [
      "de",
      "termin"
    ],
    [
      "s",
      "at"
    ],
    [
      "inter",
      "est</w>"
    ],
    [
      "c",
      "ab"
    ],
    [
      "ct",
      "ly</w>"
    ],
    [
      "beg",
      "an</w>"
    ],
    [
      "w",
      "ri"
    ],
    [
      "stor",
      "y</w>"
    ],
    [
      "h",
      "on"
    ],
    [
      "us",
      ",</w>"
    ],
    [
      "z",
      "ed</w>"
    ],
    [
      "S",
      "o</w>"
    ],
    [
      "ar",
      "ri"
    ],
    [
      "pres",
      "ent</w>"
    ],
    [
      "charac",
      "ter"
    ],
    [
      "b",
      "er"
    ],
    [
      "bu",
      "il"
    ],
    [
      "it",
      "?”</w>"
    ],
    [
      "“",
      "G"
    ],
    [
      "s",
      "he"
    ],
    [
      "writt",
      "en</w>"
    ],
    [
      "le",
      "g"
    ],
    [
      "A",
      "mer"
    ],
    [
      "F",
      "ro"
    ],
    [
      "sa",
      "id,</w>"
    ],
    [
      "Fro",
      "m</w>"
    ],
    [
      "l",
      "u"
    ],
    [
      "pres",
      "ent"
    ],
    [
      "y",
      "ed</w>"
    ],
    [
      "br",
      "ing</w>"
    ],
    [
      "wh",
      "ose</w>"
    ],
    [
      "comp",
      "le"
    ],
    [
      "oc",
      "cur"
    ],
    [
      "clo",
      "th"
    ],
    [
      "possi",
      "b"
    ],
    [
      "“Y",
      "our</w>"
    ],
    [
      "do",
      "or"
    ],
    [
      "enc",
      "e.</w>"
    ],
    [
      "c",
      "e.</w>"
    ],
    [
      "ha",
      "b"
    ],
    [
      "“I",
      "n</w>"
    ],
    [
      "fac",
      "e.</w>"
    ],
    [
      "al",
      ",</w>"
    ],
    [
      "ple",
      "as"
    ],
    [
      "‘",
      "I</w>"
    ],
    [
      "Ha",
      "ther"
    ],
    [
      "ag",
      "e.</w>"
    ],
    [
      "g",
      "ener"
    ],
    [
      "ar",
      "d,</w>"
    ],
    [
      "ne",
      "x"
    ],
    [
      "lam",
      "p</w>"
    ],
    [
      "l",
      "d</w>"
    ],
    [
      "ti",
      "mes</w>"
    ],
    [
      "ti",
      "on.</w>"
    ],
    [
      "s",
      "low"
    ],
    [
      "c",
      "ir"
    ],
    [
      "an",
      "t,</w>"
    ],
    [
      "ar",
      "ly</w>"
    ],
    [
      "nei",
      "gh"
    ],
    [
      "Stre",
      "et,</w>"
    ],
    [
      "k",
      "ne"
    ],
    [
      "it",
      "y.</w>"
    ],
    [
      "har",
      "d</w>"
    ],
    [
      "le",
      "-"
    ],
    [
      "t",
      "wi"
    ],
    [
      "war",
      "d,</w>"
    ],
    [
      "pas",
      "sa"
    ],
    [
      "ent",
      "ered</w>"
    ],
    [
      "h",
      "y"
    ],
    [
      "evil",
      "le</w>"
    ],
    [
      "ut",
      "ter"
    ],
    [
      "ey",
      "e</w>"
    ],
    [
      "e",
      ",”</w>"
    ],
    [
      "window",
      ",</w>"
    ],
    [
      "w",
      "and"
    ],
    [
      "for",
      "m"
    ],
    [
      "pu",
      "b"
    ],
    [
      "them",
      ",</w>"
    ],
    [
      "N",
      "eville</w>"
    ],
    [
      "ag",
      "o"
    ],
    [
      "inde",
      "ed</w>"
    ],
    [
      "fami",
      "ly</w>"
    ],
    [
      "t",
      "s.</w>"
    ],
    [
      "stru",
      "ck</w>"
    ],
    [
      "s",
      "on.</w>"
    ],
    [
      "Maj",
      "est"
    ],
    [
      "clo",
      "sed</w>"
    ],
    [
      "them",
      ".</w>"
    ],
    [
      "St",
      "ar"
    ],
    [
      "af",
      "ra"
    ],
    [
      "m",
      "ac"
    ],
    [
      "room",
      "s</w>"
    ],
    [
      "p",
      ".</w>"
    ],
    [
      "el",
      "y.</w>"
    ],
    [
      "spe",
      "ak</w>"
    ],
    [
      "half",
      "-"
    ],
    [
      "b",
      "our"
    ],
    [
      "M",
      "on"
    ],
    [
      "is",
      "hed</w>"
    ],
    [
      "ment",
      ",</w>"
    ],
    [
      "glanc",
      "ing</w>"
    ],
    [
      "de",
      "ath"
    ],
    [
      "Lond",
      "on</w>"
    ],
    [
      "car",
      "ried</w>"
    ],
    [
      "s",
      "-"
    ],
    [
      "c",
      "ent</w>"
    ],
    [
      "or",
      "din"
    ],
    [
      "“T",
      "hey</w>"
    ],
    [
      "ordin",
      "ary</w>"
    ],
    [
      "H",
      "ow</w>"
    ],
    [
      "abo",
      "ve</w>"
    ],
    [
      "su",
      "m"
    ],
    [
      "t",
      "on</w>"
    ],
    [
      "con",
      "tr"
    ],
    [
      "L",
      "et</w>"
    ],
    [
      "b",
      "ra"
    ],
    [
      "tow",
      "ards</w>"
    ],
    [
      "re",
      "cei"
    ],
    [
      "pe",
      "cu"
    ],
    [
      "at",
      "temp"
    ],
    [
      "u",
      "se"
    ],
    [
      "h",
      "our</w>"
    ],
    [
      "hou",
      "se.</w>"
    ],
    [
      "se",
      "ar"
    ],
    [
      "per",
      "i"
    ],
    [
      "step",
      "s</w>"
    ],
    [
      "it",
      "u"
    ],
    [
      "Hather",
      "le"
    ],
    [
      "cau",
      "ght</w>"
    ],
    [
      "pul",
      "led</w>"
    ],
    [
      "v",
      "ent"
    ],
    [
      "spo",
      "ke</w>"
    ],
    [
      "do",
      "ct"
    ],
    [
      "accoun",
      "t</w>"
    ],
    [
      "tr",
      "oub"
    ],
    [
      "positi",
      "on</w>"
    ],
    [
      "des",
      "cri"
    ],
    [
      "b",
      "ank</w>"
    ],
    [
      "wa",
      "y.</w>"
    ],
    [
      "fe",
      "at"
    ],
    [
      "sing",
      "le</w>"
    ],
    [
      "lo",
      "st</w>"
    ],
    [
      "er",
      "ing</w>"
    ],
    [
      "Q",
      "u"
    ],
    [
      "us",
      "h</w>"
    ],
    [
      "ca",
      "re"
    ],
    [
      "D",
      "id</w>"
    ],
    [
      "ex",
      "peri"
    ],
    [
      "s",
      "y"
    ],
    [
      "sat",
      "is"
    ],
    [
      "de",
      "ad"
    ],
    [
      "seem",
      "s</w>"
    ],
    [
      "ca",
      "b</w>"
    ],
    [
      "s",
      "ound</w>"
    ],
    [
      "ag",
      "ue</w>"
    ],
    [
      "a",
      ",</w>"
    ],
    [
      "st",
      "ep</w>"
    ],
    [
      "ch",
      ".</w>"
    ],
    [
      "inst",
      "ant</w>"
    ],
    [
      "gir",
      "l"
    ],
    [
      "is",
      "h"
    ],
    [
      "fe",
      "et</w>"
    ],
    [
      "gre",
      "y</w>"
    ],
    [
      "th",
      "is"
    ],
    [
      "b",
      "ow"
    ],
    [
      "e",
      "ar</w>"
    ],
    [
      "c",
      "ut</w>"
    ],
    [
      "O",
      "pen"
    ],
    [
      "for",
      "ward</w>"
    ],
    [
      "s",
      "al"
    ],
    [
      "con",
      "ne"
    ],
    [
      "nat",
      "ur"
    ],
    [
      "mac",
      "hin"
    ],
    [
      "ha",
      "ir</w>"
    ],
    [
      "b",
      "ut"
    ],
    [
      "w",
      ",</w>"
    ],
    [
      "da",
      "y"
    ],
    [
      "fas",
      "hi"
    ],
    [
      "No",
      "w</w>"
    ],
    [
      "“",
      "Very</w>"
    ],
    [
      "after",
      "no"
    ],
    [
      "p",
      "ain"
    ],
    [
      "H",
      "ere</w>"
    ],
    [
      "answer",
      "ed.</w>"
    ],
    [
      "i",
      "d.</w>"
    ],
    [
      "c",
      "ou"
    ],
    [
      "th",
      "o"
    ],
    [
      "co",
      "at</w>"
    ],
    [
      "le",
      "d,</w>"
    ],
    [
      "H",
      "E</w>"
    ],
    [
      "En",
      "gl"
    ],
    [
      "v",
      "en"
    ],
    [
      "contin",
      "u"
    ],
    [
      "Ja",
      "mes</w>"
    ],
    [
      "A",
      "ll</w>"
    ],
    [
      "sh",
      "ort</w>"
    ],
    [
      "reas",
      "on</w>"
    ],
    [
      "whis",
      "per"
    ],
    [
      "neigh",
      "bour"
    ],
    [
      "lo",
      "ve</w>"
    ],
    [
      "c",
      "at"
    ],
    [
      "our",
      "sel"
    ],
    [
      "ide",
      "a</w>"
    ],
    [
      "Lestr",
      "ad"
    ],
    [
      "“No",
      "t</w>"
    ],
    [
      "s",
      "h</w>"
    ],
    [
      "nex",
      "t</w>"
    ],
    [
      "s",
      "k"
    ],
    [
      "me",
      ",”</w>"
    ],
    [
      "Watson",
      ",”</w>"
    ],
    [
      "eas",
      "y</w>"
    ],
    [
      "head",
      "ed</w>"
    ],
    [
      "plac",
      "ed</w>"
    ],
    [
      "Ar",
      "th"
    ],
    [
      "f",
      "urn"
    ],
    [
      "se",
      "tt"
    ],
    [
      "op",
      "in"
    ],
    [
      "ap",
      "pro"
    ],
    [
      "tr",
      "ue</w>"
    ],
    [
      "si",
      "on,</w>"
    ],
    [
      "W",
      "ith</w>"
    ],
    [
      "pecu",
      "liar</w>"
    ],
    [
      "v",
      "enti"
    ],
    [
      "mak",
      "ing</w>"
    ],
    [
      "countr",
      "y</w>"
    ],
    [
      "letter",
      "s</w>"
    ],
    [
      "ti",
      "on"
    ],
    [
      "that",
      ".</w>"
    ],
    [
      "matter",
      ",</w>"
    ],
    [
      "bl",
      "ue</w>"
    ],
    [
      "th",
      "row"
    ],
    [
      "sudd",
      "en</w>"
    ],
    [
      "T",
      "HE</w>"
    ],
    [
      "remark",
      "able</w>"
    ],
    [
      "cas",
      "i"
    ],
    [
      "re",
      "d-"
    ],
    [
      "show",
      "ed</w>"
    ],
    [
      "n",
      "er,</w>"
    ],
    [
      "ro",
      "se</w>"
    ],
    [
      "in",
      "ted</w>"
    ],
    [
      "l",
      "ate</w>"
    ],
    [
      "as",
      "hed</w>"
    ],
    [
      "pi",
      "e"
    ],
    [
      "d",
      "ing"
    ],
    [
      "in",
      ".</w>"
    ],
    [
      "Holmes",
      "’</w>"
    ],
    [
      "underst",
      "and,</w>"
    ],
    [
      "la",
      "d</w>"
    ],
    [
      "su",
      "ff"
    ],
    [
      "do",
      "or.</w>"
    ],
    [
      "marri",
      "age</w>"
    ],
    [
      "th",
      "ing"
    ],
    [
      "“Wh",
      "en</w>"
    ],
    [
      "sitt",
      "ing-"
    ],
    [
      "for",
      "med</w>"
    ],
    [
      "Open",
      "sha"
    ],
    [
      "tal",
      "k</w>"
    ],
    [
      "after",
      "war"
    ],
    [
      "“P",
      "ray</w>"
    ],
    [
      "ve",
      "lo"
    ],
    [
      "the",
      "or"
    ],
    [
      "et",
      "s</w>"
    ],
    [
      "po",
      "or</w>"
    ],
    [
      "feat",
      "ure"
    ],
    [
      "A",
      "l"
    ],
    [
      "en",
      "ough"
    ],
    [
      "c",
      "old</w>"
    ],
    [
      "reac",
      "hed</w>"
    ],
    [
      "I",
      "’ll</w>"
    ],
    [
      "An",
      "g"
    ],
    [
      "“I",
      "n"
    ],
    [
      "Ang",
      "el"
    ],
    [
      "r",
      "ati"
    ],
    [
      "no",
      "te</w>"
    ],
    [
      "disap",
      "pear"
    ],
    [
      "opin",
      "i"
    ],
    [
      "c",
      "le</w>"
    ],
    [
      "reme",
      "mber</w>"
    ],
    [
      "“I",
      "f</w>"
    ],
    [
      "you",
      ",”</w>"
    ],
    [
      "daugh",
      "ter</w>"
    ],
    [
      "in",
      "e"
    ],
    [
      "p",
      "ast</w>"
    ],
    [
      "venti",
      "lat"
    ],
    [
      "v",
      "ol"
    ],
    [
      "oc",
      "casi"
    ],
    [
      "Amer",
      "ic"
    ],
    [
      "ri",
      "ght"
    ],
    [
      "k",
      "e,</w>"
    ],
    [
      "inqu",
      "ir"
    ],
    [
      "ar",
      "ing</w>"
    ],
    [
      "fe",
      "ar</w>"
    ],
    [
      "remar",
      "ked,</w>"
    ],
    [
      "G",
      "er"
    ],
    [
      "head",
      ".</w>"
    ],
    [
      "—",
      "”</w>"
    ],
    [
      "rem",
      "ained</w>"
    ],
    [
      "st",
      "u"
    ],
    [
      "ex",
      "tre"
    ],
    [
      "b",
      "en"
    ],
    [
      "sle",
      "ep"
    ],
    [
      "th",
      "in</w>"
    ],
    [
      "impres",
      "sion</w>"
    ],
    [
      "hi",
      "gh</w>"
    ],
    [
      "d",
      "r"
    ],
    [
      "m",
      ".</w>"
    ],
    [
      "al",
      "low"
    ],
    [
      "cor",
      "on"
    ],
    [
      "er",
      ".”</w>"
    ],
    [
      "on",
      "ed</w>"
    ],
    [
      "os",
      "com"
    ],
    [
      "slow",
      "ly</w>"
    ],
    [
      "know",
      "le"
    ],
    [
      "tra",
      "in</w>"
    ],
    [
      "B",
      "y</w>"
    ],
    [
      "t",
      "ched</w>"
    ],
    [
      "co",
      "mes</w>"
    ],
    [
      "photograp",
      "h"
    ],
    [
      "atten",
      "tion</w>"
    ],
    [
      "dro",
      "pped</w>"
    ],
    [
      "vi",
      "ce</w>"
    ],
    [
      "n",
      "ess.</w>"
    ],
    [
      "th",
      "ou"
    ],
    [
      "k",
      "er"
    ],
    [
      "prac",
      "ti"
    ],
    [
      "gg",
      "ed</w>"
    ],
    [
      "inv",
      "esti"
    ],
    [
      "goo",
      "se</w>"
    ],
    [
      "w",
      "ha"
    ],
    [
      "afra",
      "id</w>"
    ],
    [
      "der",
      ",</w>"
    ],
    [
      "“",
      "E"
    ],
    [
      "“‘",
      "I</w>"
    ],
    [
      "pro",
      "mis"
    ],
    [
      "bri",
      "de"
    ],
    [
      "T",
      "urn"
    ],
    [
      "v",
      "il"
    ],
    [
      "fi",
      "f"
    ],
    [
      "qui",
      "et</w>"
    ],
    [
      "Ad",
      "l"
    ],
    [
      "S",
      "qu"
    ],
    [
      "ef",
      "fect</w>"
    ],
    [
      "ck",
      "et</w>"
    ],
    [
      "be",
      "ll"
    ],
    [
      "Roylo",
      "t"
    ],
    [
      "f",
      "our"
    ],
    [
      "a",
      "ir</w>"
    ],
    [
      "see",
      "ing</w>"
    ],
    [
      "investi",
      "g"
    ],
    [
      "profes",
      "sion"
    ],
    [
      "you",
      "?”</w>"
    ],
    [
      "a",
      "ver"
    ],
    [
      "i",
      "g"
    ],
    [
      "side",
      ".</w>"
    ],
    [
      "doub",
      "t"
    ],
    [
      "v",
      "ed.</w>"
    ],
    [
      "f",
      "ar"
    ],
    [
      "hand",
      ".</w>"
    ],
    [
      "p",
      "e,</w>"
    ],
    [
      "cli",
      "ent</w>"
    ],
    [
      "sh",
      "own</w>"
    ],
    [
      "e",
      "f</w>"
    ],
    [
      "oscom",
      "be</w>"
    ],
    [
      "or",
      "der</w>"
    ],
    [
      "her",
      "e,</w>"
    ],
    [
      "ev",
      "ening</w>"
    ],
    [
      "remar",
      "ked.</w>"
    ],
    [
      "str",
      "ang"
    ],
    [
      "ti",
      "c</w>"
    ],
    [
      "me",
      "di"
    ],
    [
      "s",
      "qu"
    ],
    [
      "cu",
      "sto"
    ],
    [
      "th",
      "or"
    ],
    [
      "a",
      ".</w>"
    ],
    [
      "n",
      "one</w>"
    ],
    [
      "si",
      "ble</w>"
    ],
    [
      "ty",
      "pe"
    ],
    [
      "ther",
      ".</w>"
    ],
    [
      "cha",
      "ir,</w>"
    ],
    [
      "se",
      "ly</w>"
    ],
    [
      "Qu",
      "ite</w>"
    ],
    [
      "ca",
      "se,</w>"
    ],
    [
      "gl",
      "ance</w>"
    ],
    [
      "fortun",
      "ate</w>"
    ],
    [
      "se",
      ".”</w>"
    ],
    [
      "in",
      "ten"
    ],
    [
      "0",
      "0"
    ],
    [
      "P",
      "e"
    ],
    [
      "my",
      "ster"
    ],
    [
      "d",
      ",”</w>"
    ],
    [
      "si",
      "gn</w>"
    ],
    [
      "ing",
      "ing</w>"
    ],
    [
      "too",
      ",</w>"
    ],
    [
      "ar",
      "y,</w>"
    ],
    [
      "him",
      ".”</w>"
    ],
    [
      "sus",
      "p"
    ],
    [
      "x",
      "ed</w>"
    ],
    [
      "gr",
      "oun"
    ],
    [
      "fac",
      "t</w>"
    ],
    [
      "susp",
      "ici"
    ],
    [
      "Fr",
      "ank</w>"
    ],
    [
      "1",
      "8"
    ],
    [
      "de",
      "al</w>"
    ],
    [
      "O",
      "ur</w>"
    ],
    [
      "T",
      "o</w>"
    ],
    [
      "per",
      "son</w>"
    ],
    [
      "ad",
      "m"
    ],
    [
      "ac",
      "qu"
    ],
    [
      "w",
      "ro"
    ],
    [
      "inci",
      "d"
    ],
    [
      "well",
      "-"
    ],
    [
      "foo",
      "t"
    ],
    [
      "si",
      "r.</w>"
    ],
    [
      "t",
      "el"
    ],
    [
      "ing",
      "ly</w>"
    ],
    [
      "bro",
      "ke</w>"
    ],
    [
      "whi",
      "st"
    ],
    [
      "a",
      "vi"
    ],
    [
      "enti",
      "rely</w>"
    ],
    [
      "—",
      "a</w>"
    ],
    [
      "s",
      "n"
    ],
    [
      "sitt",
      "ing</w>"
    ],
    [
      "all",
      "y,</w>"
    ]
  ],
  "vocab_size": 2355
}